<pad>	0
<sos>	0
<eos>	0
<unk>	0
▁t	-0
ng	-1
▁c	-2
▁th	-3
▁n	-4
▁a	-5
▁s	-6
▁đ	-7
▁b	-8
▁m	-9
▁h	-10
▁l	-11
▁v	-12
▁i	-13
er	-14
▁p	-15
▁k	-16
▁ch	-17
▁d	-18
▁the	-19
▁w	-20
▁o	-21
▁g	-22
ou	-23
re	-24
nh	-25
▁tr	-26
at	-27
on	-28
an	-29
▁nh	-30
en	-31
▁kh	-32
▁y	-33
▁f	-34
▁to	-35
es	-36
or	-37
nd	-38
ing	-39
▁ng	-40
▁you	-41
ed	-42
▁r	-43
in	-44
al	-45
▁và	-46
ar	-47
▁in	-48
▁ph	-49
it	-50
ông	-51
▁of	-52
▁là	-53
is	-54
ch	-55
▁and	-56
▁gi	-57
as	-58
om	-59
▁e	-60
ên	-61
▁có	-62
ll	-63
qu	-64
ic	-65
ay	-66
▁-	-67
▁củ	-68
▁của	-69
ôi	-70
iệ	-71
▁cá	-72
ột	-73
le	-74
▁qu	-75
ion	-76
▁một	-77
us	-78
et	-79
ve	-80
▁không	-81
ườ	-82
ượ	-83
iế	-84
ot	-85
ới	-86
ong	-87
▁tôi	-88
ow	-89
▁wh	-90
▁re	-91
▁be	-92
▁it	-93
ent	-94
▁x	-95
am	-96
ly	-97
ược	-98
▁is	-99
▁1	-100
ạn	-101
ut	-102
ất	-103
▁được	-104
ại	-105
uy	-106
id	-107
ct	-108
▁that	-109
▁on	-110
▁ta	-111
▁do	-112
▁ha	-113
ày	-114
▁trong	-115
▁bạn	-116
▁st	-117
▁ho	-118
▁các	-119
im	-120
▁for	-121
ười	-122
▁đã	-123
os	-124
▁nó	-125
ig	-126
▁(	-127
▁u	-128
▁thể	-129
▁đi	-130
▁cho	-131
▁con	-132
▁người	-133
ur	-134
ld	-135
▁đó	-136
▁như	-137
ce	-138
▁chú	-139
▁với	-140
ình	-141
▁we	-142
▁2	-143
▁he	-144
▁sa	-145
▁your	-146
th	-147
ere	-148
ấy	-149
ro	-150
ều	-151
▁anh	-152
▁an	-153
▁as	-154
ải	-155
ần	-156
ad	-157
▁ngh	-158
▁sh	-159
ith	-160
ver	-161
▁j	-162
ang	-163
ững	-164
ir	-165
▁những	-166
ter	-167
▁sẽ	-168
ân	-169
ây	-170
▁with	-171
▁li	-172
ol	-173
▁chúng	-174
▁để	-175
▁ở	-176
ation	-177
ke	-178
▁này	-179
▁họ	-180
il	-181
▁ra	-182
▁"	-183
▁khi	-184
ác	-185
em	-186
▁nă	-187
el	-188
ill	-189
▁or	-190
ướ	-191
▁lo	-192
st	-193
uố	-194
▁was	-195
od	-196
ành	-197
▁this	-198
▁vào	-199
▁làm	-200
▁are	-201
▁se	-202
ến	-203
iết	-204
ết	-205
ầu	-206
iên	-207
▁so	-208
▁cả	-209
▁ne	-210
igh	-211
▁fr	-212
op	-213
▁20	-214
▁com	-215
▁me	-216
▁su	-217
▁độ	-218
ul	-219
ường	-220
▁năm	-221
▁can	-222
▁phải	-223
ằng	-224
▁ba	-225
ơn	-226
ước	-227
iện	-228
ật	-229
▁de	-230
ant	-231
ực	-232
ers	-233
▁al	-234
▁not	-235
▁have	-236
ươ	-237
▁đến	-238
ag	-239
est	-240
ck	-241
▁at	-242
▁cô	-243
▁go	-244
and	-245
▁sự	-246
ống	-247
ặc	-248
▁về	-249
ính	-250
ức	-251
▁từ	-252
pp	-253
ia	-254
▁mà	-255
ản	-256
inh	-257
ore	-258
se	-259
ời	-260
▁ca	-261
ist	-262
ài	-263
ain	-264
ương	-265
iể	-266
ate	-267
ight	-268
um	-269
▁việ	-270
ận	-271
▁us	-272
ùng	-273
▁19	-274
ối	-275
▁em	-276
ếu	-277
ess	-278
▁pro	-279
ust	-280
ung	-281
âu	-282
▁ex	-283
▁di	-284
▁ab	-285
át	-286
▁if	-287
▁lại	-288
ould	-289
▁việc	-290
▁ma	-291
▁nói	-292
áng	-293
..	-294
▁gì	-295
àn	-296
▁điều	-297
ào	-298
un	-299
iến	-300
▁but	-301
ra	-302
art	-303
▁they	-304
▁what	-305
res	-306
▁by	-307
ri	-308
àng	-309
▁le	-310
ền	-311
▁thế	-312
▁cũ	-313
ập	-314
▁ông	-315
ome	-316
▁đây	-317
▁dụ	-318
▁chuy	-319
▁nhi	-320
▁bị	-321
▁nếu	-322
▁from	-323
▁nhưng	-324
▁hơn	-325
end	-326
anh	-327
▁đầu	-328
gh	-329
▁wor	-330
ồi	-331
▁biết	-332
out	-333
▁all	-334
▁cũng	-335
▁chỉ	-336
ect	-337
ally	-338
▁sp	-339
ab	-340
ăn	-341
▁kn	-342
▁thành	-343
▁my	-344
▁she	-345
▁trên	-346
▁đang	-347
ine	-348
▁pl	-349
ích	-350
one	-351
▁hoặc	-352
▁công	-353
ie	-354
all	-355
ive	-356
ci	-357
ok	-358
▁nhà	-359
ity	-360
▁cách	-361
ộc	-362
uốn	-363
ff	-364
00	-365
▁khác	-366
ốc	-367
ard	-368
▁will	-369
▁thấy	-370
ổi	-371
▁nhiều	-372
▁vì	-373
▁thu	-374
iệu	-375
▁nghĩ	-376
▁know	-377
ắt	-378
▁số	-379
au	-380
ơi	-381
▁sau	-382
▁un	-383
ort	-384
ies	-385
▁out	-386
▁gia	-387
▁muốn	-388
▁her	-389
êu	-390
ậy	-391
▁ar	-392
▁there	-393
ast	-394
▁đị	-395
ắc	-396
▁co	-397
▁học	-398
▁ấy	-399
▁one	-400
▁nào	-401
her	-402
ứng	-403
ment	-404
ọi	-405
ind	-406
▁te	-407
ái	-408
▁mình	-409
▁tại	-410
ud	-411
ậu	-412
▁chính	-413
án	-414
▁about	-415
▁cl	-416
▁kho	-417
▁201	-418
▁like	-419
ough	-420
▁quan	-421
▁up	-422
▁get	-423
ưa	-424
▁no	-425
ặt	-426
ữa	-427
ội	-428
▁cần	-429
ure	-430
▁tim	-431
▁sao	-432
▁động	-433
▁nhất	-434
▁tiế	-435
ện	-436
ai	-437
▁dụng	-438
pt	-439
òn	-440
úc	-441
▁nên	-442
▁ngày	-443
ắn	-444
▁rằng	-445
▁pr	-446
▁vậy	-447
▁fe	-448
ide	-449
▁whi	-450
▁3	-451
ạo	-452
▁rồi	-453
ound	-454
our	-455
▁just	-456
ục	-457
ber	-458
áo	-459
ame	-460
▁ti	-461
▁cu	-462
ấn	-463
▁when	-464
▁some	-465
▁cái	-466
âm	-467
ồng	-468
ink	-469
ry	-470
ost	-471
▁hiện	-472
▁man	-473
ip	-474
▁pe	-475
ánh	-476
▁còn	-477
▁may	-478
▁quy	-479
ẫn	-480
ấp	-481
▁ad	-482
▁br	-483
ap	-484
▁theo	-485
▁lu	-486
▁cậu	-487
▁bằng	-488
so	-489
▁thì	-490
ôn	-491
▁thực	-492
▁sử	-493
iv	-494
ảo	-495
▁nước	-496
iểu	-497
ăng	-498
▁nhân	-499
▁thứ	-500
▁has	-501
▁who	-502
ưở	-503
▁rất	-504
òng	-505
▁comp	-506
áp	-507
▁how	-508
ưởng	-509
▁thời	-510
ạt	-511
▁want	-512
▁am	-513
ượng	-514
nt	-515
iz	-516
▁hã	-517
▁int	-518
og	-519
▁tự	-520
ose	-521
▁ye	-522
▁more	-523
ther	-524
ice	-525
▁bản	-526
▁cơ	-527
▁ag	-528
▁giờ	-529
▁im	-530
ish	-531
ated	-532
▁them	-533
▁trước	-534
▁chuyện	-535
ions	-536
▁gr	-537
ỏi	-538
ợp	-539
▁tháng	-540
ep	-541
if	-542
▁hợp	-543
use	-544
ous	-545
▁định	-546
ian	-547
ảng	-548
▁ac	-549
age	-550
▁bu	-551
ak	-552
▁any	-553
▁his	-554
▁tố	-555
▁bec	-556
ace	-557
ìm	-558
▁quốc	-559
▁time	-560
▁cảm	-561
▁hai	-562
▁thường	-563
▁bộ	-564
ởi	-565
▁hành	-566
▁hình	-567
▁mar	-568
ib	-569
▁lên	-570
▁nhận	-571
▁tu	-572
▁hãy	-573
...	-574
▁cuộc	-575
▁were	-576
act	-577
ách	-578
▁phát	-579
▁ý	-580
iệt	-581
▁tìm	-582
ấu	-583
êm	-584
▁tin	-585
per	-586
▁cont	-587
▁trung	-588
▁which	-589
▁200	-590
ọng	-591
▁hay	-592
lo	-593
ach	-594
▁cứ	-595
▁cùng	-596
▁him	-597
ọn	-598
ỗi	-599
▁en	-600
▁qua	-601
▁bao	-602
▁their	-603
▁ro	-604
▁af	-605
▁peop	-606
▁lớ	-607
▁bà	-608
▁ev	-609
are	-610
▁tuy	-611
úp	-612
▁fo	-613
ical	-614
▁app	-615
ac	-616
▁people	-617
▁did	-618
▁also	-619
▁kết	-620
reat	-621
ase	-622
▁now	-623
▁here	-624
ạng	-625
▁work	-626
ick	-627
▁part	-628
▁think	-629
ars	-630
),	-631
▁má	-632
▁other	-633
▁4	-634
▁inc	-635
ừng	-636
▁need	-637
own	-638
▁ever	-639
▁tới	-640
hing	-641
▁mu	-642
ans	-643
▁sinh	-644
ary	-645
▁would	-646
▁per	-647
▁dis	-648
▁ngo	-649
▁giúp	-650
ass	-651
ịch	-652
▁had	-653
▁bắt	-654
▁lý	-655
av	-656
▁act	-657
ue	-658
▁ai	-659
▁right	-660
▁5	-661
▁than	-662
▁see	-663
▁vi	-664
).	-665
▁loại	-666
▁been	-667
▁đối	-668
▁new	-669
ater	-670
▁phần	-671
ress	-672
▁trường	-673
▁make	-674
▁bởi	-675
▁hội	-676
▁res	-677
▁tính	-678
▁xu	-679
▁'	-680
ạnh	-681
ence	-682
▁pre	-683
ph	-684
▁off	-685
▁trở	-686
▁look	-687
▁viên	-688
ings	-689
ển	-690
▁quá	-691
▁mọi	-692
▁inter	-693
▁mặt	-694
▁over	-695
▁tw	-696
▁tiếp	-697
▁thông	-698
▁hàng	-699
ạc	-700
▁tốt	-701
▁sống	-702
▁mới	-703
▁then	-704
na	-705
▁đề	-706
▁trình	-707
▁fir	-708
▁bo	-709
iệm	-710
ult	-711
▁mo	-712
▁chi	-713
ite	-714
▁la	-715
▁tạo	-716
▁these	-717
ge	-718
ays	-719
ations	-720
▁well	-721
▁đồng	-722
▁ăn	-723
▁liên	-724
▁hel	-725
▁gian	-726
▁đại	-727
▁sy	-728
omet	-729
▁giới	-730
orm	-731
du	-732
ount	-733
ance	-734
▁dùng	-735
▁tổ	-736
▁năng	-737
ệnh	-738
ub	-739
▁giải	-740
ond	-741
ause	-742
▁tra	-743
ắng	-744
▁thay	-745
▁tế	-746
▁đâu	-747
▁dự	-748
▁first	-749
iển	-750
▁into	-751
▁phí	-752
▁thật	-753
ồn	-754
▁tập	-755
▁hệ	-756
▁thích	-757
▁sc	-758
▁where	-759
ree	-760
ru	-761
▁lớn	-762
▁comm	-763
vel	-764
▁our	-765
▁nữa	-766
▁back	-767
ord	-768
▁got	-769
▁khu	-770
itt	-771
▁lần	-772
▁ser	-773
▁nguy	-774
▁bảo	-775
ens	-776
▁giả	-777
▁toàn	-778
▁tất	-779
elf	-780
▁help	-781
▁bet	-782
úng	-783
king	-784
▁trị	-785
▁xuất	-786
ign	-787
▁pháp	-788
▁ke	-789
ẩm	-790
pl	-791
ửa	-792
▁nhau	-793
▁tay	-794
ảnh	-795
ial	-796
▁tên	-797
▁every	-798
▁chất	-799
▁could	-800
ẳng	-801
▁jo	-802
▁tác	-803
▁đổi	-804
▁lượng	-805
▁chủ	-806
fe	-807
▁tình	-808
int	-809
▁nhiên	-810
oss	-811
▁gọi	-812
▁đo	-813
▁nam	-814
nder	-815
▁vị	-816
▁after	-817
pe	-818
ạch	-819
▁thức	-820
we	-821
ery	-822
ễn	-823
▁tiên	-824
ẩn	-825
▁trọng	-826
▁take	-827
▁máy	-828
▁should	-829
▁bố	-830
▁because	-831
▁its	-832
▁good	-833
▁spe	-834
▁vụ	-835
▁nơi	-836
ảy	-837
▁vật	-838
óc	-839
▁somet	-840
▁car	-841
▁đường	-842
▁tâm	-843
▁–	-844
▁bất	-845
able	-846
▁use	-847
iệp	-848
▁vẫn	-849
▁sĩ	-850
▁mi	-851
▁tho	-852
▁chứ	-853
▁hoá	-854
ah	-855
▁only	-856
ặp	-857
ition	-858
▁kỳ	-859
▁po	-860
▁hắn	-861
▁let	-862
▁pol	-863
▁two	-864
▁fl	-865
▁xem	-866
▁cao	-867
▁ty	-868
▁giá	-869
ire	-870
cess	-871
▁imp	-872
▁under	-873
amp	-874
ict	-875
ft	-876
▁sản	-877
út	-878
▁bên	-879
óng	-880
▁bỏ	-881
▁dư	-882
other	-883
▁say	-884
ade	-885
ble	-886
▁rem	-887
uốc	-888
▁way	-889
▁ind	-890
ving	-891
▁6	-892
ina	-893
▁down	-894
▁ngoài	-895
▁bệnh	-896
ath	-897
▁10	-898
ory	-899
ìn	-900
▁thống	-901
▁yêu	-902
▁thuốc	-903
▁chưa	-904
ểm	-905
▁bl	-906
▁điểm	-907
▁going	-908
ved	-909
▁call	-910
ộng	-911
▁hiệu	-912
▁/	-913
oth	-914
▁most	-915
▁vấn	-916
▁câu	-917
▁sm	-918
orn	-919
▁ảnh	-920
."	-921
▁mẹ	-922
▁thiết	-923
ors	-924
▁rec	-925
▁quả	-926
▁kinh	-927
wn	-928
▁tiếng	-929
erm	-930
ack	-931
▁cầu	-932
iểm	-933
▁liệu	-934
▁đưa	-935
▁thr	-936
▁chuyển	-937
▁sec	-938
▁chu	-939
▁nhìn	-940
▁đấy	-941
▁thị	-942
▁cr	-943
uối	-944
urn	-945
▁--	-946
ents	-947
▁cố	-948
▁nghe	-949
ầm	-950
▁quyền	-951
iss	-952
▁phụ	-953
▁chiến	-954
▁even	-955
▁tal	-956
fore	-957
▁gh	-958
▁world	-959
ody	-960
▁dân	-961
▁ban	-962
▁aw	-963
▁feel	-964
▁gen	-965
▁inf	-966
ép	-967
▁lập	-968
▁min	-969
▁truy	-970
▁nữ	-971
▁des	-972
▁phía	-973
▁tiêu	-974
▁chọn	-975
▁phương	-976
▁cấp	-977
▁rel	-978
▁lực	-979
ces	-980
▁lúc	-981
▁phòng	-982
ell	-983
▁thân	-984
▁tell	-985
▁cứu	-986
▁try	-987
▁biệt	-988
▁cons	-989
▁chứng	-990
ướng	-991
▁gặp	-992
ít	-993
les	-994
ates	-995
ợi	-996
▁7	-997
ét	-998
▁chị	-999
▁come	-1000
▁199	-1001
▁very	-1002
▁pers	-1003
ail	-1004
▁ngay	-1005
▁diff	-1006
▁z	-1007
▁phẩm	-1008
▁find	-1009
▁does	-1010
▁khoảng	-1011
▁ri	-1012
▁something	-1013
▁chiế	-1014
▁hết	-1015
▁thôi	-1016
ons	-1017
ting	-1018
ắm	-1019
▁vài	-1020
lud	-1021
▁da	-1022
ồm	-1023
▁wr	-1024
ually	-1025
▁why	-1026
▁before	-1027
▁8	-1028
▁ứng	-1029
ừa	-1030
▁nghĩa	-1031
▁tương	-1032
▁chức	-1033
▁hỏi	-1034
▁bình	-1035
be	-1036
▁such	-1037
self	-1038
▁long	-1039
▁mỗi	-1040
▁đúng	-1041
▁hoạt	-1042
▁đều	-1043
▁sáng	-1044
▁tăng	-1045
▁chết	-1046
▁hoàn	-1047
▁phân	-1048
▁gồm	-1049
▁chế	-1050
▁tiền	-1051
▁chơi	-1052
▁biến	-1053
▁inst	-1054
▁att	-1055
▁hiểu	-1056
ise	-1057
ạm	-1058
▁med	-1059
▁thương	-1060
ction	-1061
▁again	-1062
▁through	-1063
▁years	-1064
▁mất	-1065
▁day	-1066
▁lời	-1067
▁18	-1068
▁báo	-1069
▁met	-1070
▁nhỏ	-1071
▁triển	-1072
▁diễn	-1073
te	-1074
▁mon	-1075
▁form	-1076
▁đặt	-1077
▁gây	-1078
hip	-1079
▁khỏi	-1080
▁id	-1081
▁lư	-1082
▁sch	-1083
ves	-1084
ating	-1085
▁bài	-1086
▁many	-1087
▁đặc	-1088
▁thuật	-1089
▁said	-1090
▁life	-1091
▁dù	-1092
▁start	-1093
ám	-1094
▁tư	-1095
ought	-1096
▁dưới	-1097
▁dẫn	-1098
▁đất	-1099
▁reg	-1100
▁điện	-1101
▁includ	-1102
ấm	-1103
ne	-1104
▁9	-1105
▁giáo	-1106
▁acc	-1107
ious	-1108
vers	-1109
▁giảm	-1110
▁play	-1111
▁gần	-1112
000	-1113
▁used	-1114
▁hu	-1115
▁count	-1116
▁pres	-1117
▁tưởng	-1118
▁cuối	-1119
ational	-1120
▁high	-1121
▁đừng	-1122
▁dr	-1123
▁xác	-1124
cial	-1125
▁rep	-1126
▁much	-1127
uống	-1128
co	-1129
ys	-1130
▁sát	-1131
▁từng	-1132
ằm	-1133
get	-1134
▁giống	-1135
red	-1136
▁hy	-1137
▁produ	-1138
▁happ	-1139
ert	-1140
ắp	-1141
▁văn	-1142
▁trẻ	-1143
bs	-1144
ily	-1145
ower	-1146
▁el	-1147
ọc	-1148
▁lấy	-1149
ual	-1150
ative	-1151
▁gu	-1152
▁keep	-1153
ệt	-1154
ks	-1155
ather	-1156
ced	-1157
▁person	-1158
áu	-1159
▁giữ	-1160
▁nghiệp	-1161
▁water	-1162
▁kế	-1163
▁nay	-1164
▁really	-1165
▁vực	-1166
▁(1	-1167
▁thêm	-1168
▁tài	-1169
▁trí	-1170
▁inv	-1171
▁giữa	-1172
▁ear	-1173
▁sách	-1174
▁đơn	-1175
▁hoa	-1176
▁đánh	-1177
▁bel	-1178
▁add	-1179
▁xe	-1180
▁dec	-1181
▁op	-1182
thing	-1183
xt	-1184
▁wom	-1185
▁fri	-1186
olog	-1187
▁exp	-1188
▁mỹ	-1189
▁à	-1190
ows	-1191
▁being	-1192
▁chắc	-1193
▁cent	-1194
oc	-1195
▁dịch	-1196
▁cha	-1197
ful	-1198
▁khó	-1199
▁mạnh	-1200
▁those	-1201
▁sk	-1202
lic	-1203
▁too	-1204
▁đồ	-1205
ạy	-1206
ited	-1207
▁sur	-1208
▁quyết	-1209
▁truyền	-1210
▁supp	-1211
▁war	-1212
▁mang	-1213
▁ít	-1214
ren	-1215
▁kiểm	-1216
▁stud	-1217
io	-1218
az	-1219
▁khiến	-1220
0,	-1221
▁tớ	-1222
▁around	-1223
ular	-1224
▁things	-1225
▁hand	-1226
▁while	-1227
▁tham	-1228
ased	-1229
▁chang	-1230
ible	-1231
▁lan	-1232
ric	-1233
óm	-1234
▁never	-1235
▁friend	-1236
ittle	-1237
".	-1238
▁par	-1239
▁địa	-1240
▁nguyên	-1241
▁differ	-1242
▁cổ	-1243
▁mục	-1244
▁bác	-1245
▁eff	-1246
▁tranh	-1247
▁cây	-1248
▁mở	-1249
▁little	-1250
ject	-1251
ines	-1252
▁trang	-1253
gan	-1254
uring	-1255
▁bé	-1256
▁ed	-1257
▁gon	-1258
als	-1259
ave	-1260
▁end	-1261
▁own	-1262
ull	-1263
▁trò	-1264
ied	-1265
ities	-1266
ile	-1267
▁tinh	-1268
▁luôn	-1269
▁hum	-1270
ăm	-1271
▁vô	-1272
▁prot	-1273
oup	-1274
▁chí	-1275
ember	-1276
▁cảnh	-1277
▁thuộc	-1278
▁sl	-1279
▁mày	-1280
▁set	-1281
▁khí	-1282
▁put	-1283
▁hạn	-1284
ics	-1285
▁dist	-1286
▁kể	-1287
▁nhớ	-1288
▁sim	-1289
▁che	-1290
atch	-1291
ty	-1292
▁viết	-1293
▁vu	-1294
▁give	-1295
▁12	-1296
▁cal	-1297
▁duy	-1298
▁198	-1299
▁đông	-1300
▁tử	-1301
ince	-1302
▁ent	-1303
▁chẳng	-1304
▁xảy	-1305
▁fam	-1306
▁ok	-1307
▁place	-1308
▁fin	-1309
▁found	-1310
▁nor	-1311
▁still	-1312
▁col	-1313
▁mặc	-1314
▁cle	-1315
▁màu	-1316
▁num	-1317
▁gonna	-1318
▁bán	-1319
▁thư	-1320
ady	-1321
▁đạo	-1322
▁xuống	-1323
▁ass	-1324
▁sức	-1325
stem	-1326
▁great	-1327
▁thần	-1328
ầy	-1329
▁str	-1330
▁đáng	-1331
ash	-1332
lect	-1333
▁tối	-1334
▁khả	-1335
▁thủ	-1336
con	-1337
▁hướng	-1338
ven	-1339
▁tây	-1340
▁quân	-1341
▁minh	-1342
▁đủ	-1343
cy	-1344
▁tiến	-1345
▁gái	-1346
▁sou	-1347
▁kill	-1348
▁nghiệm	-1349
▁ins	-1350
▁dep	-1351
▁made	-1352
▁tích	-1353
▁mù	-1354
▁thử	-1355
llow	-1356
▁đội	-1357
bo	-1358
▁child	-1359
velop	-1360
▁cửa	-1361
▁danh	-1362
▁bar	-1363
▁tượng	-1364
eric	-1365
▁might	-1366
▁nghiên	-1367
ning	-1368
ier	-1369
▁phép	-1370
▁sure	-1371
▁three	-1372
uyết	-1373
▁phi	-1374
▁xin	-1375
der	-1376
▁trả	-1377
▁15	-1378
▁vệ	-1379
▁ngu	-1380
▁mus	-1381
iếm	-1382
▁system	-1383
▁tục	-1384
▁phim	-1385
▁ask	-1386
gr	-1387
▁last	-1388
its	-1389
▁bắc	-1390
▁yourself	-1391
▁thing	-1392
▁triệu	-1393
▁year	-1394
▁chiếc	-1395
▁loc	-1396
ón	-1397
▁lã	-1398
▁giết	-1399
▁cre	-1400
▁nằm	-1401
▁dễ	-1402
▁âm	-1403
▁char	-1404
▁nhóm	-1405
▁develop	-1406
▁av	-1407
▁phản	-1408
▁tuổi	-1409
land	-1410
▁same	-1411
man	-1412
▁open	-1413
▁thought	-1414
▁biểu	-1415
▁dài	-1416
▁real	-1417
▁trans	-1418
ron	-1419
▁home	-1420
▁mean	-1421
▁doing	-1422
▁nghệ	-1423
aw	-1424
ween	-1425
▁ant	-1426
▁talk	-1427
▁mắt	-1428
▁care	-1429
ool	-1430
ouse	-1431
augh	-1432
▁uống	-1433
tern	-1434
▁tổng	-1435
ứa	-1436
▁mô	-1437
▁oh	-1438
▁nghi	-1439
ner	-1440
▁between	-1441
▁cung	-1442
▁best	-1443
▁ví	-1444
▁cháu	-1445
▁intern	-1446
▁art	-1447
▁nhanh	-1448
ậm	-1449
▁old	-1450
▁luật	-1451
▁cộng	-1452
▁plan	-1453
▁show	-1454
▁nhạc	-1455
ẹp	-1456
▁name	-1457
▁đau	-1458
▁rõ	-1459
▁bre	-1460
by	-1461
▁each	-1462
alth	-1463
▁đời	-1464
▁cực	-1465
▁mod	-1466
▁conf	-1467
ix	-1468
cept	-1469
▁phố	-1470
▁sign	-1471
▁gener	-1472
▁phục	-1473
ild	-1474
▁trợ	-1475
▁resp	-1476
▁ref	-1477
▁different	-1478
▁đình	-1479
▁guy	-1480
▁ob	-1481
▁kiến	-1482
▁during	-1483
▁list	-1484
▁blo	-1485
▁lẽ	-1486
erg	-1487
ward	-1488
▁ổ	-1489
▁mức	-1490
ten	-1491
▁suy	-1492
▁love	-1493
▁run	-1494
êng	-1495
▁mua	-1496
▁pop	-1497
ps	-1498
▁197	-1499
▁lar	-1500
▁wo	-1501
▁cư	-1502
▁second	-1503
ềm	-1504
ho	-1505
ize	-1506
ness	-1507
ract	-1508
▁both	-1509
▁chương	-1510
uc	-1511
▁yếu	-1512
▁lead	-1513
▁sub	-1514
▁nhiệm	-1515
▁coll	-1516
0.	-1517
ik	-1518
ins	-1519
▁sở	-1520
▁tao	-1521
▁chống	-1522
ale	-1523
▁better	-1524
▁men	-1525
cc	-1526
iếu	-1527
ze	-1528
gg	-1529
▁đôi	-1530
▁ext	-1531
▁cụ	-1532
ures	-1533
ene	-1534
▁11	-1535
▁trái	-1536
day	-1537
nam	-1538
àu	-1539
ever	-1540
▁hộ	-1541
▁import	-1542
▁school	-1543
ms	-1544
oid	-1545
▁pub	-1546
▁chân	-1547
ically	-1548
vern	-1549
▁nổi	-1550
▁dành	-1551
ựa	-1552
the	-1553
▁pat	-1554
▁head	-1555
▁quay	-1556
▁bây	-1557
▁xã	-1558
▁thanh	-1559
▁bus	-1560
ution	-1561
▁away	-1562
rl	-1563
▁another	-1564
▁uni	-1565
ider	-1566
▁giao	-1567
▁vùng	-1568
▁kẻ	-1569
he	-1570
▁unt	-1571
ctor	-1572
▁cour	-1573
▁lot	-1574
▁treat	-1575
▁mat	-1576
▁bay	-1577
▁trưởng	-1578
▁sol	-1579
▁sw	-1580
▁đức	-1581
▁bọn	-1582
▁tuần	-1583
▁cor	-1584
ạp	-1585
ways	-1586
▁lỗi	-1587
ảm	-1588
▁lâu	-1589
▁ret	-1590
ôm	-1591
▁án	-1592
▁wa	-1593
ẫu	-1594
▁eng	-1595
▁effect	-1596
▁phủ	-1597
br	-1598
▁chỗ	-1599
▁đấu	-1600
▁americ	-1601
▁vừa	-1602
ters	-1603
▁def	-1604
▁mã	-1605
lish	-1606
▁hưởng	-1607
▁lưu	-1608
▁body	-1609
ork	-1610
▁govern	-1611
▁det	-1612
▁tránh	-1613
ern	-1614
yl	-1615
ident	-1616
▁viện	-1617
▁dạng	-1618
▁follow	-1619
",	-1620
▁called	-1621
▁es	-1622
ility	-1623
▁lịch	-1624
▁few	-1625
▁mối	-1626
▁mạng	-1627
ute	-1628
▁yeah	-1629
ton	-1630
▁gl	-1631
▁bàn	-1632
▁nhập	-1633
any	-1634
▁ngữ	-1635
cus	-1636
▁chịu	-1637
▁giác	-1638
▁sư	-1639
ments	-1640
▁until	-1641
▁turn	-1642
▁thái	-1643
▁khoa	-1644
▁women	-1645
▁since	-1646
▁tuyệt	-1647
arch	-1648
▁kind	-1649
▁chút	-1650
▁girl	-1651
ặng	-1652
▁sing	-1653
▁càng	-1654
▁fil	-1655
▁group	-1656
ital	-1657
oun	-1658
▁air	-1659
▁kích	-1660
▁ngôi	-1661
▁must	-1662
iness	-1663
▁pos	-1664
▁nhật	-1665
▁áp	-1666
▁lợi	-1667
▁trai	-1668
▁exper	-1669
▁nat	-1670
▁nguồn	-1671
▁dục	-1672
▁thi	-1673
ample	-1674
▁ngủ	-1675
▁human	-1676
▁prov	-1677
▁độc	-1678
ized	-1679
oney	-1680
▁food	-1681
ếp	-1682
▁big	-1683
▁quanh	-1684
ium	-1685
▁xúc	-1686
▁small	-1687
▁important	-1688
▁miss	-1689
▁ide	-1690
▁belie	-1691
▁stop	-1692
ươi	-1693
▁poss	-1694
▁using	-1695
▁hỗ	-1696
aughter	-1697
▁proble	-1698
▁kiện	-1699
▁sal	-1700
pr	-1701
▁eas	-1702
▁châu	-1703
▁health	-1704
▁family	-1705
▁wal	-1706
▁xử	-1707
▁xa	-1708
lease	-1709
▁always	-1710
▁trời	-1711
ional	-1712
▁,	-1713
▁chung	-1714
▁contro	-1715
▁ké	-1716
▁nội	-1717
▁number	-1718
form	-1719
▁cur	-1720
▁dire	-1721
iếng	-1722
▁gắng	-1723
▁house	-1724
6,	-1725
kes	-1726
▁thú	-1727
▁ngài	-1728
▁vẻ	-1729
▁đá	-1730
▁pain	-1731
▁dựng	-1732
wh	-1733
ĩnh	-1734
ts	-1735
▁diện	-1736
▁mark	-1737
▁night	-1738
▁vai	-1739
▁trạng	-1740
rib	-1741
▁phá	-1742
ision	-1743
ov	-1744
▁someone	-1745
ason	-1746
▁power	-1747
▁mill	-1748
▁happen	-1749
▁vòng	-1750
▁appro	-1751
▁cáo	-1752
air	-1753
▁ơn	-1754
1,	-1755
▁known	-1756
▁mr	-1757
4,	-1758
ime	-1759
▁har	-1760
▁17	-1761
▁kiếm	-1762
ism	-1763
▁ey	-1764
▁đóng	-1765
▁wee	-1766
▁actually	-1767
ỉnh	-1768
up	-1769
ão	-1770
ank	-1771
▁lạc	-1772
▁196	-1773
▁rộng	-1774
▁comple	-1775
▁phút	-1776
5,	-1777
▁mil	-1778
▁đàn	-1779
▁bóng	-1780
ately	-1781
▁chuyên	-1782
▁wind	-1783
iew	-1784
▁vo	-1785
▁tóc	-1786
ẵn	-1787
▁(2	-1788
▁top	-1789
▁example	-1790
▁hồi	-1791
▁okay	-1792
▁sit	-1793
▁once	-1794
▁stre	-1795
ral	-1796
▁val	-1797
▁luận	-1798
▁ghi	-1799
▁south	-1800
▁xây	-1801
▁prom	-1802
9,	-1803
▁chuẩn	-1804
ug	-1805
▁leg	-1806
▁đẹp	-1807
▁chia	-1808
▁move	-1809
▁quản	-1810
uyên	-1811
▁máu	-1812
▁kỷ	-1813
▁left	-1814
▁sợ	-1815
iting	-1816
▁without	-1817
ets	-1818
▁vui	-1819
▁fact	-1820
▁often	-1821
▁point	-1822
stand	-1823
ists	-1824
▁dầu	-1825
▁far	-1826
▁incre	-1827
▁riêng	-1828
▁cam	-1829
ẩy	-1830
▁anything	-1831
▁30	-1832
ific	-1833
vent	-1834
▁vũ	-1835
▁sẵn	-1836
▁quest	-1837
▁china	-1838
▁north	-1839
3,	-1840
▁hoà	-1841
▁kỹ	-1842
▁however	-1843
▁vận	-1844
▁tiết	-1845
▁vide	-1846
▁game	-1847
▁ste	-1848
ural	-1849
cl	-1850
▁dấu	-1851
▁fun	-1852
▁tech	-1853
▁states	-1854
body	-1855
cent	-1856
▁lòng	-1857
▁nhiễ	-1858
hn	-1859
▁face	-1860
8,	-1861
▁thúc	-1862
▁law	-1863
ark	-1864
ượt	-1865
▁est	-1866
▁city	-1867
▁consider	-1868
▁vọng	-1869
▁ge	-1870
▁hầu	-1871
▁aut	-1872
zy	-1873
ốn	-1874
▁áo	-1875
ense	-1876
2,	-1877
▁rest	-1878
▁khách	-1879
ữu	-1880
▁chạy	-1881
▁commun	-1882
▁var	-1883
▁less	-1884
▁stand	-1885
▁hữu	-1886
▁later	-1887
▁four	-1888
▁thoại	-1889
▁hạt	-1890
▁khoẻ	-1891
▁thiên	-1892
▁light	-1893
▁united	-1894
èo	-1895
▁hard	-1896
▁biển	-1897
ki	-1898
▁bước	-1899
▁beh	-1900
▁xét	-1901
▁thuyết	-1902
▁del	-1903
▁prof	-1904
▁cap	-1905
▁mấy	-1906
▁next	-1907
gether	-1908
iet	-1909
▁together	-1910
▁cử	-1911
led	-1912
▁organ	-1913
ese	-1914
▁hour	-1915
ages	-1916
▁mùa	-1917
▁common	-1918
ury	-1919
▁build	-1920
▁lệ	-1921
▁main	-1922
úi	-1923
▁tội	-1924
ister	-1925
▁word	-1926
▁against	-1927
ants	-1928
▁lớp	-1929
ta	-1930
▁dem	-1931
▁pri	-1932
▁lear	-1933
ana	-1934
▁lắm	-1935
▁buổi	-1936
▁interest	-1937
▁trực	-1938
7,	-1939
▁đô	-1940
▁kia	-1941
▁ang	-1942
ỏng	-1943
▁hôm	-1944
▁đoạn	-1945
ush	-1946
ane	-1947
ared	-1948
to	-1949
▁nhiệt	-1950
▁kid	-1951
▁month	-1952
me	-1953
▁change	-1954
▁du	-1955
,"	-1956
▁nền	-1957
▁việt	-1958
▁nhiễm	-1959
▁times	-1960
ases	-1961
▁vis	-1962
▁maybe	-1963
▁understand	-1964
▁enough	-1965
▁ký	-1966
ope	-1967
utes	-1968
▁đảm	-1969
▁dung	-1970
▁chúa	-1971
▁16	-1972
▁mom	-1973
▁mind	-1974
▁lang	-1975
▁tre	-1976
▁partic	-1977
▁dri	-1978
▁cân	-1979
▁const	-1980
▁mag	-1981
▁getting	-1982
ao	-1983
▁test	-1984
▁phạm	-1985
▁stay	-1986
▁hoạch	-1987
ủng	-1988
▁speci	-1989
▁west	-1990
ient	-1991
▁univers	-1992
▁194	-1993
com	-1994
▁toà	-1995
ology	-1996
▁government	-1997
ger	-1998
osed	-1999
▁195	-2000
▁bro	-2001
med	-2002
ats	-2003
▁side	-2004
▁doanh	-2005
▁ngoại	-2006
ected	-2007
▁hold	-2008
▁hát	-2009
▁mem	-2010
▁national	-2011
ỡng	-2012
▁cạnh	-2013
▁pot	-2014
▁inform	-2015
▁đứng	-2016
▁km	-2017
▁techn	-2018
els	-2019
âng	-2020
▁hist	-2021
▁grow	-2022
▁phổ	-2023
▁đầy	-2024
ains	-2025
ices	-2026
▁aff	-2027
▁gre	-2028
▁video	-2029
▁pass	-2030
ams	-2031
ames	-2032
▁viet	-2033
▁class	-2034
▁vir	-2035
▁within	-2036
ama	-2037
▁đứa	-2038
ues	-2039
▁adm	-2040
▁tiểu	-2041
▁hair	-2042
▁nghị	-2043
▁huy	-2044
my	-2045
▁process	-2046
▁mật	-2047
▁yes	-2048
▁chó	-2049
▁fore	-2050
▁father	-2051
▁hơi	-2052
▁100	-2053
▁god	-2054
▁level	-2055
▁(19	-2056
▁tàu	-2057
▁ngăn	-2058
ott	-2059
▁ly	-2060
▁appe	-2061
▁bào	-2062
▁skin	-2063
▁money	-2064
▁bức	-2065
▁loài	-2066
▁red	-2067
ertain	-2068
▁đạt	-2069
▁business	-2070
▁days	-2071
▁product	-2072
ird	-2073
▁john	-2074
uốt	-2075
▁done	-2076
rug	-2077
ín	-2078
▁cải	-2079
▁khăn	-2080
▁thẳng	-2081
▁leave	-2082
▁vietnam	-2083
ement	-2084
▁pa	-2085
▁cell	-2086
▁khá	-2087
▁đêm	-2088
ốt	-2089
▁hal	-2090
▁activ	-2091
▁chứa	-2092
▁sang	-2093
▁order	-2094
ont	-2095
▁soát	-2096
▁coi	-2097
▁occ	-2098
▁pur	-2099
▁tem	-2100
▁result	-2101
▁lãnh	-2102
▁live	-2103
xy	-2104
▁xo	-2105
▁told	-2106
▁state	-2107
oms	-2108
▁bi	-2109
▁contin	-2110
▁hà	-2111
ret	-2112
▁chấp	-2113
ka	-2114
ove	-2115
inal	-2116
▁kim	-2117
ma	-2118
▁came	-2119
▁song	-2120
▁support	-2121
▁term	-2122
▁everything	-2123
ny	-2124
ection	-2125
▁remember	-2126
ộn	-2127
▁able	-2128
ead	-2129
▁hôn	-2130
▁son	-2131
▁bad	-2132
▁sci	-2133
▁making	-2134
▁today	-2135
sh	-2136
▁country	-2137
▁include	-2138
▁children	-2139
-1	-2140
ata	-2141
▁sắp	-2142
▁control	-2143
▁nothing	-2144
▁hồ	-2145
▁gra	-2146
ries	-2147
▁blood	-2148
▁dữ	-2149
ably	-2150
▁kéo	-2151
▁tức	-2152
▁free	-2153
▁including	-2154
▁meet	-2155
▁sym	-2156
▁serv	-2157
▁trying	-2158
▁elect	-2159
▁design	-2160
▁ích	-2161
▁friends	-2162
▁cy	-2163
▁hoàng	-2164
tr	-2165
▁je	-2166
itive	-2167
▁thiếu	-2168
▁alb	-2169
▁polit	-2170
▁area	-2171
ined	-2172
▁pet	-2173
▁sắc	-2174
▁press	-2175
ison	-2176
conom	-2177
▁trông	-2178
▁looking	-2179
4.	-2180
gin	-2181
▁kê	-2182
▁trận	-2183
ake	-2184
▁vết	-2185
▁requ	-2186
▁bill	-2187
▁cập	-2188
ruct	-2189
ote	-2190
▁win	-2191
▁sever	-2192
▁public	-2193
ield	-2194
li	-2195
ặn	-2196
▁chắn	-2197
▁doctor	-2198
ãi	-2199
cle	-2200
▁đoán	-2201
ulation	-2202
▁bas	-2203
▁book	-2204
▁allow	-2205
imes	-2206
▁băng	-2207
▁based	-2208
▁relations	-2209
uss	-2210
▁having	-2211
mi	-2212
▁ter	-2213
▁rad	-2214
▁fre	-2215
▁sâu	-2216
aining	-2217
ửi	-2218
▁ngươi	-2219
que	-2220
▁read	-2221
ior	-2222
▁econom	-2223
▁chr	-2224
▁expl	-2225
une	-2226
iter	-2227
▁star	-2228
ention	-2229
▁cắt	-2230
▁hậu	-2231
▁môi	-2232
▁cause	-2233
▁hại	-2234
▁25	-2235
▁oth	-2236
▁13	-2237
▁ổn	-2238
▁adv	-2239
▁ris	-2240
▁break	-2241
▁mother	-2242
rict	-2243
▁speak	-2244
▁experi	-2245
ange	-2246
ature	-2247
▁case	-2248
▁sai	-2249
▁full	-2250
▁thậm	-2251
▁social	-2252
cer	-2253
ica	-2254
ained	-2255
ler	-2256
▁party	-2257
▁ấn	-2258
▁mas	-2259
▁else	-2260
▁others	-2261
▁hey	-2262
▁drug	-2263
▁ánh	-2264
▁five	-2265
▁dựa	-2266
▁believe	-2267
ently	-2268
▁đu	-2269
▁instead	-2270
▁đa	-2271
▁minutes	-2272
▁ru	-2273
▁mạch	-2274
▁xung	-2275
▁lựa	-2276
ley	-2277
▁đoàn	-2278
▁record	-2279
▁bang	-2280
▁bring	-2281
▁means	-2282
▁ngồi	-2283
line	-2284
▁dam	-2285
▁equ	-2286
▁tồn	-2287
▁quần	-2288
▁ju	-2289
ards	-2290
▁phù	-2291
▁thằng	-2292
▁king	-2293
▁took	-2294
▁ve	-2295
ling	-2296
▁chờ	-2297
▁món	-2298
▁watch	-2299
▁lá	-2300
▁cut	-2301
▁thấp	-2302
mer	-2303
▁đọc	-2304
▁wanted	-2305
▁avoid	-2306
▁bit	-2307
▁opp	-2308
▁please	-2309
▁cra	-2310
▁sun	-2311
▁cười	-2312
▁company	-2313
▁hiểm	-2314
▁boy	-2315
▁phong	-2316
▁thưởng	-2317
▁suc	-2318
▁redu	-2319
▁several	-2320
bers	-2321
▁ngôn	-2322
▁$	-2323
▁sho	-2324
▁tuyến	-2325
▁possible	-2326
▁tệ	-2327
▁sle	-2328
app	-2329
less	-2330
▁ap	-2331
ready	-2332
▁information	-2333
kh	-2334
▁sor	-2335
fer	-2336
▁sàng	-2337
▁become	-2338
▁rele	-2339
ken	-2340
▁already	-2341
▁music	-2342
▁eur	-2343
▁large	-2344
▁land	-2345
▁line	-2346
▁thưa	-2347
▁idea	-2348
cing	-2349
▁ni	-2350
▁cond	-2351
▁room	-2352
▁toán	-2353
▁trải	-2354
▁maj	-2355
▁seem	-2356
▁simp	-2357
▁heart	-2358
▁mid	-2359
▁tom	-2360
itch	-2361
▁trùng	-2362
apan	-2363
▁near	-2364
20	-2365
▁offic	-2366
▁conn	-2367
▁comput	-2368
▁bổ	-2369
▁went	-2370
ption	-2371
tiếng	-2372
▁bánh	-2373
ories	-2374
▁report	-2375
▁pay	-2376
sp	-2377
▁nhắc	-2378
▁oper	-2379
▁nhé	-2380
▁oil	-2381
▁kiểu	-2382
▁learn	-2383
▁university	-2384
ẩu	-2385
row	-2386
▁check	-2387
▁thiện	-2388
▁talking	-2389
▁bra	-2390
▁phys	-2391
ãn	-2392
▁ir	-2393
ides	-2394
▁black	-2395
▁close	-2396
▁caus	-2397
▁hả	-2398
ones	-2399
▁president	-2400
▁âu	-2401
▁lắng	-2402
▁young	-2403
▁direct	-2404
▁căn	-2405
▁hot	-2406
▁khai	-2407
▁progr	-2408
let	-2409
ife	-2410
arent	-2411
▁past	-2412
▁sạch	-2413
▁giản	-2414
▁não	-2415
▁problem	-2416
▁nhẹ	-2417
ither	-2418
▁coming	-2419
▁ann	-2420
▁hear	-2421
▁album	-2422
▁thụ	-2423
▁million	-2424
▁er	-2425
side	-2426
▁hạ	-2427
▁nối	-2428
ee	-2429
▁working	-2430
ói	-2431
gen	-2432
▁lab	-2433
ba	-2434
▁fu	-2435
▁meth	-2436
ara	-2437
▁14	-2438
▁death	-2439
▁thất	-2440
▁rối	-2441
▁mong	-2442
▁bầu	-2443
▁asso	-2444
▁seen	-2445
go	-2446
ised	-2447
▁langu	-2448
▁international	-2449
att	-2450
▁american	-2451
▁dị	-2452
▁swe	-2453
▁woman	-2454
rop	-2455
rent	-2456
▁week	-2457
▁gửi	-2458
▁japan	-2459
▁50	-2460
▁ràng	-2461
uyện	-2462
▁clean	-2463
▁xuyên	-2464
▁trừ	-2465
▁clear	-2466
▁whole	-2467
▁buộc	-2468
▁type	-2469
▁ii	-2470
▁tả	-2471
▁ele	-2472
▁dòng	-2473
▁afric	-2474
▁perform	-2475
▁short	-2476
▁relationship	-2477
▁kì	-2478
ending	-2479
ering	-2480
▁hours	-2481
▁became	-2482
5.	-2483
mber	-2484
fic	-2485
por	-2486
ator	-2487
▁typ	-2488
▁thắng	-2489
▁general	-2490
▁gm	-2491
odes	-2492
way	-2493
2.	-2494
▁mẫu	-2495
▁tai	-2496
▁tấn	-2497
▁conc	-2498
▁cult	-2499
▁suốt	-2500
▁vợ	-2501
ency	-2502
▁mal	-2503
▁cánh	-2504
ization	-2505
ớm	-2506
▁least	-2507
▁giấy	-2508
▁quen	-2509
search	-2510
laughter	-2511
▁cuốn	-2512
▁major	-2513
▁cop	-2514
▁medic	-2515
▁listen	-2516
ino	-2517
▁job	-2518
ired	-2519
▁emp	-2520
▁gốc	-2521
▁along	-2522
▁nghiêm	-2523
▁mic	-2524
▁germ	-2525
ots	-2526
▁trao	-2527
ein	-2528
ried	-2529
▁luyện	-2530
▁associ	-2531
▁lai	-2532
▁dead	-2533
▁stat	-2534
▁neg	-2535
▁taking	-2536
ria	-2537
▁ben	-2538
▁tri	-2539
▁drink	-2540
▁early	-2541
▁chàng	-2542
▁present	-2543
1.	-2544
▁non	-2545
▁east	-2546
▁profess	-2547
3.	-2548
▁nóng	-2549
erc	-2550
▁dây	-2551
ences	-2552
▁sometimes	-2553
▁team	-2554
▁khoản	-2555
▁sleep	-2556
▁return	-2557
▁research	-2558
▁nhu	-2559
▁born	-2560
▁xếp	-2561
▁ô	-2562
son	-2563
▁1,	-2564
▁chữ	-2565
▁hyd	-2566
▁lim	-2567
▁local	-2568
▁khô	-2569
▁low	-2570
▁trì	-2571
▁vời	-2572
▁rece	-2573
gn	-2574
ượu	-2575
inist	-2576
▁cat	-2577
▁tạp	-2578
▁story	-2579
omer	-2580
▁net	-2581
▁xấu	-2582
▁half	-2583
▁manag	-2584
▁iss	-2585
▁sil	-2586
▁web	-2587
ination	-2588
9.	-2589
▁si	-2590
ưng	-2591
▁nu	-2592
▁đảo	-2593
▁focus	-2594
▁orig	-2595
▁prob	-2596
▁rượu	-2597
▁mèo	-2598
▁trắng	-2599
▁course	-2600
▁tôn	-2601
ưu	-2602
▁sound	-2603
hy	-2604
ode	-2605
▁cost	-2606
▁đẩy	-2607
▁dương	-2608
▁193	-2609
▁mái	-2610
õi	-2611
▁+	-2612
▁ước	-2613
8.	-2614
no	-2615
▁sex	-2616
▁cấu	-2617
▁rev	-2618
▁white	-2619
▁sir	-2620
▁giám	-2621
▁vill	-2622
▁invest	-2623
7.	-2624
aut	-2625
sel	-2626
▁film	-2627
▁click	-2628
atic	-2629
▁đài	-2630
▁deal	-2631
▁saw	-2632
▁khối	-2633
▁port	-2634
▁started	-2635
6.	-2636
▁đỏ	-2637
▁foot	-2638
ended	-2639
▁special	-2640
▁uh	-2641
▁quý	-2642
▁earth	-2643
▁dev	-2644
▁lat	-2645
▁tỉnh	-2646
▁thoát	-2647
▁accord	-2648
▁treatment	-2649
▁div	-2650
▁though	-2651
ipp	-2652
ụng	-2653
▁dog	-2654
▁tỷ	-2655
▁sorry	-2656
▁tuyên	-2657
▁strong	-2658
ada	-2659
ann	-2660
ying	-2661
▁mass	-2662
▁nhờ	-2663
▁guys	-2664
▁nặng	-2665
▁trách	-2666
▁market	-2667
▁usually	-2668
▁ur	-2669
▁kính	-2670
▁sơ	-2671
▁phiên	-2672
▁norm	-2673
ox	-2674
par	-2675
fort	-2676
de	-2677
cks	-2678
▁buồn	-2679
▁york	-2680
▁comb	-2681
▁following	-2682
▁vượt	-2683
▁1.	-2684
▁eat	-2685
▁scre	-2686
omb	-2687
▁tù	-2688
▁pract	-2689
▁certain	-2690
▁vàng	-2691
▁hút	-2692
ouch	-2693
▁rời	-2694
itions	-2695
▁due	-2696
▁ce	-2697
▁đen	-2698
▁pap	-2699
▁trụ	-2700
▁phil	-2701
▁super	-2702
▁nạn	-2703
▁phê	-2704
eth	-2705
▁chăm	-2706
▁phot	-2707
▁teach	-2708
ót	-2709
ted	-2710
unch	-2711
▁sớm	-2712
▁yet	-2713
▁súng	-2714
▁dan	-2715
▁hạng	-2716
▁tuỳ	-2717
cially	-2718
▁sân	-2719
▁đỡ	-2720
▁invol	-2721
iod	-2722
▁ago	-2723
▁fig	-2724
ọt	-2725
▁hur	-2726
▁fight	-2727
▁thinking	-2728
▁baby	-2729
▁cover	-2730
▁store	-2731
▁cơn	-2732
▁six	-2733
▁hiệp	-2734
▁nghỉ	-2735
▁dra	-2736
▁kháng	-2737
▁step	-2738
▁đảng	-2739
▁poland	-2740
ality	-2741
▁club	-2742
▁situ	-2743
▁thảo	-2744
▁trúc	-2745
▁chỉnh	-2746
ich	-2747
▁mot	-2748
▁success	-2749
▁huỷ	-2750
▁pret	-2751
▁sent	-2752
▁xanh	-2753
ump	-2754
vir	-2755
▁thịt	-2756
▁wrong	-2757
▁district	-2758
cin	-2759
▁question	-2760
ided	-2761
▁lạnh	-2762
▁desc	-2763
▁space	-2764
erv	-2765
▁cận	-2766
▁dry	-2767
▁matter	-2768
xim	-2769
amin	-2770
▁bắn	-2771
▁đổ	-2772
▁camp	-2773
▁wait	-2774
▁complete	-2775
▁cir	-2776
▁thuận	-2777
ax	-2778
▁dạy	-2779
▁dàng	-2780
sy	-2781
ergy	-2782
ured	-2783
▁chào	-2784
▁according	-2785
▁mess	-2786
▁begin	-2787
sw	-2788
▁bí	-2789
inese	-2790
▁either	-2791
▁giai	-2792
▁=	-2793
▁hell	-2794
▁town	-2795
▁proper	-2796
ew	-2797
áy	-2798
▁anim	-2799
jo	-2800
▁buy	-2801
▁san	-2802
ential	-2803
▁rửa	-2804
▁đợi	-2805
▁ngắn	-2806
▁create	-2807
▁gã	-2808
▁brain	-2809
▁gmina	-2810
▁inside	-2811
enn	-2812
▁post	-2813
▁reach	-2814
▁months	-2815
▁khẩu	-2816
ẹn	-2817
anna	-2818
▁niệm	-2819
▁period	-2820
▁single	-2821
▁tit	-2822
▁percent	-2823
▁loạn	-2824
▁quên	-2825
ca	-2826
▁fut	-2827
inistr	-2828
▁tải	-2829
ether	-2830
▁series	-2831
ered	-2832
▁bốn	-2833
▁bữa	-2834
gar	-2835
▁fur	-2836
▁sum	-2837
▁đem	-2838
▁current	-2839
ĩa	-2840
▁mũ	-2841
ances	-2842
ives	-2843
▁fall	-2844
▁probably	-2845
za	-2846
idence	-2847
▁dom	-2848
▁cong	-2849
▁thai	-2850
▁walk	-2851
ety	-2852
hor	-2853
raph	-2854
?"	-2855
▁hon	-2856
▁hands	-2857
▁educ	-2858
▁ident	-2859
▁makes	-2860
▁ep	-2861
▁europe	-2862
▁program	-2863
▁likely	-2864
▁computer	-2865
zc	-2866
ock	-2867
▁lễ	-2868
ilar	-2869
▁hấp	-2870
▁chinese	-2871
▁addition	-2872
▁sóc	-2873
▁mắc	-2874
▁pie	-2875
▁tốc	-2876
▁administr	-2877
aps	-2878
ony	-2879
▁account	-2880
▁dou	-2881
▁dise	-2882
▁countries	-2883
▁bại	-2884
▁chồng	-2885
▁creat	-2886
▁stu	-2887
▁lệnh	-2888
▁quick	-2889
aces	-2890
▁màn	-2891
▁event	-2892
▁central	-2893
▁history	-2894
▁spr	-2895
▁self	-2896
▁thập	-2897
▁chiều	-2898
ano	-2899
▁bal	-2900
icult	-2901
▁căng	-2902
▁pick	-2903
estern	-2904
▁development	-2905
bb	-2906
▁dre	-2907
▁infl	-2908
▁prin	-2909
▁tv	-2910
▁đăng	-2911
▁impro	-2912
af	-2913
▁24	-2914
▁age	-2915
▁ill	-2916
▁data	-2917
ów	-2918
▁bảng	-2919
▁jack	-2920
▁phúc	-2921
▁compet	-2922
▁saying	-2923
ball	-2924
▁glo	-2925
▁tele	-2926
▁giành	-2927
èn	-2928
ico	-2929
▁pal	-2930
▁sam	-2931
▁ngược	-2932
▁0	-2933
▁mor	-2934
▁khám	-2935
▁soon	-2936
▁rights	-2937
▁century	-2938
ụp	-2939
ape	-2940
▁thơ	-2941
▁coun	-2942
▁energy	-2943
▁outside	-2944
▁prevent	-2945
▁thận	-2946
▁chảy	-2947
▁given	-2948
pecially	-2949
▁alm	-2950
▁eyes	-2951
▁risk	-2952
▁sympt	-2953
▁reason	-2954
▁dad	-2955
▁tan	-2956
ived	-2957
lished	-2958
▁squ	-2959
▁dưỡng	-2960
dy	-2961
ngth	-2962
▁thở	-2963
▁object	-2964
where	-2965
▁hạnh	-2966
▁vict	-2967
▁ax	-2968
▁tắc	-2969
▁phone	-2970
▁future	-2971
▁everyone	-2972
▁among	-2973
▁difficult	-2974
▁đe	-2975
▁hải	-2976
▁làng	-2977
▁project	-2978
▁internet	-2979
▁front	-2980
▁khoá	-2981
▁view	-2982
▁killed	-2983
era	-2984
▁vầ	-2985
eria	-2986
iệng	-2987
▁die	-2988
▁đột	-2989
▁sour	-2990
▁phóng	-2991
▁arg	-2992
▁tín	-2993
vious	-2994
▁miệng	-2995
▁vương	-2996
▁chuyến	-2997
▁amount	-2998
▁sửa	-2999
▁mời	-3000
▁ngân	-3001
▁đích	-3002
▁alone	-3003
▁trust	-3004
ood	-3005
▁deep	-3006
▁khởi	-3007
▁particular	-3008
lex	-3009
,000	-3010
pect	-3011
▁jan	-3012
▁nửa	-3013
ients	-3014
rit	-3015
▁lửa	-3016
aring	-3017
▁parent	-3018
▁select	-3019
ko	-3020
▁answ	-3021
▁trad	-3022
loy	-3023
work	-3024
▁pan	-3025
▁chem	-3026
▁nhấp	-3027
▁rich	-3028
▁tiện	-3029
selves	-3030
ude	-3031
▁key	-3032
▁mềm	-3033
▁vol	-3034
▁mult	-3035
cover	-3036
▁windows	-3037
bal	-3038
▁nuôi	-3039
▁needs	-3040
▁especially	-3041
▁thank	-3042
▁biên	-3043
▁soci	-3044
ivid	-3045
▁đào	-3046
▁rather	-3047
óp	-3048
▁40	-3049
▁hi	-3050
▁oct	-3051
▁vers	-3052
▁language	-3053
▁tổn	-3054
▁fire	-3055
▁charact	-3056
of	-3057
▁bur	-3058
▁cast	-3059
▁nice	-3060
▁stress	-3061
▁bed	-3062
▁niên	-3063
▁thuỷ	-3064
▁dần	-3065
▁inh	-3066
cum	-3067
ians	-3068
▁bott	-3069
▁safe	-3070
▁repres	-3071
▁whether	-3072
òi	-3073
▁mại	-3074
▁nga	-3075
ental	-3076
dle	-3077
etic	-3078
▁eye	-3079
▁tot	-3080
▁tầm	-3081
la	-3082
▁191	-3083
ified	-3084
▁touch	-3085
ùa	-3086
▁á	-3087
▁tụ	-3088
▁lành	-3089
▁study	-3090
▁mai	-3091
▁dest	-3092
▁late	-3093
▁nông	-3094
▁viêm	-3095
▁khủng	-3096
ob	-3097
ges	-3098
▁192	-3099
▁tĩnh	-3100
▁beaut	-3101
▁political	-3102
▁card	-3103
▁soft	-3104
▁text	-3105
▁released	-3106
▁lạ	-3107
ga	-3108
▁sẻ	-3109
▁tái	-3110
▁hope	-3111
▁exact	-3112
▁christ	-3113
▁natural	-3114
▁similar	-3115
▁lost	-3116
▁individ	-3117
▁2.	-3118
▁rom	-3119
▁lĩnh	-3120
▁grand	-3121
▁march	-3122
▁experience	-3123
▁thừa	-3124
▁wife	-3125
▁happened	-3126
▁21	-3127
▁morn	-3128
▁secret	-3129
ứt	-3130
viron	-3131
▁russ	-3132
ey	-3133
▁khắc	-3134
▁obs	-3135
▁meas	-3136
ela	-3137
▁voiv	-3138
oud	-3139
▁đế	-3140
▁says	-3141
▁breat	-3142
▁ngành	-3143
▁van	-3144
▁sông	-3145
▁environ	-3146
▁dõi	-3147
▁chữa	-3148
▁western	-3149
▁ngờ	-3150
urity	-3151
odeship	-3152
▁cà	-3153
▁ung	-3154
▁acid	-3155
▁medical	-3156
▁voivodeship	-3157
▁field	-3158
▁nhiêu	-3159
ham	-3160
ming	-3161
port	-3162
▁nỗi	-3163
▁chặn	-3164
aly	-3165
▁dig	-3166
▁hit	-3167
▁avail	-3168
▁abs	-3169
▁leav	-3170
▁symptoms	-3171
ky	-3172
▁sung	-3173
▁cường	-3174
lin	-3175
▁khổ	-3176
▁exerc	-3177
itary	-3178
▁colle	-3179
▁morning	-3180
▁bày	-3181
▁đốc	-3182
anian	-3183
lling	-3184
▁fail	-3185
▁games	-3186
▁chạm	-3187
▁works	-3188
cha	-3189
bert	-3190
▁hộp	-3191
▁vâng	-3192
▁syria	-3193
▁tar	-3194
▁village	-3195
▁aug	-3196
▁rob	-3197
▁attack	-3198
▁building	-3199
▁individual	-3200
▁box	-3201
▁jud	-3202
▁sóng	-3203
▁fav	-3204
▁tộc	-3205
▁xong	-3206
▁°	-3207
▁hydro	-3208
▁flo	-3209
▁wall	-3210
▁behav	-3211
▁đám	-3212
▁brother	-3213
ateg	-3214
▁phó	-3215
▁dừng	-3216
ograph	-3217
▁third	-3218
▁nha	-3219
urs	-3220
▁fa	-3221
▁chóng	-3222
▁access	-3223
▁population	-3224
▁&	-3225
rodu	-3226
▁mac	-3227
▁prim	-3228
▁true	-3229
▁protein	-3230
ec	-3231
▁hoạ	-3232
▁hang	-3233
▁heard	-3234
▁virus	-3235
▁method	-3236
▁effects	-3237
▁arm	-3238
▁police	-3239
ớt	-3240
ogn	-3241
ross	-3242
▁gun	-3243
▁comes	-3244
▁mater	-3245
▁positive	-3246
▁cầm	-3247
▁gar	-3248
▁geor	-3249
▁contact	-3250
▁protect	-3251
▁bè	-3252
▁almost	-3253
den	-3254
oint	-3255
▁lao	-3256
▁emot	-3257
▁linh	-3258
▁miễn	-3259
though	-3260
▁phán	-3261
▁mad	-3262
▁anyone	-3263
▁further	-3264
▁exc	-3265
▁author	-3266
ugh	-3267
▁mùi	-3268
▁đĩa	-3269
▁sold	-3270
▁happy	-3271
mon	-3272
▁nhấn	-3273
▁plant	-3274
da	-3275
▁núi	-3276
▁knew	-3277
acy	-3278
▁ngừng	-3279
▁xương	-3280
▁security	-3281
ially	-3282
▁repl	-3283
▁living	-3284
▁although	-3285
ney	-3286
▁sổ	-3287
▁los	-3288
▁sáu	-3289
▁thăm	-3290
▁problems	-3291
ầng	-3292
ished	-3293
▁taken	-3294
▁sn	-3295
born	-3296
ials	-3297
▁news	-3298
▁wants	-3299
▁longer	-3300
ored	-3301
▁khuẩn	-3302
▁ready	-3303
▁behind	-3304
▁capital	-3305
▁position	-3306
ala	-3307
▁thao	-3308
▁appear	-3309
▁discover	-3310
read	-3311
▁vit	-3312
▁imag	-3313
▁mach	-3314
▁park	-3315
▁lower	-3316
▁opt	-3317
thern	-3318
▁suất	-3319
▁available	-3320
▁lũ	-3321
▁lộ	-3322
▁kem	-3323
▁túi	-3324
▁champ	-3325
▁pu	-3326
▁ẩn	-3327
▁cook	-3328
▁jour	-3329
▁sett	-3330
▁looks	-3331
ression	-3332
▁environment	-3333
ros	-3334
▁cục	-3335
▁sat	-3336
pped	-3337
▁góc	-3338
▁hẹn	-3339
▁trấn	-3340
▁asked	-3341
▁serious	-3342
▁ach	-3343
▁ten	-3344
▁indust	-3345
▁toward	-3346
ilt	-3347
▁lông	-3348
▁began	-3349
▁sense	-3350
▁khuy	-3351
bon	-3352
▁mơ	-3353
aced	-3354
▁hor	-3355
ggest	-3356
▁ways	-3357
▁model	-3358
▁pretty	-3359
ấc	-3360
aim	-3361
▁sept	-3362
▁chiếm	-3363
▁member	-3364
▁myself	-3365
itor	-3366
▁mur	-3367
▁rút	-3368
▁dark	-3369
▁yên	-3370
▁across	-3371
▁season	-3372
▁suggest	-3373
▁tắm	-3374
▁react	-3375
iy	-3376
▁sus	-3377
amine	-3378
asing	-3379
▁gave	-3380
▁represent	-3381
▁tỏ	-3382
ware	-3383
▁tầng	-3384
▁court	-3385
▁recogn	-3386
01	-3387
alle	-3388
gest	-3389
▁bud	-3390
▁bạc	-3391
▁pull	-3392
▁huyết	-3393
ole	-3394
▁kil	-3395
▁won	-3396
ively	-3397
▁frank	-3398
▁quảng	-3399
▁write	-3400
▁august	-3401
▁weight	-3402
▁respons	-3403
anda	-3404
▁slow	-3405
▁feeling	-3406
▁fine	-3407
▁loạt	-3408
▁role	-3409
▁ground	-3410
▁tận	-3411
▁color	-3412
▁refer	-3413
▁dai	-3414
▁don	-3415
▁gold	-3416
▁hứng	-3417
▁phối	-3418
▁chance	-3419
▁entire	-3420
ober	-3421
▁sea	-3422
▁vua	-3423
▁died	-3424
▁increase	-3425
▁cool	-3426
▁priv	-3427
▁cases	-3428
▁uỷ	-3429
▁pen	-3430
▁file	-3431
▁moment	-3432
orts	-3433
▁già	-3434
anger	-3435
▁burn	-3436
▁suff	-3437
▁chuột	-3438
cul	-3439
verse	-3440
va	-3441
lor	-3442
ume	-3443
▁oxy	-3444
▁khắp	-3445
▁răng	-3446
▁temper	-3447
▁cứng	-3448
▁necess	-3449
ival	-3450
▁deb	-3451
▁mũi	-3452
▁office	-3453
uth	-3454
▁vẽ	-3455
▁flu	-3456
▁daughter	-3457
book	-3458
▁ống	-3459
▁easy	-3460
▁kịch	-3461
▁ừ	-3462
▁ủng	-3463
▁tịch	-3464
▁điên	-3465
▁đuổi	-3466
olution	-3467
▁2,	-3468
▁bột	-3469
▁nhỉ	-3470
▁hung	-3471
▁thiệu	-3472
▁accept	-3473
▁service	-3474
▁dậy	-3475
▁determ	-3476
iếp	-3477
ands	-3478
▁bir	-3479
▁siêu	-3480
▁lives	-3481
▁attention	-3482
▁que	-3483
▁heav	-3484
▁wond	-3485
▁bạo	-3486
▁pict	-3487
'.	-3488
dom	-3489
▁bene	-3490
▁cold	-3491
▁fish	-3492
50	-3493
ius	-3494
sych	-3495
▁fat	-3496
▁trại	-3497
lly	-3498
ned	-3499
▁rock	-3500
▁military	-3501
▁ton	-3502
▁june	-3503
▁thoả	-3504
▁words	-3505
▁parents	-3506
èm	-3507
ills	-3508
▁chậm	-3509
▁remove	-3510
su	-3511
▁ức	-3512
▁dav	-3513
▁save	-3514
▁worked	-3515
▁products	-3516
▁cit	-3517
▁fem	-3518
▁tấm	-3519
▁nhằm	-3520
bi	-3521
▁convers	-3522
▁october	-3523
▁september	-3524
cu	-3525
for	-3526
yle	-3527
▁cup	-3528
▁mart	-3529
▁phẫu	-3530
▁situation	-3531
▁q	-3532
▁lay	-3533
▁môn	-3534
▁crit	-3535
▁nàng	-3536
▁choose	-3537
face	-3538
aster	-3539
▁phận	-3540
▁award	-3541
▁weeks	-3542
▁personal	-3543
▁hề	-3544
▁hus	-3545
▁ice	-3546
▁thẩm	-3547
▁popular	-3548
ague	-3549
ches	-3550
▁coup	-3551
▁tour	-3552
▁areas	-3553
▁capt	-3554
▁miền	-3555
▁quang	-3556
▁tường	-3557
ught	-3558
▁đáp	-3559
▁2011	-3560
▁địch	-3561
▁chiếu	-3562
▁specific	-3563
▁aud	-3564
▁polish	-3565
ological	-3566
bur	-3567
▁aust	-3568
medi	-3569
▁giây	-3570
▁online	-3571
▁disease	-3572
omm	-3573
▁cốc	-3574
▁gắn	-3575
▁tur	-3576
▁nhảy	-3577
▁deg	-3578
▁rul	-3579
▁tắt	-3580
▁respect	-3581
▁hồng	-3582
▁tend	-3583
▁middle	-3584
ises	-3585
▁education	-3586
▁bề	-3587
▁chụp	-3588
▁cells	-3589
▁pomer	-3590
ịp	-3591
ids	-3592
▁mer	-3593
▁america	-3594
▁technology	-3595
men	-3596
▁nổ	-3597
▁fund	-3598
▁questions	-3599
iety	-3600
▁sữa	-3601
ii	-3602
oph	-3603
load	-3604
▁2000	-3605
▁grad	-3606
zil	-3607
▁né	-3608
▁góp	-3609
▁apply	-3610
▁lỗ	-3611
▁ấm	-3612
▁claim	-3613
▁negative	-3614
aged	-3615
rench	-3616
▁phức	-3617
▁ther	-3618
▁điển	-3619
band	-3620
▁giận	-3621
▁wars	-3622
▁psych	-3623
ability	-3624
▁simply	-3625
▁partner	-3626
bit	-3627
▁normal	-3628
ify	-3629
▁gets	-3630
▁trứng	-3631
▁drive	-3632
▁approxim	-3633
ex	-3634
arr	-3635
▁mir	-3636
▁table	-3637
▁struct	-3638
▁thí	-3639
ising	-3640
▁kids	-3641
▁kore	-3642
▁force	-3643
▁ul	-3644
▁fel	-3645
▁thờ	-3646
▁brit	-3647
▁cross	-3648
▁exist	-3649
.,	-3650
col	-3651
▁green	-3652
▁quite	-3653
▁thoải	-3654
▁instit	-3655
▁lái	-3656
▁host	-3657
▁physical	-3658
ero	-3659
ged	-3660
iding	-3661
▁estab	-3662
▁command	-3663
▁science	-3664
nal	-3665
ols	-3666
val	-3667
▁bật	-3668
▁2012	-3669
▁gone	-3670
▁economic	-3671
▁pomeranian	-3672
pper	-3673
▁rơi	-3674
▁corn	-3675
▁feet	-3676
▁page	-3677
▁extra	-3678
▁hương	-3679
▁center	-3680
▁exactly	-3681
ued	-3682
▁os	-3683
▁tờ	-3684
izing	-3685
▁chim	-3686
▁init	-3687
▁sens	-3688
▁travel	-3689
▁provide	-3690
▁developed	-3691
gi	-3692
▁ki	-3693
▁mix	-3694
▁fran	-3695
▁nhắn	-3696
▁prop	-3697
▁river	-3698
▁character	-3699
▁22	-3700
cười	-3701
▁apr	-3702
▁paper	-3703
▁scient	-3704
▁lí	-3705
▁led	-3706
▁sen	-3707
▁located	-3708
▁enc	-3709
▁ham	-3710
▁2014	-3711
▁stra	-3712
▁favor	-3713
▁ẩm	-3714
▁media	-3715
▁polic	-3716
▁former	-3717
ato	-3718
▁fac	-3719
▁lược	-3720
▁brazil	-3721
▁island	-3722
ram	-3723
▁szc	-3724
▁giàu	-3725
▁above	-3726
▁stuff	-3727
▁hài	-3728
▁hỗn	-3729
▁khảo	-3730
▁trăm	-3731
▁warm	-3732
itting	-3733
ườn	-3734
full	-3735
▁share	-3736
▁english	-3737
▁nỗ	-3738
uary	-3739
▁thả	-3740
itten	-3741
▁door	-3742
ission	-3743
▁action	-3744
▁couple	-3745
▁screen	-3746
osh	-3747
imate	-3748
▁2010	-3749
▁liệt	-3750
▁tor	-3751
▁arch	-3752
▁release	-3753
ef	-3754
ula	-3755
▁eth	-3756
▁imm	-3757
▁lau	-3758
▁lầm	-3759
▁fast	-3760
▁muối	-3761
▁niềm	-3762
artment	-3763
▁german	-3764
▁married	-3765
▁members	-3766
endo	-3767
▁binh	-3768
▁cancer	-3769
▁healthy	-3770
▁signific	-3771
ago	-3772
▁blue	-3773
▁khiển	-3774
mp	-3775
▁ol	-3776
▁ess	-3777
▁anti	-3778
▁dece	-3779
▁draw	-3780
▁prison	-3781
▁playing	-3782
cri	-3783
▁3.	-3784
rest	-3785
sinh	-3786
▁mel	-3787
▁mừng	-3788
▁thánh	-3789
ror	-3790
▁mist	-3791
▁needed	-3792
do	-3793
ief	-3794
▁60	-3795
▁giỏi	-3796
▁send	-3797
▁viol	-3798
▁becom	-3799
▁higher	-3800
▁reduce	-3801
▁held	-3802
▁email	-3803
▁wanna	-3804
▁canada	-3805
head	-3806
ogle	-3807
ples	-3808
reme	-3809
▁feed	-3810
▁july	-3811
▁stri	-3812
▁mount	-3813
▁immedi	-3814
ades	-3815
iful	-3816
▁hosp	-3817
▁trốn	-3818
▁april	-3819
▁trồng	-3820
▁search	-3821
ban	-3822
unt	-3823
eter	-3824
▁quỹ	-3825
▁biện	-3826
▁guess	-3827
▁szcze	-3828
▁society	-3829
▁washing	-3830
▁communic	-3831
▁pressure	-3832
cuss	-3833
▁lối	-3834
▁ổng	-3835
▁link	-3836
▁nâng	-3837
▁apple	-3838
▁answer	-3839
▁engine	-3840
▁mẽ	-3841
agon	-3842
atory	-3843
ua	-3844
istic	-3845
▁rừng	-3846
iot	-3847
▁tỉ	-3848
▁tán	-3849
▁bụng	-3850
▁tradition	-3851
umb	-3852
▁hứa	-3853
fully	-3854
▁2015	-3855
▁band	-3856
▁loss	-3857
▁pack	-3858
▁africa	-3859
cil	-3860
▁concern	-3861
outh	-3862
▁lục	-3863
▁mát	-3864
▁running	-3865
ha	-3866
▁nig	-3867
▁mười	-3868
▁growth	-3869
▁levels	-3870
hol	-3871
▁emb	-3872
▁diệt	-3873
▁huống	-3874
▁connect	-3875
▁chặt	-3876
▁fill	-3877
▁webs	-3878
▁improve	-3879
▁thượng	-3880
ida	-3881
fact	-3882
idge	-3883
▁civ	-3884
▁lin	-3885
▁tru	-3886
▁completely	-3887
▁thổ	-3888
▁thầy	-3889
▁employ	-3890
▁figure	-3891
▁planet	-3892
zz	-3893
▁thù	-3894
▁ball	-3895
▁chối	-3896
▁enter	-3897
ondon	-3898
▁sand	-3899
▁trầm	-3900
▁thách	-3901
▁address	-3902
ips	-3903
iệc	-3904
▁nắm	-3905
▁tạm	-3906
▁various	-3907
▁0.	-3908
▁achie	-3909
▁gotta	-3910
▁takes	-3911
▁beautiful	-3912
▁approximately	-3913
▁ả	-3914
eral	-3915
▁den	-3916
▁vốn	-3917
▁tướng	-3918
▁feelings	-3919
arm	-3920
▁perf	-3921
▁surv	-3922
atever	-3923
▁serie	-3924
▁studies	-3925
▁production	-3926
sequ	-3927
alleng	-3928
▁girls	-3929
▁compan	-3930
ẳn	-3931
over	-3932
▁road	-3933
vision	-3934
▁daily	-3935
▁street	-3936
▁2017	-3937
▁lose	-3938
▁spend	-3939
uted	-3940
orrow	-3941
▁axit	-3942
▁tách	-3943
▁total	-3944
▁county	-3945
▁expect	-3946
▁google	-3947
▁changes	-3948
mar	-3949
ration	-3950
▁london	-3951
▁created	-3952
▁whatever	-3953
ựng	-3954
▁mãi	-3955
ortun	-3956
▁army	-3957
▁giấc	-3958
▁paul	-3959
▁thước	-3960
▁modern	-3961
▁significant	-3962
▁fed	-3963
▁hẳn	-3964
▁sốt	-3965
▁2016	-3966
▁nghề	-3967
▁offer	-3968
▁january	-3969
▁challeng	-3970
▁opportun	-3971
▁community	-3972
▁cust	-3973
▁comfort	-3974
erve	-3975
▁ber	-3976
▁giày	-3977
▁influ	-3978
▁simple	-3979
ping	-3980
▁dro	-3981
▁dối	-3982
▁hurt	-3983
▁ngại	-3984
▁size	-3985
▁discuss	-3986
▁practice	-3987
haps	-3988
▁lẫn	-3989
▁mary	-3990
▁final	-3991
▁khuyến	-3992
▁james	-3993
▁liter	-3994
▁miếng	-3995
itz	-3996
▁bom	-3997
▁cẩn	-3998
▁nove	-3999
▁named	-4000
▁writing	-4001
▁ơi	-4002
▁mov	-4003
▁quận	-4004
▁knows	-4005
▁brought	-4006
▁husband	-4007
▁systems	-4008
▁trà	-4009
▁bank	-4010
▁ngón	-4011
▁value	-4012
intendo	-4013
▁french	-4014
▁contain	-4015
▁received	-4016
▁ran	-4017
▁ver	-4018
▁date	-4019
▁enjo	-4020
▁lưng	-4021
▁built	-4022
▁giọng	-4023
▁introdu	-4024
▁leaders	-4025
▁regular	-4026
▁gấp	-4027
ribed	-4028
▁phiếu	-4029
▁cry	-4030
▁giãn	-4031
▁occur	-4032
▁recomm	-4033
▁calif	-4034
▁kilomet	-4035
▁quickly	-4036
▁minister	-4037
osis	-4038
ornia	-4039
▁birth	-4040
▁stick	-4041
▁đương	-4042
▁chemical	-4043
▁mg	-4044
▁hàn	-4045
▁separ	-4046
▁november	-4047
▁doạ	-4048
▁lọc	-4049
▁trade	-4050
▁danger	-4051
▁region	-4052
▁clos	-4053
▁prep	-4054
▁wish	-4055
▁trưng	-4056
rom	-4057
▁din	-4058
▁đốt	-4059
▁thuê	-4060
▁tiêm	-4061
utions	-4062
▁foreign	-4063
▁december	-4064
▁condition	-4065
▁ưu	-4066
osph	-4067
▁ninh	-4068
▁trou	-4069
▁democ	-4070
▁applic	-4071
▁global	-4072
▁itself	-4073
▁exercise	-4074
▁function	-4075
ộm	-4076
vere	-4077
▁flow	-4078
▁manu	-4079
lement	-4080
▁consum	-4081
▁multip	-4082
▁vitamin	-4083
▁behavior	-4084
▁california	-4085
▁considered	-4086
astic	-4087
▁tròn	-4088
ensive	-4089
▁shall	-4090
▁moving	-4091
▁perhaps	-4092
▁ạ	-4093
▁rap	-4094
▁ones	-4095
▁poor	-4096
▁promot	-4097
▁related	-4098
▁nintendo	-4099
▁students	-4100
▁dày	-4101
▁alex	-4102
▁liều	-4103
ita	-4104
▁code	-4105
▁quái	-4106
▁subject	-4107
uk	-4108
▁vỡ	-4109
more	-4110
▁college	-4111
ple	-4112
▁mê	-4113
order	-4114
▁hiển	-4115
▁sant	-4116
▁regional	-4117
che	-4118
rate	-4119
▁2013	-4120
ilities	-4121
fl	-4122
uyền	-4123
▁fru	-4124
▁goes	-4125
▁heat	-4126
▁ngựa	-4127
atures	-4128
▁civil	-4129
▁truth	-4130
bre	-4131
▁3,	-4132
rain	-4133
▁hom	-4134
▁tow	-4135
▁cháy	-4136
▁fear	-4137
▁quán	-4138
▁peace	-4139
▁radio	-4140
▁issues	-4141
airs	-4142
▁hen	-4143
▁worth	-4144
ili	-4145
▁xạ	-4146
cked	-4147
▁der	-4148
▁docum	-4149
▁services	-4150
gs	-4151
▁rub	-4152
▁(201	-4153
▁chur	-4154
▁themselves	-4155
▁esc	-4156
▁fing	-4157
▁shot	-4158
▁thải	-4159
▁upon	-4160
▁wide	-4161
▁giving	-4162
▁minute	-4163
▁species	-4164
▁ép	-4165
empt	-4166
ites	-4167
▁vac	-4168
▁bact	-4169
▁piece	-4170
▁surface	-4171
▁cm	-4172
▁um	-4173
▁approach	-4174
▁continue	-4175
▁tiệc	-4176
▁notice	-4177
▁source	-4178
▁window	-4179
▁patients	-4180
▁administrative	-4181
ari	-4182
▁23	-4183
▁ec	-4184
▁bat	-4185
inary	-4186
▁mouth	-4187
▁sister	-4188
▁therap	-4189
▁(3	-4190
▁2018	-4191
▁rate	-4192
▁wear	-4193
▁announ	-4194
▁training	-4195
epend	-4196
▁express	-4197
oo	-4198
ãy	-4199
ura	-4200
▁ut	-4201
ania	-4202
▁mex	-4203
▁rau	-4204
ators	-4205
▁cloth	-4206
▁smell	-4207
▁japanese	-4208
▁somebody	-4209
set	-4210
▁dy	-4211
▁sót	-4212
▁trữ	-4213
▁2004	-4214
ibility	-4215
▁spread	-4216
▁african	-4217
▁foods	-4218
▁27	-4219
▁syn	-4220
▁đòi	-4221
▁title	-4222
▁effective	-4223
▁professional	-4224
bor	-4225
▁ga	-4226
▁bia	-4227
▁tẩy	-4228
▁forg	-4229
▁parts	-4230
▁nguyện	-4231
▁activity	-4232
vid	-4233
icle	-4234
▁diet	-4235
▁origin	-4236
▁evidence	-4237
ỡi	-4238
ceed	-4239
▁cản	-4240
▁fly	-4241
▁wash	-4242
▁subst	-4243
▁himself	-4244
▁hospital	-4245
ủi	-4246
akes	-4247
▁pin	-4248
▁ros	-4249
▁khuyên	-4250
▁football	-4251
▁involved	-4252
▁strength	-4253
▁26	-4254
room	-4255
ucle	-4256
▁hàm	-4257
▁2007	-4258
iction	-4259
▁trống	-4260
▁thuyền	-4261
▁conversation	-4262
▁ong	-4263
▁disc	-4264
▁magn	-4265
▁frequ	-4266
▁paris	-4267
ners	-4268
▁2008	-4269
▁đựng	-4270
▁tried	-4271
bru	-4272
fri	-4273
▁cự	-4274
▁vỏ	-4275
▁nut	-4276
▁tax	-4277
▁indic	-4278
▁print	-4279
▁worry	-4280
▁results	-4281
resh	-4282
▁đập	-4283
phone	-4284
▁supposed	-4285
▁published	-4286
▁0,	-4287
▁et	-4288
raid	-4289
▁thẻ	-4290
▁amaz	-4291
▁lỏng	-4292
▁sort	-4293
ruction	-4294
▁py	-4295
▁cám	-4296
▁nút	-4297
▁seven	-4298
▁uk	-4299
rian	-4300
▁cài	-4301
▁dính	-4302
▁path	-4303
▁repe	-4304
▁track	-4305
▁active	-4306
▁previous	-4307
▁necessary	-4308
lled	-4309
▁ble	-4310
▁họp	-4311
▁ted	-4312
gress	-4313
friend	-4314
▁asking	-4315
▁target	-4316
▁threat	-4317
unk	-4318
ũng	-4319
▁80	-4320
▁gan	-4321
▁mine	-4322
▁ngực	-4323
▁moved	-4324
ems	-4325
oon	-4326
▁od	-4327
▁jim	-4328
▁match	-4329
▁seems	-4330
▁thous	-4331
▁afraid	-4332
▁đèn	-4333
▁poly	-4334
▁đỉnh	-4335
▁eating	-4336
ya	-4337
▁iv	-4338
ding	-4339
▁béo	-4340
▁bảy	-4341
▁inj	-4342
▁tiềm	-4343
▁image	-4344
▁culture	-4345
▁install	-4346
▁[	-4347
▁cú	-4348
▁tí	-4349
chel	-4350
come	-4351
▁cas	-4352
▁dar	-4353
▁lie	-4354
▁táo	-4355
ledge	-4356
oster	-4357
▁broad	-4358
▁david	-4359
▁micha	-4360
▁phỏng	-4361
▁journal	-4362
▁network	-4363
ring	-4364
▁gas	-4365
▁pow	-4366
▁original	-4367
▁television	-4368
sa	-4369
ola	-4370
ped	-4371
iver	-4372
▁kém	-4373
▁ngạc	-4374
▁dream	-4375
▁changed	-4376
▁szczecin	-4377
▁mụ	-4378
▁ens	-4379
▁tas	-4380
▁khuôn	-4381
▁shoot	-4382
▁require	-4383
▁kar	-4384
▁rắc	-4385
▁version	-4386
▁reported	-4387
▁temperature	-4388
▁cờ	-4389
▁sud	-4390
▁hiến	-4391
▁alive	-4392
▁sweet	-4393
▁independ	-4394
▁particip	-4395
ij	-4396
ini	-4397
▁lặp	-4398
▁doll	-4399
▁thăng	-4400
▁caused	-4401
ìa	-4402
pir	-4403
eles	-4404
▁pha	-4405
không	-4406
▁alco	-4407
▁george	-4408
wa	-4409
oke	-4410
▁bờ	-4411
▁sợi	-4412
▁2009	-4413
▁spir	-4414
▁tree	-4415
bruary	-4416
▁visit	-4417
▁master	-4418
▁attempt	-4419
▁management	-4420
▁lady	-4421
▁camera	-4422
▁finally	-4423
▁website	-4424
▁association	-4425
gy	-4426
▁ồ	-4427
▁khứ	-4428
▁agre	-4429
▁lính	-4430
▁chủng	-4431
▁triều	-4432
ướp	-4433
oper	-4434
▁kêu	-4435
▁ple	-4436
▁types	-4437
▁bottom	-4438
▁nature	-4439
và	-4440
▁28	-4441
▁202	-4442
▁2015,	-4443
▁enjoy	-4444
▁relig	-4445
▁church	-4446
▁interact	-4447
▁produced	-4448
car	-4449
▁gió	-4450
▁lou	-4451
▁sul	-4452
attle	-4453
▁defin	-4454
▁micro	-4455
▁france	-4456
▁league	-4457
ami	-4458
yal	-4459
play	-4460
▁tồi	-4461
▁huấn	-4462
▁chile	-4463
▁nướng	-4464
▁choice	-4465
▁companies	-4466
hood	-4467
▁sar	-4468
▁base	-4469
▁fort	-4470
▁math	-4471
▁vườn	-4472
▁champions	-4473
▁associated	-4474
ires	-4475
▁mos	-4476
▁nav	-4477
▁nấm	-4478
arily	-4479
▁hall	-4480
▁emerg	-4481
▁thiểu	-4482
▁wonder	-4483
▁meeting	-4484
▁february	-4485
▁activities	-4486
vi	-4487
ớp	-4488
▁fair	-4489
▁eight	-4490
▁lương	-4491
▁tonight	-4492
▁generally	-4493
bu	-4494
▁ox	-4495
.000	-4496
▁inn	-4497
▁mét	-4498
ounds	-4499
▁gent	-4500
▁career	-4501
rad	-4502
▁fix	-4503
▁sin	-4504
▁drop	-4505
▁dường	-4506
▁glass	-4507
▁khích	-4508
▁maint	-4509
▁events	-4510
▁served	-4511
ification	-4512
▁na	-4513
▁vải	-4514
▁disp	-4515
▁rout	-4516
▁tàng	-4517
▁wood	-4518
▁trích	-4519
▁voice	-4520
▁michael	-4521
▁potential	-4522
▁mì	-4523
ened	-4524
usion	-4525
▁hoang	-4526
▁neigh	-4527
▁murder	-4528
▁alcohol	-4529
▁telling	-4530
6)	-4531
cell	-4532
▁sexual	-4533
▁washington	-4534
emy	-4535
tôi	-4536
▁xoá	-4537
itude	-4538
▁altern	-4539
▁forget	-4540
▁throughout	-4541
ena	-4542
iam	-4543
iff	-4544
▁log	-4545
board	-4546
▁bath	-4547
▁block	-4548
▁numbers	-4549
zu	-4550
▁hè	-4551
▁ast	-4552
▁weak	-4553
▁groups	-4554
▁conditions	-4555
bles	-4556
▁lâm	-4557
▁đùa	-4558
itter	-4559
▁lies	-4560
▁luck	-4561
▁covid	-4562
▁played	-4563
▁resour	-4564
▁billion	-4565
▁complex	-4566
▁strateg	-4567
▁everybody	-4568
àm	-4569
-19	-4570
ani	-4571
asons	-4572
▁exec	-4573
▁tảng	-4574
▁nucle	-4575
▁depend	-4576
▁destro	-4577
▁thoughts	-4578
▁hãi	-4579
▁mech	-4580
▁austral	-4581
agn	-4582
▁săn	-4583
ndred	-4584
▁chín	-4585
▁ngon	-4586
▁pred	-4587
▁corre	-4588
▁giường	-4589
▁summer	-4590
▁appoint	-4591
▁happens	-4592
▁private	-4593
▁written	-4594
amm	-4595
▁90	-4596
▁xâm	-4597
▁(200	-4598
▁cưới	-4599
▁benef	-4600
▁affect	-4601
▁contrib	-4602
▁hundred	-4603
▁immediately	-4604
▁nấu	-4605
▁sod	-4606
▁site	-4607
verage	-4608
ùi	-4609
oles	-4610
▁lưới	-4611
▁sánh	-4612
▁histor	-4613
▁meaning	-4614
▁perfect	-4615
ía	-4616
ops	-4617
▁tá	-4618
▁ghế	-4619
▁bran	-4620
▁exam	-4621
▁note	-4622
▁impact	-4623
▁collect	-4624
▁infection	-4625
▁ah	-4626
ails	-4627
onse	-4628
▁tàn	-4629
itted	-4630
-2	-4631
▁rập	-4632
▁thang	-4633
▁british	-4634
▁decided	-4635
ray	-4636
ivity	-4637
ronic	-4638
▁2014,	-4639
▁brand	-4640
▁drugs	-4641
▁stage	-4642
▁corpor	-4643
▁truyện	-4644
▁forward	-4645
▁movement	-4646
eds	-4647
like	-4648
▁wel	-4649
light	-4650
rated	-4651
▁beat	-4652
▁prefer	-4653
▁manufact	-4654
▁tomorrow	-4655
▁typically	-4656
sc	-4657
▁sắt	-4658
▁trộn	-4659
ension	-4660
▁india	-4661
▁union	-4662
▁forces	-4663
▁places	-4664
ett	-4665
ker	-4666
▁xô	-4667
▁500	-4668
▁egg	-4669
▁sad	-4670
▁đạn	-4671
▁goal	-4672
itness	-4673
▁chair	-4674
▁except	-4675
▁facebook	-4676
hyd	-4677
▁mộ	-4678
ibly	-4679
▁dược	-4680
▁phạt	-4681
▁board	-4682
▁imagine	-4683
▁("	-4684
used	-4685
▁cấm	-4686
▁tap	-4687
▁đậu	-4688
erman	-4689
istry	-4690
pping	-4691
▁ngốc	-4692
▁catch	-4693
▁degree	-4694
▁plants	-4695
▁straight	-4696
',	-4697
wood	-4698
▁hảo	-4699
▁ing	-4700
▁2006	-4701
▁bird	-4702
▁khái	-4703
▁mảnh	-4704
▁viễn	-4705
▁2017,	-4706
▁terms	-4707
▁colomb	-4708
▁animals	-4709
▁material	-4710
▁cỡ	-4711
▁bor	-4712
ender	-4713
▁hùng	-4714
▁carbon	-4715
▁ability	-4716
▁extreme	-4717
▁division	-4718
▁increased	-4719
▁bò	-4720
▁cai	-4721
▁sơn	-4722
▁trip	-4723
▁tặng	-4724
▁chuỗi	-4725
▁ngang	-4726
▁range	-4727
▁spent	-4728
▁worse	-4729
lymp	-4730
▁gam	-4731
aling	-4732
▁hiếm	-4733
▁remo	-4734
▁shows	-4735
▁solution	-4736
30	-4737
cious	-4738
▁flor	-4739
▁ngừa	-4740
▁thus	-4741
▁brown	-4742
▁fresh	-4743
▁peter	-4744
▁pregn	-4745
▁wrote	-4746
▁launch	-4747
▁official	-4748
▁beginning	-4749
enty	-4750
roid	-4751
▁kênh	-4752
▁goals	-4753
▁surpr	-4754
▁larger	-4755
▁square	-4756
▁warsaw	-4757
▁response	-4758
▁ác	-4759
ancy	-4760
hold	-4761
▁acad	-4762
▁kiss	-4763
▁phiền	-4764
▁growing	-4765
▁trouble	-4766
▁director	-4767
▁gợi	-4768
ening	-4769
▁chấm	-4770
▁chấn	-4771
▁horm	-4772
▁legal	-4773
▁olymp	-4774
▁relax	-4775
▁tuyển	-4776
▁greater	-4777
▁towards	-4778
▁location	-4779
▁organization	-4780
ech	-4781
oul	-4782
arian	-4783
iment	-4784
▁anal	-4785
▁causes	-4786
▁seeing	-4787
một	-4788
vin	-4789
▁2012,	-4790
▁intell	-4791
▁mob	-4792
▁sếp	-4793
ining	-4794
▁neur	-4795
▁purp	-4796
▁option	-4797
▁kilometres	-4798
oft	-4799
▁nợ	-4800
berg	-4801
onst	-4802
▁bão	-4803
▁bông	-4804
▁thói	-4805
▁weap	-4806
▁freed	-4807
▁round	-4808
▁sales	-4809
▁player	-4810
▁message	-4811
▁nigeria	-4812
▁station	-4813
▁discovered	-4814
view	-4815
▁hoả	-4816
▁arri	-4817
▁2016,	-4818
▁ideas	-4819
▁sugar	-4820
▁gentle	-4821
5)	-4822
aff	-4823
▁bow	-4824
▁jes	-4825
▁đón	-4826
istan	-4827
▁asia	-4828
▁gard	-4829
▁carry	-4830
▁software	-4831
wor	-4832
▁190	-4833
▁hyp	-4834
▁giam	-4835
▁thuế	-4836
▁prior	-4837
▁purch	-4838
▁theory	-4839
▁machine	-4840
▁produce	-4841
▁increasing	-4842
▁interesting	-4843
▁cỏ	-4844
▁kẹ	-4845
▁las	-4846
▁tea	-4847
▁chép	-4848
▁stars	-4849
▁mexico	-4850
▁turned	-4851
▁leaving	-4852
▁eventually	-4853
irt	-4854
▁fle	-4855
ublic	-4856
▁sick	-4857
iation	-4858
▁finan	-4859
▁assist	-4860
▁awards	-4861
▁female	-4862
▁difference	-4863
▁cột	-4864
▁kèm	-4865
▁desp	-4866
▁patient	-4867
▁philipp	-4868
▁investig	-4869
▁standard	-4870
▁described	-4871
ńs	-4872
ướt	-4873
▁gỡ	-4874
▁ip	-4875
▁đệ	-4876
▁duyệt	-4877
10	-4878
ule	-4879
▁4.	-4880
▁ôi	-4881
▁micros	-4882
8)	-4883
ụi	-4884
▁ray	-4885
▁department	-4886
cis	-4887
ona	-4888
▁ko	-4889
▁bẩn	-4890
▁mis	-4891
▁felt	-4892
▁ghét	-4893
▁nhịp	-4894
▁phổi	-4895
▁rule	-4896
▁sell	-4897
▁ship	-4898
▁trào	-4899
▁crazy	-4900
▁hoảng	-4901
▁policy	-4902
▁unless	-4903
▁download	-4904
▁starting	-4905
▁29	-4906
imin	-4907
ores	-4908
0,000	-4909
▁jobs	-4910
▁móng	-4911
▁ngàn	-4912
▁rules	-4913
▁easier	-4914
▁concept	-4915
▁picture	-4916
burg	-4917
aries	-4918
▁carl	-4919
▁cướp	-4920
▁shut	-4921
▁vene	-4922
istics	-4923
▁names	-4924
▁easily	-4925
▁deliver	-4926
▁decision	-4927
▁mc	-4928
ador	-4929
▁cựu	-4930
▁dinh	-4931
▁inhib	-4932
▁seconds	-4933
▁designed	-4934
chi	-4935
ees	-4936
cles	-4937
▁bãi	-4938
▁đói	-4939
▁cưng	-4940
▁thảm	-4941
▁điệu	-4942
▁mechan	-4943
▁distrib	-4944
▁directly	-4945
▁announced	-4946
ậc	-4947
▁anx	-4948
▁hào	-4949
▁helps	-4950
▁looked	-4951
▁interested	-4952
▁particularly	-4953
ube	-4954
▁(4	-4955
▁rãi	-4956
▁nắng	-4957
▁quyển	-4958
▁shown	-4959
eg	-4960
key	-4961
▁vĩ	-4962
▁kal	-4963
▁ngc	-4964
▁rid	-4965
▁accom	-4966
▁aware	-4967
▁dress	-4968
▁liber	-4969
▁style	-4970
▁train	-4971
▁nobody	-4972
▁learning	-4973
▁determine	-4974
▁mụn	-4975
▁saf	-4976
▁bell	-4977
▁onto	-4978
▁soil	-4979
▁below	-4980
▁dance	-4981
▁speed	-4982
▁switch	-4983
▁quality	-4984
▁waiting	-4985
▁medication	-4986
3)	-4987
ev	-4988
▁ảo	-4989
▁ven	-4990
▁clin	-4991
▁đẳng	-4992
▁review	-4993
▁concent	-4994
▁republic	-4995
rum	-4996
▁bơ	-4997
duct	-4998
▁jew	-4999
▁mắn	-5000
▁rác	-5001
▁sky	-5002
▁nghèo	-5003
▁stories	-5004
nes	-5005
▁mãn	-5006
▁tha	-5007
aging	-5008
▁boys	-5009
▁coff	-5010
▁earl	-5011
▁adult	-5012
▁smart	-5013
▁princi	-5014
▁recept	-5015
▁resist	-5016
▁relative	-5017
ux	-5018
éo	-5019
▁70	-5020
▁sem	-5021
ience	-5022
▁reve	-5023
▁price	-5024
▁arrest	-5025
▁muscle	-5026
▁nit	-5027
▁tụi	-5028
▁đằng	-5029
▁commer	-5030
▁destroy	-5031
ji	-5032
oria	-5033
▁ara	-5034
▁bậc	-5035
▁books	-5036
▁novel	-5037
▁disapp	-5038
rap	-5039
▁sứ	-5040
ging	-5041
▁cặp	-5042
▁huh	-5043
▁đeo	-5044
cient	-5045
▁cred	-5046
▁floor	-5047
▁throw	-5048
itation	-5049
▁dinner	-5050
▁severe	-5051
vert	-5052
▁gab	-5053
▁ngũ	-5054
▁tước	-5055
▁wild	-5056
▁xứng	-5057
▁guard	-5058
▁honey	-5059
▁yours	-5060
▁damage	-5061
▁anymore	-5062
▁measure	-5063
▁respond	-5064
▁knowledge	-5065
▁.	-5066
cies	-5067
ille	-5068
wise	-5069
▁hồn	-5070
▁ram	-5071
▁ital	-5072
others	-5073
▁domin	-5074
▁loved	-5075
▁constant	-5076
▁included	-5077
▁transfer	-5078
▁opportunity	-5079
▁traditional	-5080
ado	-5081
▁ug	-5082
▁ám	-5083
well	-5084
▁bớt	-5085
▁dna	-5086
▁fif	-5087
▁ult	-5088
▁chai	-5089
▁thanks	-5090
▁northern	-5091
▁4,	-5092
▁gal	-5093
rogen	-5094
▁vong	-5095
▁2018,	-5096
▁labor	-5097
▁double	-5098
▁humans	-5099
▁industry	-5100
▁×	-5101
cia	-5102
▁gỗ	-5103
▁bơi	-5104
▁mọc	-5105
▁ném	-5106
▁ord	-5107
▁libr	-5108
▁issue	-5109
▁queen	-5110
▁finish	-5111
▁european	-5112
▁performance	-5113
úa	-5114
rol	-5115
▁ak	-5116
▁cãi	-5117
iling	-5118
▁appl	-5119
▁stru	-5120
▁stock	-5121
▁victim	-5122
▁leading	-5123
you	-5124
ford	-5125
▁kín	-5126
enced	-5127
▁plat	-5128
▁quar	-5129
ctions	-5130
▁chief	-5131
▁veget	-5132
60	-5133
off	-5134
▁cd	-5135
▁hổ	-5136
viet	-5137
▁lão	-5138
▁quà	-5139
erson	-5140
▁hero	-5141
▁muse	-5142
▁surg	-5143
▁basic	-5144
▁document	-5145
5%	-5146
pa	-5147
▁*	-5148
▁lẻ	-5149
▁tốn	-5150
aking	-5151
▁menu	-5152
▁vững	-5153
▁2011,	-5154
▁charl	-5155
▁chừng	-5156
▁animal	-5157
▁keeping	-5158
▁comfortable	-5159
1)	-5160
awa	-5161
▁gà	-5162
olic	-5163
tery	-5164
▁hít	-5165
▁ken	-5166
▁lord	-5167
▁salt	-5168
▁trig	-5169
▁confir	-5170
ean	-5171
▁dao	-5172
▁rủi	-5173
itect	-5174
▁fold	-5175
▁phen	-5176
▁push	-5177
▁spot	-5178
▁meant	-5179
▁oppos	-5180
▁average	-5181
▁constit	-5182
▁options	-5183
ặm	-5184
lebr	-5185
▁kìa	-5186
▁giấu	-5187
▁hers	-5188
▁nhàng	-5189
▁council	-5190
iel	-5191
▁hư	-5192
▁2005	-5193
▁hỏng	-5194
▁surr	-5195
▁chann	-5196
▁nhánh	-5197
▁sched	-5198
▁signs	-5199
▁regard	-5200
▁currently	-5201
ald	-5202
onia	-5203
▁ngư	-5204
cular	-5205
▁consist	-5206
▁31	-5207
ests	-5208
▁amb	-5209
ander	-5210
▁dish	-5211
▁mont	-5212
▁ring	-5213
▁giảng	-5214
▁recent	-5215
▁allowed	-5216
▁multiple	-5217
cast	-5218
▁bag	-5219
▁bụi	-5220
▁lack	-5221
▁nhóc	-5222
▁agent	-5223
▁techni	-5224
▁feature	-5225
▁largest	-5226
ift	-5227
uty	-5228
▁dọn	-5229
▁khớp	-5230
▁thác	-5231
▁remind	-5232
▁variety	-5233
▁witness	-5234
▁professor	-5235
▁beg	-5236
▁mut	-5237
▁nic	-5238
▁scr	-5239
▁trú	-5240
▁chart	-5241
▁coast	-5242
▁gives	-5243
▁memory	-5244
▁kingdom	-5245
▁standing	-5246
▁championship	-5247
2)	-5248
ez	-5249
ịt	-5250
reg	-5251
▁bắp	-5252
▁bull	-5253
▁phái	-5254
▁shar	-5255
▁2013,	-5256
▁movie	-5257
▁twice	-5258
▁breath	-5259
▁celebr	-5260
▁decide	-5261
▁russia	-5262
▁germany	-5263
▁russian	-5264
▁powerful	-5265
▁progress	-5266
bl	-5267
▁lừa	-5268
▁mạc	-5269
▁rat	-5270
▁tam	-5271
▁enzy	-5272
▁jose	-5273
▁tiếc	-5274
▁korea	-5275
▁forest	-5276
▁clothes	-5277
▁digital	-5278
▁nations	-5279
▁architect	-5280
▁established	-5281
80	-5282
▁ư	-5283
ãng	-5284
▁ib	-5285
▁bey	-5286
▁bối	-5287
▁rot	-5288
▁lãng	-5289
▁rare	-5290
▁tiss	-5291
▁2010,	-5292
▁antib	-5293
▁citiz	-5294
▁khổng	-5295
▁leaves	-5296
▁slight	-5297
▁venezu	-5298
rial	-5299
▁dia	-5300
▁dám	-5301
▁hun	-5302
▁nom	-5303
▁bạch	-5304
▁ahead	-5305
▁latin	-5306
▁belong	-5307
▁obvious	-5308
▁dangerous	-5309
ils	-5310
▁mưa	-5311
▁ương	-5312
▁compl	-5313
▁gương	-5314
▁points	-5315
▁despite	-5316
▁structure	-5317
ito	-5318
appl	-5319
▁dán	-5320
▁ell	-5321
▁vinh	-5322
▁confl	-5323
▁forms	-5324
▁heavy	-5325
▁khung	-5326
▁colombia	-5327
▁entertain	-5328
tt	-5329
pro	-5330
▁ze	-5331
▁oce	-5332
ables	-5333
▁boss	-5334
▁cath	-5335
▁moon	-5336
▁ngọn	-5337
▁ngọt	-5338
▁nhãn	-5339
▁economy	-5340
▁francis	-5341
201	-5342
▁ath	-5343
▁nôn	-5344
▁treo	-5345
▁tươi	-5346
applause	-5347
▁freedom	-5348
▁vietnamese	-5349
hib	-5350
itis	-5351
▁tun	-5352
ament	-5353
atives	-5354
▁bacteria	-5355
▁congress	-5356
4)	-5357
und	-5358
▁hò	-5359
▁lad	-5360
▁thua	-5361
▁mention	-5362
▁distance	-5363
▁resources	-5364
bc	-5365
rel	-5366
▁tô	-5367
rael	-5368
▁nas	-5369
▁sna	-5370
anced	-5371
▁1990	-5372
▁nồng	-5373
▁tang	-5374
▁điệp	-5375
▁lived	-5376
▁whose	-5377
▁flight	-5378
▁followed	-5379
▁surround	-5380
ira	-5381
mit	-5382
win	-5383
▁via	-5384
ground	-5385
▁allows	-5386
▁letter	-5387
▁pattern	-5388
500	-5389
oma	-5390
▁dạ	-5391
▁lồ	-5392
aste	-5393
▁wil	-5394
▁iron	-5395
▁nine	-5396
▁coffee	-5397
▁cooper	-5398
▁attract	-5399
bt	-5400
oe	-5401
cel	-5402
pes	-5403
rid	-5404
▁189	-5405
▁tro	-5406
▁yog	-5407
azine	-5408
▁thoa	-5409
▁added	-5410
▁actions	-5411
▁features	-5412
▁fab	-5413
▁tám	-5414
▁shop	-5415
▁xoay	-5416
▁gradu	-5417
▁device	-5418
")	-5419
ien	-5420
old	-5421
put	-5422
▁tủ	-5423
illa	-5424
▁chả	-5425
▁iii	-5426
▁mệnh	-5427
▁miles	-5428
▁robot	-5429
▁developing	-5430
oh	-5431
▁gy	-5432
▁xà	-5433
▁jul	-5434
ulate	-5435
"?	-5436
ja	-5437
ốm	-5438
cra	-5439
▁300	-5440
▁túc	-5441
▁cand	-5442
▁sulf	-5443
▁moist	-5444
▁encour	-5445
▁visual	-5446
▁learned	-5447
▁includes	-5448
kie	-5449
▁bận	-5450
▁dọc	-5451
▁fell	-5452
▁gián	-5453
▁lặng	-5454
▁rain	-5455
▁tick	-5456
▁shape	-5457
▁trăng	-5458
▁beyond	-5459
▁sitting	-5460
▁chà	-5461
▁nar	-5462
othing	-5463
▁scale	-5464
▁commonly	-5465
▁administration	-5466
ds	-5467
▁ml	-5468
iers	-5469
▁dim	-5470
▁gói	-5471
▁alph	-5472
▁nhạy	-5473
▁poll	-5474
▁qual	-5475
▁castle	-5476
▁museum	-5477
▁showed	-5478
▁sounds	-5479
▁achieve	-5480
▁conflict	-5481
bin	-5482
▁rod	-5483
odies	-5484
▁2019	-5485
▁gall	-5486
▁gift	-5487
▁stan	-5488
▁honest	-5489
▁specif	-5490
▁content	-5491
▁ky	-5492
▁tuý	-5493
▁màng	-5494
▁explain	-5495
▁smaller	-5496
▁contract	-5497
▁happening	-5498
yer	-5499
▁fi	-5500
▁úc	-5501
rupt	-5502
ties	-5503
▁mực	-5504
▁seek	-5505
▁uses	-5506
▁paint	-5507
▁ensure	-5508
▁recently	-5509
▁va	-5510
back	-5511
▁aim	-5512
▁cru	-5513
▁wed	-5514
▁chúc	-5515
▁gree	-5516
▁khóc	-5517
▁trục	-5518
▁israel	-5519
▁actress	-5520
▁anybody	-5521
▁walking	-5522
▁microsoft	-5523
▁responsible	-5524
what	-5525
▁...	-5526
▁lượt	-5527
▁đống	-5528
▁thiệt	-5529
▁soviet	-5530
ộp	-5531
ima	-5532
▁lây	-5533
▁defe	-5534
icient	-5535
▁anyway	-5536
▁battle	-5537
▁sudden	-5538
▁conduct	-5539
▁section	-5540
▁teacher	-5541
▁revolution	-5542
can	-5543
ked	-5544
now	-5545
ław	-5546
▁cất	-5547
▁thợ	-5548
▁argent	-5549
▁limited	-5550
▁reasons	-5551
▁finished	-5552
ụt	-5553
aur	-5554
box	-5555
▁5,	-5556
▁hol	-5557
▁pun	-5558
▁join	-5559
▁khấu	-5560
▁2009,	-5561
▁autom	-5562
▁honor	-5563
▁minim	-5564
▁rapid	-5565
▁shoes	-5566
▁descri	-5567
▁alternative	-5568
▁bes	-5569
▁mệt	-5570
▁phím	-5571
ography	-5572
▁corner	-5573
▁mission	-5574
▁therapy	-5575
▁instance	-5576
▁successful	-5577
vey	-5578
▁$1	-5579
▁hô	-5580
aign	-5581
esis	-5582
▁dos	-5583
▁lic	-5584
▁sàn	-5585
▁harm	-5586
german	-5587
▁ancient	-5588
▁replace	-5589
7)	-5590
ẫy	-5591
pri	-5592
zen	-5593
▁kg	-5594
▁fal	-5595
▁lip	-5596
eless	-5597
▁cổng	-5598
▁nhầm	-5599
▁tuân	-5600
▁occup	-5601
▁plans	-5602
▁nation	-5603
▁robert	-5604
▁earlier	-5605
▁founded	-5606
▁primary	-5607
▁favorite	-5608
▁depending	-5609
▁financial	-5610
ek	-5611
avir	-5612
iced	-5613
ogen	-5614
▁lam	-5615
▁tox	-5616
▁(199	-5617
▁chán	-5618
▁decre	-5619
▁thiệp	-5620
▁breast	-5621
▁length	-5622
▁counter	-5623
▁holding	-5624
▁recover	-5625
▁returned	-5626
▁lò	-5627
▁calm	-5628
▁trộm	-5629
▁older	-5630
▁nearly	-5631
▁captain	-5632
▁william	-5633
▁speaking	-5634
9)	-5635
bel	-5636
▁bếp	-5637
▁nap	-5638
▁sav	-5639
▁adop	-5640
▁male	-5641
▁rise	-5642
▁stom	-5643
▁universe	-5644
▁interview	-5645
▁therefore	-5646
rast	-5647
▁bob	-5648
▁cro	-5649
▁tex	-5650
▁1980	-5651
▁2003	-5652
▁buôn	-5653
▁decl	-5654
▁hong	-5655
▁nhựa	-5656
▁2019,	-5657
▁funny	-5658
▁excess	-5659
▁consequ	-5660
▁nuclear	-5661
▁changing	-5662
▁drinking	-5663
ipe	-5664
▁(5	-5665
▁188	-5666
▁fit	-5667
▁lif	-5668
▁vân	-5669
▁chos	-5670
▁categ	-5671
▁committ	-5672
▁display	-5673
▁purpose	-5674
▁reality	-5675
▁wearing	-5676
▁contains	-5677
▁400	-5678
▁ign	-5679
▁kat	-5680
eding	-5681
ously	-5682
▁bond	-5683
▁chua	-5684
▁opin	-5685
▁phấn	-5686
▁rome	-5687
isions	-5688
▁chlor	-5689
▁feels	-5690
▁royal	-5691
▁winter	-5692
▁calling	-5693
▁records	-5694
▁campaign	-5695
▁required	-5696
▁kr	-5697
▁nở	-5698
▁gri	-5699
▁sạn	-5700
▁đua	-5701
▁cris	-5702
▁diss	-5703
▁jump	-5704
▁neck	-5705
▁ster	-5706
▁grant	-5707
▁student	-5708
▁australia	-5709
▁interests	-5710
oli	-5711
▁adj	-5712
▁hầm	-5713
▁lee	-5714
▁henry	-5715
▁spirit	-5716
▁yellow	-5717
▁province	-5718
▁understanding	-5719
25	-5720
cop	-5721
aled	-5722
▁tia	-5723
▁meat	-5724
▁bound	-5725
▁convent	-5726
▁willing	-5727
zo	-5728
omy	-5729
ques	-5730
▁farm	-5731
▁unit	-5732
isters	-5733
▁2007,	-5734
▁calci	-5735
▁skills	-5736
▁fighting	-5737
▁reaction	-5738
▁southern	-5739
iro	-5740
▁5.	-5741
cine	-5742
▁cụm	-5743
▁glad	-5744
▁khán	-5745
▁load	-5746
▁2006,	-5747
▁colon	-5748
▁items	-5749
▁occas	-5750
▁custom	-5751
▁territ	-5752
▁eastern	-5753
▁realize	-5754
▁setting	-5755
▁emotions	-5756
▁somewhere	-5757
si	-5758
inc	-5759
olf	-5760
inct	-5761
reci	-5762
▁arr	-5763
▁dứt	-5764
▁leo	-5765
antic	-5766
apore	-5767
ician	-5768
▁trần	-5769
▁hyper	-5770
▁spect	-5771
▁cities	-5772
▁detect	-5773
▁studied	-5774
▁becoming	-5775
▁languages	-5776
ora	-5777
▁45	-5778
▁mm	-5779
▁pil	-5780
estic	-5781
▁canh	-5782
▁giặt	-5783
▁harv	-5784
▁khẳng	-5785
▁lines	-5786
▁nghiện	-5787
▁transl	-5788
▁reading	-5789
▁singapore	-5790
▁combination	-5791
aka	-5792
emb	-5793
racy	-5794
▁exch	-5795
▁liqu	-5796
▁paid	-5797
▁fruit	-5798
▁liver	-5799
▁bright	-5800
▁button	-5801
▁correct	-5802
▁killing	-5803
▁essential	-5804
11	-5805
én	-5806
bing	-5807
ooth	-5808
▁pas	-5809
▁acet	-5810
▁nhẫn	-5811
▁nhắm	-5812
▁mental	-5813
▁amazing	-5814
▁stomach	-5815
40	-5816
apt	-5817
pre	-5818
ione	-5819
▁usd	-5820
▁xịt	-5821
riage	-5822
▁kept	-5823
▁diagn	-5824
▁caught	-5825
▁becomes	-5826
▁england	-5827
▁brothers	-5828
▁intellig	-5829
▁individuals	-5830
aire	-5831
▁bri	-5832
▁whe	-5833
▁arms	-5834
▁bỏng	-5835
▁cuba	-5836
▁huge	-5837
▁chick	-5838
▁laugh	-5839
▁terri	-5840
▁critic	-5841
edy	-5842
ette	-5843
lock	-5844
▁bon	-5845
eness	-5846
▁arab	-5847
▁fest	-5848
▁hill	-5849
▁hoại	-5850
▁milk	-5851
▁mole	-5852
▁none	-5853
▁thùng	-5854
▁repeat	-5855
▁construction	-5856
isa	-5857
▁48	-5858
iana	-5859
▁liền	-5860
▁upper	-5861
▁slowly	-5862
▁organiz	-5863
▁partners	-5864
▁commercial	-5865
▁entertainment	-5866
ias	-5867
isl	-5868
rus	-5869
▁ash	-5870
▁cos	-5871
▁cốt	-5872
▁kit	-5873
wards	-5874
▁dáng	-5875
▁rand	-5876
▁roll	-5877
▁ruột	-5878
▁2008,	-5879
▁minor	-5880
▁acting	-5881
▁joined	-5882
▁generation	-5883
gu	-5884
òm	-5885
▁mỏ	-5886
▁xơ	-5887
emic	-5888
▁bám	-5889
olute	-5890
▁arts	-5891
▁flat	-5892
▁hide	-5893
▁muộn	-5894
▁nose	-5895
▁thom	-5896
▁huyện	-5897
▁solar	-5898
▁artist	-5899
▁highly	-5900
▁pieces	-5901
▁breathing	-5902
▁continued	-5903
▁alt	-5904
▁dặm	-5905
▁gối	-5906
▁kra	-5907
▁lạp	-5908
icles	-5909
▁acqu	-5910
▁epis	-5911
▁gala	-5912
▁khía	-5913
▁mike	-5914
▁gather	-5915
▁inject	-5916
▁supply	-5917
▁charles	-5918
▁complic	-5919
▁workers	-5920
▁additional	-5921
abor	-5922
▁bát	-5923
▁jer	-5924
▁manh	-5925
▁seat	-5926
▁susp	-5927
▁ghana	-5928
▁nhuận	-5929
▁stone	-5930
▁confer	-5931
▁prince	-5932
▁unlike	-5933
▁opening	-5934
▁plastic	-5935
▁philippines	-5936
bar	-5937
▁6,	-5938
▁6.	-5939
▁dĩ	-5940
mark	-5941
▁cởi	-5942
▁tật	-5943
▁und	-5944
erved	-5945
ilies	-5946
tered	-5947
▁chẩn	-5948
▁hãng	-5949
▁lots	-5950
▁sport	-5951
▁bridge	-5952
▁infect	-5953
▁taught	-5954
▁separate	-5955
▁relationships	-5956
có	-5957
rat	-5958
▁mỡ	-5959
▁ry	-5960
cker	-5961
▁bồn	-5962
▁cát	-5963
▁dịu	-5964
▁rắn	-5965
▁prem	-5966
▁swim	-5967
▁virt	-5968
▁calls	-5969
▁crime	-5970
▁quant	-5971
▁speech	-5972
▁angeles	-5973
▁justice	-5974
▁watching	-5975
▁emotional	-5976
▁commission	-5977
lib	-5978
oto	-5979
▁dâm	-5980
▁ren	-5981
▁tân	-5982
▁chải	-5983
▁hate	-5984
ements	-5985
▁solid	-5986
▁remain	-5987
▁appreci	-5988
▁continu	-5989
▁objects	-5990
▁putting	-5991
▁connected	-5992
ví	-5993
ớn	-5994
▁35	-5995
▁7,	-5996
▁7.	-5997
▁kí	-5998
emat	-5999
▁dial	-6000
▁xinh	-6001
▁2004.	-6002
▁pleas	-6003
▁article	-6004
▁affected	-6005
▁transport	-6006
gl	-6007
how	-6008
▁obt	-6009
▁ướt	-6010
iving	-6011
▁copy	-6012
▁cort	-6013
▁stim	-6014
▁asean	-6015
▁cream	-6016
▁saved	-6017
▁height	-6018
entially	-6019
▁promise	-6020
▁appropri	-6021
▁performed	-6022
▁medications	-6023
▁rh	-6024
▁map	-6025
▁max	-6026
▁cens	-6027
▁jane	-6028
▁thìa	-6029
▁absor	-6030
▁faster	-6031
▁formed	-6032
▁safety	-6033
▁climate	-6034
▁dollars	-6035
▁missing	-6036
▁cultural	-6037
▁authorities	-6038
bed	-6039
bet	-6040
rew	-6041
rig	-6042
▁vú	-6043
▁vas	-6044
▁blow	-6045
▁soul	-6046
▁subs	-6047
▁trạm	-6048
▁user	-6049
▁chest	-6050
▁quiet	-6051
▁teeth	-6052
▁hormone	-6053
▁sources	-6054
▁absolute	-6055
▁challenge	-6056
▁venezuela	-6057
ulf	-6058
tube	-6059
ysis	-6060
▁fan	-6061
▁mộc	-6062
craft	-6063
ented	-6064
▁blog	-6065
▁core	-6066
▁giáp	-6067
▁hous	-6068
▁apart	-6069
▁fully	-6070
▁irrit	-6071
▁effort	-6072
▁mobile	-6073
▁strugg	-6074
▁presence	-6075
▁influence	-6076
aya	-6077
mes	-6078
iyah	-6079
word	-6080
▁lem	-6081
▁quỷ	-6082
▁spl	-6083
▁conv	-6084
▁desk	-6085
▁firm	-6086
▁gram	-6087
▁khẩn	-6088
▁lung	-6089
▁sust	-6090
▁ocean	-6091
▁smith	-6092
▁border	-6093
▁iphone	-6094
▁photos	-6095
▁committee	-6096
▁depression	-6097
%.	-6098
người	-6099
▁damn	-6100
▁tung	-6101
▁estim	-6102
▁harry	-6103
▁maria	-6104
▁pharm	-6105
▁thick	-6106
▁thạch	-6107
▁uncle	-6108
▁demand	-6109
▁leader	-6110
▁placed	-6111
▁officer	-6112
▁receive	-6113
▁surgery	-6114
▁establish	-6115
▁transform	-6116
bol	-6117
▁kỉ	-6118
ales	-6119
alin	-6120
izer	-6121
▁mrs	-6122
▁cart	-6123
▁ngầm	-6124
▁thuỵ	-6125
▁till	-6126
▁coron	-6127
▁flash	-6128
▁phase	-6129
▁spray	-6130
▁trees	-6131
▁turns	-6132
▁tuyết	-6133
eration	-6134
▁calcul	-6135
▁garden	-6136
▁handle	-6137
▁status	-6138
▁youtube	-6139
▁instruct	-6140
vỗ	-6141
ùm	-6142
met	-6143
ota	-6144
▁mồ	-6145
▁vé	-6146
iano	-6147
▁mig	-6148
▁rào	-6149
▁inse	-6150
▁span	-6151
▁sưng	-6152
▁tháp	-6153
▁synth	-6154
▁units	-6155
▁values	-6156
▁causing	-6157
▁medicine	-6158
▁slightly	-6159
▁recognize	-6160
▁foundation	-6161
wan	-6162
▁ms	-6163
▁ale	-6164
▁cóc	-6165
▁ion	-6166
▁1960	-6167
▁arth	-6168
▁bomb	-6169
▁gene	-6170
▁mons	-6171
▁peru	-6172
▁stup	-6173
▁jesus	-6174
▁maintain	-6175
▁property	-6176
▁competition	-6177
-0	-6178
rine	-6179
ulin	-6180
▁gro	-6181
▁gọn	-6182
▁tóm	-6183
▁chậu	-6184
▁iran	-6185
▁race	-6186
▁scar	-6187
▁staff	-6188
▁compon	-6189
▁opened	-6190
▁sports	-6191
▁creating	-6192
▁identify	-6193
▁atm	-6194
▁cậy	-6195
▁1970	-6196
▁expos	-6197
▁android	-6198
▁florida	-6199
▁families	-6200
▁programs	-6201
▁recommend	-6202
▁religious	-6203
yn	-6204
▁1/	-6205
aper	-6206
▁10,	-6207
▁fer	-6208
▁đạp	-6209
stein	-6210
▁bure	-6211
▁icon	-6212
▁neut	-6213
▁prec	-6214
▁assum	-6215
▁metal	-6216
▁trick	-6217
▁italian	-6218
▁welcome	-6219
▁ourselves	-6220
▁thousands	-6221
fs	-6222
inn	-6223
▁nô	-6224
aine	-6225
▁186	-6226
▁dãy	-6227
▁les	-6228
▁lát	-6229
itely	-6230
right	-6231
▁agric	-6232
▁khoan	-6233
▁triết	-6234
▁explor	-6235
▁electric	-6236
▁neighbor	-6237
▁princess	-6238
▁protection	-6239
▁independent	-6240
▁communication	-6241
ae	-6242
fa	-6243
▁8,	-6244
cket	-6245
▁bội	-6246
▁calo	-6247
▁loan	-6248
▁sher	-6249
▁trượt	-6250
▁broken	-6251
▁bureau	-6252
▁expand	-6253
▁useful	-6254
▁anxiety	-6255
▁helping	-6256
▁materials	-6257
▁otherwise	-6258
19	-6259
ris	-6260
otic	-6261
▁bọc	-6262
▁côn	-6263
▁agree	-6264
▁bodies	-6265
▁bottle	-6266
▁appears	-6267
▁careful	-6268
▁accident	-6269
ema	-6270
ila	-6271
ican	-6272
ingu	-6273
▁bền	-6274
▁vot	-6275
▁khen	-6276
▁perm	-6277
▁notes	-6278
▁tissue	-6279
▁muscles	-6280
▁examples	-6281
▁scientific	-6282
▁recommended	-6283
hi	-6284
ios	-6285
▁xi	-6286
▁jun	-6287
▁khúc	-6288
▁suit	-6289
▁whom	-6290
▁adapt	-6291
▁charge	-6292
▁joseph	-6293
▁stupid	-6294
▁covered	-6295
▁finding	-6296
▁reached	-6297
▁agricult	-6298
di	-6299
egr	-6300
▁38	-6301
irty	-6302
izes	-6303
▁cot	-6304
▁mạn	-6305
▁nik	-6306
ested	-6307
▁laws	-6308
▁lưỡi	-6309
▁vent	-6310
urally	-6311
▁label	-6312
▁limit	-6313
▁studio	-6314
▁channel	-6315
▁consult	-6316
▁defense	-6317
▁clothing	-6318
▁possibly	-6319
po	-6320
▁bá	-6321
▁fant	-6322
▁zero	-6323
▁tight	-6324
▁tools	-6325
▁reform	-6326
▁signed	-6327
▁singer	-6328
▁unique	-6329
▁citizens	-6330
!"	-6331
ợt	-6332
net	-6333
aria	-6334
time	-6335
▁hôi	-6336
▁uns	-6337
ergic	-6338
oking	-6339
owski	-6340
▁legs	-6341
▁sara	-6342
▁spok	-6343
▁alpha	-6344
▁khiêu	-6345
▁plane	-6346
▁serve	-6347
▁trial	-6348
▁wound	-6349
▁images	-6350
▁korean	-6351
▁oxygen	-6352
▁philos	-6353
▁federal	-6354
▁anywhere	-6355
▁planning	-6356
ns	-6357
ków	-6358
▁ts	-6359
aked	-6360
rier	-6361
▁ire	-6362
▁đếm	-6363
uries	-6364
▁diam	-6365
▁kick	-6366
▁mood	-6367
▁ross	-6368
ulated	-6369
▁carol	-6370
▁joint	-6371
▁enzyme	-6372
▁famous	-6373
▁imposs	-6374
▁demonst	-6375
▁removed	-6376
cut	-6377
uel	-6378
▁bê	-6379
arab	-6380
isms	-6381
ston	-6382
wide	-6383
▁atl	-6384
▁fol	-6385
▁hiv	-6386
▁kos	-6387
▁doct	-6388
▁nick	-6389
▁pupp	-6390
▁trôi	-6391
▁xích	-6392
▁brush	-6393
▁upset	-6394
▁indian	-6395
▁ingred	-6396
▁raised	-6397
▁efforts	-6398
▁failure	-6399
▁spending	-6400
▁direction	-6401
cho	-6402
▁haw	-6403
▁chìa	-6404
▁kiệm	-6405
▁lift	-6406
▁exhib	-6407
▁prime	-6408
▁roman	-6409
▁thoảng	-6410
▁predict	-6411
▁approved	-6412
▁christian	-6413
▁properties	-6414
.'	-6415
ýt	-6416
ext	-6417
▁mỏi	-6418
▁pul	-6419
▁grew	-6420
▁rice	-6421
▁shap	-6422
idents	-6423
▁angry	-6424
▁horse	-6425
▁users	-6426
▁execut	-6427
▁motion	-6428
▁schools	-6429
▁audience	-6430
▁marriage	-6431
▁emergency	-6432
-3	-6433
▁′	-6434
▁lắp	-6435
▁sel	-6436
trong	-6437
▁fash	-6438
▁ghép	-6439
▁lồng	-6440
▁mand	-6441
▁mixt	-6442
▁sequ	-6443
▁berlin	-6444
▁closed	-6445
▁incred	-6446
ulations	-6447
▁charlie	-6448
▁herself	-6449
▁secretary	-6450
▁environmental	-6451
▁ś	-6452
ượn	-6453
ỗng	-6454
▁32	-6455
▁az	-6456
▁bó	-6457
▁xứ	-6458
oses	-6459
▁bol	-6460
▁mes	-6461
▁quê	-6462
ratic	-6463
▁cere	-6464
▁impl	-6465
▁thor	-6466
theast	-6467
▁sides	-6468
▁tests	-6469
▁waste	-6470
▁finger	-6471
▁forgot	-6472
▁factors	-6473
▁weather	-6474
▁compared	-6475
ủa	-6476
aki	-6477
cbs	-6478
hen	-6479
rog	-6480
▁nạp	-6481
▁wet	-6482
▁cape	-6483
▁kiên	-6484
▁shin	-6485
▁thắt	-6486
▁cycle	-6487
▁aspect	-6488
▁proced	-6489
▁methods	-6490
▁reflect	-6491
▁appeared	-6492
▁connection	-6493
▁introduced	-6494
.)	-6495
▁etc	-6496
▁joe	-6497
▁phu	-6498
oxide	-6499
▁kong	-6500
▁scott	-6501
▁steps	-6502
▁bigger	-6503
▁compos	-6504
▁galaxy	-6505
▁helped	-6506
▁virgin	-6507
▁applied	-6508
▁clearly	-6509
▁richard	-6510
▁believed	-6511
▁ministry	-6512
▁prepared	-6513
▁argentina	-6514
▁institute	-6515
▁appearance	-6516
▁impossible	-6517
kn	-6518
enza	-6519
▁ira	-6520
▁móc	-6521
▁vin	-6522
force	-6523
▁cham	-6524
▁hằng	-6525
▁khốn	-6526
▁cloud	-6527
▁khoai	-6528
▁photo	-6529
ionally	-6530
▁manage	-6531
▁balance	-6532
▁details	-6533
▁manager	-6534
▁showing	-6535
▁treated	-6536
▁twitter	-6537
▁critical	-6538
▁recorded	-6539
▁operating	-6540
asy	-6541
▁uy	-6542
được	-6543
▁187	-6544
▁bul	-6545
▁khử	-6546
▁sha	-6547
▁đâm	-6548
▁2001	-6549
▁chap	-6550
▁drag	-6551
▁lock	-6552
▁ride	-6553
▁metab	-6554
▁nghìn	-6555
▁numer	-6556
osphere	-6557
▁closer	-6558
▁mostly	-6559
▁spring	-6560
▁stores	-6561
▁fashion	-6562
▁overall	-6563
▁violence	-6564
ùn	-6565
lim	-6566
▁9,	-6567
▁bọ	-6568
▁vở	-6569
roph	-6570
▁rum	-6571
iable	-6572
▁rank	-6573
▁soap	-6574
▁thám	-6575
▁wake	-6576
▁actor	-6577
▁chanh	-6578
▁hotel	-6579
▁judge	-6580
▁louis	-6581
▁prize	-6582
▁songs	-6583
ologist	-6584
▁passed	-6585
▁evening	-6586
▁pictures	-6587
▁confidence	-6588
▁application	-6589
▁appropriate	-6590
ni	-6591
cal	-6592
gia	-6593
rey	-6594
▁mờ	-6595
▁rễ	-6596
▁bôi	-6597
▁lig	-6598
▁lôi	-6599
▁ped	-6600
▁voc	-6601
field	-6602
▁bron	-6603
▁hole	-6604
▁task	-6605
▁tháo	-6606
▁tràn	-6607
▁files	-6608
▁kinds	-6609
▁magic	-6610
▁newsp	-6611
▁vision	-6612
▁writer	-6613
▁players	-6614
▁stopped	-6615
▁subsequ	-6616
▁exchange	-6617
▁sleeping	-6618
ye	-6619
owo	-6620
▁võ	-6621
gypt	-6622
▁mỏng	-6623
▁tool	-6624
▁trib	-6625
▁fault	-6626
▁greatest	-6627
▁platform	-6628
▁investment	-6629
▁leadership	-6630
vd	-6631
bes	-6632
pan	-6633
tic	-6634
▁tê	-6635
ache	-6636
hoặc	-6637
▁hòn	-6638
▁thỏ	-6639
▁bear	-6640
▁beij	-6641
▁cars	-6642
▁snow	-6643
▁raise	-6644
▁rough	-6645
▁losing	-6646
▁starts	-6647
▁remains	-6648
▁strange	-6649
urt	-6650
vis	-6651
iled	-6652
▁mah	-6653
▁bind	-6654
▁cats	-6655
▁clim	-6656
▁crim	-6657
▁nerv	-6658
ession	-6659
▁fever	-6660
▁habit	-6661
▁motor	-6662
▁scene	-6663
▁reject	-6664
▁disappe	-6665
▁expected	-6666
▁mountain	-6667
▁industrial	-6668
▁originally	-6669
▁kĩ	-6670
▁nè	-6671
itar	-6672
▁matt	-6673
▁pair	-6674
▁root	-6675
▁tông	-6676
▁vess	-6677
▁imper	-6678
▁thuần	-6679
▁thỉnh	-6680
▁tooth	-6681
ologies	-6682
▁commit	-6683
▁failed	-6684
▁prompt	-6685
▁biggest	-6686
▁library	-6687
▁settings	-6688
▁democracy	-6689
);	-6690
▁ôm	-6691
olar	-6692
▁dàn	-6693
▁gãy	-6694
▁upd	-6695
ument	-6696
▁bone	-6697
▁chôn	-6698
▁crow	-6699
▁jean	-6700
porary	-6701
▁egypt	-6702
▁taste	-6703
▁texas	-6704
▁escape	-6705
▁observ	-6706
▁highest	-6707
▁prescri	-6708
▁clinical	-6709
▁magazine	-6710
▁vegetables	-6711
lla	-6712
▁kam	-6713
▁pig	-6714
▁por	-6715
acing	-6716
▁flav	-6717
▁ngơi	-6718
avirus	-6719
ensity	-6720
▁crush	-6721
▁faith	-6722
▁maxim	-6723
▁integr	-6724
▁liquid	-6725
▁chronic	-6726
▁nervous	-6727
▁trigger	-6728
▁politics	-6729
▁agreement	-6730
▁certainly	-6731
▁applications	-6732
▁constitution	-6733
ran	-6734
aren	-6735
▁dạo	-6736
▁kẹt	-6737
▁kịp	-6738
▁lộn	-6739
▁ngã	-6740
▁nêu	-6741
▁ron	-6742
▁som	-6743
▁toả	-6744
▁xưa	-6745
icide	-6746
▁adam	-6747
▁clar	-6748
▁merc	-6749
▁ngẫu	-6750
▁reci	-6751
▁ended	-6752
▁italy	-6753
▁towel	-6754
▁bought	-6755
▁income	-6756
▁accompl	-6757
▁mixture	-6758
▁prepare	-6759
▁weapons	-6760
▁festival	-6761
▁americans	-6762
▁appointed	-6763
▁completed	-6764
▁conference	-6765
▁situations	-6766
▁specifically	-6767
):	-6768
ợn	-6769
kin	-6770
▁dã	-6771
ault	-6772
ends	-6773
▁gel	-6774
cific	-6775
▁chìm	-6776
▁khát	-6777
▁marg	-6778
▁phun	-6779
▁poet	-6780
▁vang	-6781
▁ward	-6782
ushing	-6783
▁defined	-6784
▁restaur	-6785
▁allowing	-6786
▁disorder	-6787
▁governor	-6788
▁internal	-6789
▁relatively	-6790
▁−	-6791
alu	-6792
dam	-6793
zcz	-6794
▁bể	-6795
▁đàm	-6796
▁đồn	-6797
▁beta	-6798
▁dogs	-6799
▁elev	-6800
▁gain	-6801
▁mươi	-6802
▁pill	-6803
▁scot	-6804
▁2016.	-6805
▁storm	-6806
▁attach	-6807
▁cotton	-6808
▁antibiot	-6809
▁referred	-6810
▁frequently	-6811
oy	-6812
eed	-6813
iat	-6814
▁(6	-6815
▁bab	-6816
▁hid	-6817
▁đai	-6818
▁lucky	-6819
▁saint	-6820
▁terror	-6821
▁beijing	-6822
▁driving	-6823
▁elements	-6824
▁statistics	-6825
▁corporation	-6826
dp	-6827
iti	-6828
rin	-6829
war	-6830
▁dò	-6831
char	-6832
cont	-6833
ogue	-6834
▁fox	-6835
▁1999	-6836
▁mông	-6837
▁rose	-6838
▁adding	-6839
▁cooking	-6840
▁indones	-6841
▁knowing	-6842
▁mathemat	-6843
▁naturally	-6844
▁±	-6845
200	-6846
kyo	-6847
lam	-6848
new	-6849
una	-6850
ghan	-6851
▁gay	-6852
▁tựa	-6853
lands	-6854
▁bùng	-6855
▁mail	-6856
▁thin	-6857
▁wave	-6858
inated	-6859
▁broke	-6860
▁proud	-6861
▁steve	-6862
comfort	-6863
▁beauty	-6864
▁plenty	-6865
▁spanish	-6866
▁succeed	-6867
▁apparent	-6868
▁officials	-6869
ằn	-6870
▁'.	-6871
aves	-6872
resp	-6873
▁(18	-6874
▁ali	-6875
▁bút	-6876
▁đớn	-6877
abeth	-6878
▁anth	-6879
▁edge	-6880
▁inch	-6881
▁tong	-6882
▁yoga	-6883
ighter	-6884
▁costs	-6885
▁shift	-6886
iveness	-6887
▁advant	-6888
▁fingers	-6889
▁requires	-6890
▁restrict	-6891
▁boyfriend	-6892
15	-6893
cr	-6894
gor	-6895
vant	-6896
▁len	-6897
▁mạo	-6898
▁tần	-6899
▁unc	-6900
▁chic	-6901
▁giấm	-6902
▁mild	-6903
▁pray	-6904
▁analy	-6905
▁lying	-6906
▁branch	-6907
▁fabric	-6908
▁factor	-6909
▁fourth	-6910
▁injury	-6911
atically	-6912
▁mistake	-6913
▁purchase	-6914
▁extremely	-6915
▁previously	-6916
70	-6917
uz	-6918
iaz	-6919
mas	-6920
top	-6921
ella	-6922
lete	-6923
▁183	-6924
▁cắn	-6925
▁fbi	-6926
▁nho	-6927
▁đồi	-6928
iance	-6929
▁prol	-6930
▁beach	-6931
▁juice	-6932
▁astron	-6933
▁census	-6934
▁jackson	-6935
▁monitor	-6936
▁calories	-6937
▁domestic	-6938
▁strategy	-6939
ffe	-6940
pet	-6941
cher	-6942
iles	-6943
▁185	-6944
▁gly	-6945
▁oli	-6946
▁sáp	-6947
▁barb	-6948
▁dipl	-6949
▁empt	-6950
▁pier	-6951
▁rồng	-6952
▁shad	-6953
▁soda	-6954
▁xuân	-6955
▁đuôi	-6956
▁capac	-6957
▁chris	-6958
▁dying	-6959
▁initi	-6960
▁marsh	-6961
▁claims	-6962
▁credit	-6963
▁medium	-6964
▁ngưỡng	-6965
▁ukrain	-6966
▁majority	-6967
▁pregnant	-6968
▁engineering	-6969
mo	-6970
ici	-6971
▁xỉ	-6972
seng	-6973
▁aid	-6974
▁cow	-6975
▁lạm	-6976
▁tum	-6977
idine	-6978
ville	-6979
▁ends	-6980
▁wine	-6981
▁equip	-6982
▁negot	-6983
▁circle	-6984
▁smooth	-6985
▁publish	-6986
▁criminal	-6987
▁election	-6988
▁provided	-6989
▁thousand	-6990
▁communist	-6991
▁literature	-6992
▁instructions	-6993
han	-6994
▁au	-6995
athy	-6996
rees	-6997
▁dear	-6998
▁eggs	-6999
▁grab	-7000
encies	-7001
▁bread	-7002
▁goods	-7003
▁tokyo	-7004
▁agency	-7005
▁elimin	-7006
▁rachel	-7007
▁thomas	-7008
▁listening	-7009
▁ł	-7010
but	-7011
gas	-7012
oty	-7013
uch	-7014
▁xả	-7015
rant	-7016
ript	-7017
ster	-7018
▁lãm	-7019
▁nah	-7020
▁nâu	-7021
▁ost	-7022
icity	-7023
▁2002	-7024
▁cash	-7025
▁cuộn	-7026
▁flag	-7027
▁giật	-7028
▁asian	-7029
▁crisis	-7030
▁excuse	-7031
▁stated	-7032
osterone	-7033
▁helpful	-7034
▁bringing	-7035
▁schedule	-7036
dr	-7037
ww	-7038
iva	-7039
▁uý	-7040
rome	-7041
▁nét	-7042
▁phe	-7043
▁veh	-7044
icated	-7045
▁equal	-7046
▁frame	-7047
▁layer	-7048
▁lưỡng	-7049
▁parli	-7050
▁sarah	-7051
▁stret	-7052
▁circum	-7053
▁legisl	-7054
▁martin	-7055
▁models	-7056
▁advance	-7057
▁benefit	-7058
▁worried	-7059
12	-7060
nếu	-7061
pal	-7062
▁bồ	-7063
clus	-7064
▁11,	-7065
▁12,	-7066
▁cồn	-7067
▁pad	-7068
▁tel	-7069
cking	-7070
▁plus	-7071
▁vice	-7072
▁tough	-7073
▁traff	-7074
▁worst	-7075
pective	-7076
▁butter	-7077
▁gently	-7078
▁senior	-7079
▁silver	-7080
▁conscious	-7081
▁wonderful	-7082
icy	-7083
uma	-7084
▁ái	-7085
ager	-7086
bour	-7087
iday	-7088
onic	-7089
▁cạo	-7090
▁thề	-7091
▁trễ	-7092
▁fred	-7093
▁tall	-7094
▁thro	-7095
▁vary	-7096
▁2014.	-7097
▁2018.	-7098
▁cương	-7099
▁plate	-7100
▁oliver	-7101
▁analysis	-7102
▁properly	-7103
▁confirmed	-7104
▁organizations	-7105
ẫm	-7106
ava	-7107
các	-7108
och	-7109
oll	-7110
rem	-7111
see	-7112
▁rẻ	-7113
west	-7114
▁10.	-7115
▁bru	-7116
▁jam	-7117
▁vul	-7118
▁chốt	-7119
▁fool	-7120
▁jama	-7121
▁mars	-7122
▁ngâm	-7123
▁ngục	-7124
▁teen	-7125
▁vĩnh	-7126
▁motiv	-7127
▁phẳng	-7128
▁trừng	-7129
▁wealth	-7130
▁opinion	-7131
▁pacific	-7132
▁parties	-7133
▁diseases	-7134
▁hundreds	-7135
▁infections	-7136
▁parliament	-7137
▁36	-7138
▁ht	-7139
rich	-7140
▁cắm	-7141
▁joy	-7142
▁thô	-7143
▁đáo	-7144
rison	-7145
▁dũng	-7146
▁tank	-7147
▁chain	-7148
▁smile	-7149
▁adjust	-7150
▁candid	-7151
▁academy	-7152
▁chicago	-7153
▁reports	-7154
▁electron	-7155
▁millions	-7156
▁password	-7157
▁carefully	-7158
▁characters	-7159
▁scientists	-7160
90	-7161
xi	-7162
như	-7163
▁ji	-7164
▁lô	-7165
atin	-7166
ream	-7167
▁cin	-7168
▁đáy	-7169
athan	-7170
rical	-7171
▁bowl	-7172
▁stad	-7173
▁synd	-7174
▁doubt	-7175
▁idlib	-7176
▁prost	-7177
▁stuck	-7178
▁trump	-7179
▁walls	-7180
▁assign	-7181
▁attend	-7182
▁compar	-7183
▁occurs	-7184
▁talked	-7185
▁totally	-7186
▁attended	-7187
▁equipment	-7188
▁definitely	-7189
▁responsibility	-7190
xin	-7191
▁dì	-7192
▁cắp	-7193
▁dur	-7194
▁naz	-7195
▁sup	-7196
illed	-7197
known	-7198
water	-7199
▁thổi	-7200
▁seeds	-7201
▁dragon	-7202
▁empire	-7203
▁forever	-7204
▁turning	-7205
▁suddenly	-7206
▁statement	-7207
cs	-7208
wr	-7209
:00	-7210
aud	-7211
owa	-7212
▁bồi	-7213
▁nhở	-7214
▁sụp	-7215
iliar	-7216
▁bong	-7217
▁pháo	-7218
▁stor	-7219
arabic	-7220
▁2004,	-7221
▁2013.	-7222
▁aspir	-7223
▁keeps	-7224
▁tells	-7225
▁assemb	-7226
▁element	-7227
▁flowers	-7228
▁survive	-7229
▁identity	-7230
▁secondary	-7231
▁containing	-7232
azz	-7233
nie	-7234
ras	-7235
enna	-7236
▁gội	-7237
▁toa	-7238
▁tím	-7239
▁xoa	-7240
▁leads	-7241
▁ngoan	-7242
▁vuông	-7243
▁weird	-7244
▁colors	-7245
▁forced	-7246
▁powers	-7247
▁conserv	-7248
▁initial	-7249
▁ireland	-7250
▁islands	-7251
▁suppose	-7252
▁bleeding	-7253
▁collabor	-7254
▁distract	-7255
▁marketing	-7256
▁absolutely	-7257
đi	-7258
▁(7	-7259
▁óc	-7260
▁ốc	-7261
iant	-7262
roll	-7263
▁eld	-7264
inger	-7265
▁gang	-7266
▁joey	-7267
▁nhạt	-7268
▁pros	-7269
▁thơm	-7270
▁trưa	-7271
▁wire	-7272
ifying	-7273
▁2017.	-7274
▁grown	-7275
▁solve	-7276
▁instrum	-7277
▁concerns	-7278
▁expensive	-7279
▁formation	-7280
▁worldwide	-7281
▁collection	-7282
bia	-7283
▁dut	-7284
▁fda	-7285
▁làn	-7286
▁sưu	-7287
▁yam	-7288
▁đền	-7289
▁evil	-7290
▁luân	-7291
▁meal	-7292
▁nang	-7293
▁thèm	-7294
ternal	-7295
▁accur	-7296
▁linux	-7297
▁prote	-7298
▁theat	-7299
lection	-7300
▁advice	-7301
▁context	-7302
▁focused	-7303
▁neither	-7304
▁hydrogen	-7305
▁indonesia	-7306
▁intelligence	-7307
rim	-7308
▁hd	-7309
▁pi	-7310
▁mau	-7311
▁tat	-7312
▁usb	-7313
▁boat	-7314
▁grav	-7315
orders	-7316
▁ngoái	-7317
▁relie	-7318
▁cheese	-7319
▁perman	-7320
▁prepar	-7321
▁affairs	-7322
▁managed	-7323
▁steroid	-7324
▁benefits	-7325
▁normally	-7326
▁coronavirus	-7327
esh	-7328
rie	-7329
▁sỹ	-7330
▁xí	-7331
orial	-7332
▁1994	-7333
▁scen	-7334
▁shel	-7335
▁soạn	-7336
▁đụng	-7337
▁incor	-7338
▁ultim	-7339
▁youth	-7340
▁dreams	-7341
▁khoảnh	-7342
▁widely	-7343
▁degrees	-7344
▁distinct	-7345
▁realized	-7346
▁concerned	-7347
▁confident	-7348
▁gentlemen	-7349
▁democratic	-7350
▁experiences	-7351
py	-7352
▁8.	-7353
▁bả	-7354
▁eu	-7355
▁gõ	-7356
▁ka	-7357
▁ny	-7358
esth	-7359
here	-7360
ophy	-7361
with	-7362
▁bẫy	-7363
▁hir	-7364
▁jon	-7365
▁lõi	-7366
▁pra	-7367
▁rou	-7368
▁unh	-7369
▁(198	-7370
▁insp	-7371
▁isol	-7372
▁lake	-7373
▁ngứa	-7374
▁rail	-7375
▁brief	-7376
▁inner	-7377
▁khiếp	-7378
▁nhuộm	-7379
▁lawyer	-7380
▁methyl	-7381
▁powder	-7382
▁spoken	-7383
▁doctors	-7384
cz	-7385
bra	-7386
har	-7387
lon	-7388
ori	-7389
▁tạ	-7390
down	-7391
onin	-7392
▁fro	-7393
▁hưu	-7394
▁mòn	-7395
▁nhĩ	-7396
▁súc	-7397
0.000	-7398
icate	-7399
▁iraq	-7400
▁ranh	-7401
▁2001,	-7402
▁2015.	-7403
▁daddy	-7404
▁dynam	-7405
▁arthur	-7406
▁behavi	-7407
▁khuyết	-7408
▁lights	-7409
▁orange	-7410
▁invited	-7411
▁routine	-7412
▁compound	-7413
▁whenever	-7414
▁computers	-7415
▁destroyed	-7416
▁background	-7417
▁girlfriend	-7418
pu	-7419
wo	-7420
nic	-7421
unes	-7422
▁han	-7423
▁lót	-7424
▁pom	-7425
▁sed	-7426
▁sôi	-7427
▁toy	-7428
▁busy	-7429
▁ngợi	-7430
▁rein	-7431
▁spin	-7432
encing	-7433
▁sharp	-7434
▁afghan	-7435
▁guitar	-7436
▁staying	-7437
▁sustain	-7438
▁wedding	-7439
▁exposure	-7440
▁terrible	-7441
▁basically	-7442
▁settlement	-7443
45	-7444
ẹo	-7445
▁α	-7446
uts	-7447
asty	-7448
▁ded	-7449
▁fib	-7450
▁mây	-7451
▁orb	-7452
▁đới	-7453
aming	-7454
▁cert	-7455
▁2010.	-7456
▁basis	-7457
▁crown	-7458
▁films	-7459
▁huyền	-7460
▁nearby	-7461
▁orders	-7462
▁reward	-7463
▁scared	-7464
▁thinks	-7465
▁trương	-7466
▁decades	-7467
▁hearing	-7468
▁reduced	-7469
▁request	-7470
▁solutions	-7471
▁suffering	-7472
▁controlled	-7473
ket	-7474
▁9.	-7475
illy	-7476
▁nộp	-7477
▁unf	-7478
inity	-7479
những	-7480
▁acts	-7481
▁clay	-7482
▁củng	-7483
▁dust	-7484
▁họng	-7485
ressed	-7486
urance	-7487
▁coord	-7488
▁enemy	-7489
▁fluid	-7490
▁innov	-7491
▁chosen	-7492
▁metres	-7493
▁orient	-7494
▁metabol	-7495
▁scratch	-7496
▁receptor	-7497
▁replaced	-7498
▁francisco	-7499
▁seriously	-7500
cm	-7501
oz	-7502
ss	-7503
").	-7504
lig	-7505
osa	-7506
pat	-7507
▁lê	-7508
iest	-7509
▁enh	-7510
▁hat	-7511
▁nát	-7512
▁nén	-7513
▁đậm	-7514
▁đắt	-7515
chúng	-7516
terol	-7517
▁bare	-7518
▁gate	-7519
▁khói	-7520
▁lapt	-7521
▁ngập	-7522
▁penn	-7523
▁pure	-7524
▁quét	-7525
▁vine	-7526
▁barry	-7527
▁kitch	-7528
▁opera	-7529
▁plays	-7530
▁sight	-7531
▁truly	-7532
▁begins	-7533
▁detail	-7534
▁awarded	-7535
▁insulin	-7536
▁selling	-7537
▁executive	-7538
▁historical	-7539
▁‘	-7540
lyn	-7541
▁nạ	-7542
▁om	-7543
uses	-7544
▁fis	-7545
▁hối	-7546
▁mưu	-7547
▁nốt	-7548
▁wid	-7549
▁2020	-7550
▁oral	-7551
▁rang	-7552
▁zone	-7553
▁2012.	-7554
▁drops	-7555
▁piano	-7556
▁roots	-7557
▁suppl	-7558
▁therm	-7559
▁folder	-7560
▁mainly	-7561
▁shared	-7562
▁volume	-7563
▁devices	-7564
▁elected	-7565
▁proceed	-7566
▁testing	-7567
▁capacity	-7568
▁appreciate	-7569
17	-7570
ễu	-7571
▁(#	-7572
▁rw	-7573
▁yu	-7574
elle	-7575
enos	-7576
teen	-7577
▁amy	-7578
▁hẹp	-7579
▁kin	-7580
▁kir	-7581
▁nin	-7582
▁1998	-7583
▁eliz	-7584
▁hước	-7585
fortun	-7586
▁birds	-7587
▁evalu	-7588
▁marry	-7589
▁afford	-7590
▁edward	-7591
▁fruits	-7592
▁poison	-7593
▁shower	-7594
▁journey	-7595
▁teaching	-7596
▁implement	-7597
▁obviously	-7598
▁operation	-7599
▁primarily	-7600
▁architecture	-7601
33	-7602
ịn	-7603
asm	-7604
ika	-7605
aret	-7606
iago	-7607
icon	-7608
andon	-7609
▁lệch	-7610
▁ment	-7611
▁thấm	-7612
▁tiny	-7613
▁zeal	-7614
▁logic	-7615
▁prove	-7616
▁teams	-7617
▁tired	-7618
amental	-7619
▁fields	-7620
▁filled	-7621
▁illust	-7622
▁khoáng	-7623
▁nguyễn	-7624
▁palace	-7625
▁phosph	-7626
▁signal	-7627
▁edition	-7628
▁formula	-7629
▁trained	-7630
▁winning	-7631
▁accounts	-7632
▁cleaning	-7633
▁numerous	-7634
▁projects	-7635
▁supported	-7636
ym	-7637
cow	-7638
ums	-7639
wal	-7640
▁".	-7641
▁lỡ	-7642
▁mỉ	-7643
▁ot	-7644
erto	-7645
▁chở	-7646
▁lấp	-7647
▁sắm	-7648
erate	-7649
iters	-7650
▁1950	-7651
▁budd	-7652
▁pool	-7653
▁tống	-7654
▁vote	-7655
▁2020,	-7656
▁graph	-7657
▁loose	-7658
respond	-7659
▁native	-7660
▁secure	-7661
▁throat	-7662
▁cutting	-7663
▁episode	-7664
▁letting	-7665
▁victims	-7666
▁provides	-7667
▁pregnancy	-7668
▁promotion	-7669
▁distribution	-7670
▁investigation	-7671
umn	-7672
....	-7673
mond	-7674
pass	-7675
rick	-7676
▁ari	-7677
▁wik	-7678
ennis	-7679
night	-7680
▁turk	-7681
▁anger	-7682
▁empty	-7683
▁screw	-7684
▁shell	-7685
▁sites	-7686
▁thịnh	-7687
▁annual	-7688
▁flying	-7689
▁malays	-7690
▁mirror	-7691
▁nghịch	-7692
▁potato	-7693
▁uganda	-7694
▁amounts	-7695
▁kitchen	-7696
▁matters	-7697
▁offered	-7698
▁creative	-7699
▁santiago	-7700
▁buildings	-7701
▁increases	-7702
▁operations	-7703
vo	-7704
aks	-7705
fen	-7706
nat	-7707
tle	-7708
unte	-7709
▁20,	-7710
▁bón	-7711
▁ceo	-7712
▁chợ	-7713
▁cou	-7714
▁ghé	-7715
▁lật	-7716
▁mol	-7717
▁mun	-7718
▁vội	-7719
inent	-7720
place	-7721
▁anna	-7722
▁indu	-7723
▁likes	-7724
▁satis	-7725
▁adults	-7726
▁advent	-7727
▁negoti	-7728
▁nguyệt	-7729
▁unable	-7730
▁victor	-7731
▁arrived	-7732
▁authority	-7733
▁estimated	-7734
▁mountains	-7735
▁remaining	-7736
▁correspond	-7737
▁perspective	-7738
▁consequences	-7739
hu	-7740
lu	-7741
dia	-7742
equ	-7743
ski	-7744
▁mò	-7745
edia	-7746
grad	-7747
▁dvd	-7748
▁khỉ	-7749
▁von	-7750
▁wat	-7751
ching	-7752
▁1989	-7753
▁1993	-7754
▁benz	-7755
▁hook	-7756
▁khôi	-7757
▁kiềm	-7758
▁tony	-7759
iments	-7760
▁hello	-7761
▁maría	-7762
▁nerve	-7763
▁withd	-7764
▁fellow	-7765
▁artists	-7766
▁dealing	-7767
▁planned	-7768
▁promote	-7769
▁remained	-7770
▁selected	-7771
▁studying	-7772
don	-7773
▁75	-7774
▁rũ	-7775
ashi	-7776
gers	-7777
icip	-7778
part	-7779
▁anc	-7780
▁bot	-7781
▁cay	-7782
▁lùi	-7783
▁phô	-7784
▁kiệt	-7785
▁mort	-7786
▁cabin	-7787
▁carib	-7788
station	-7789
▁buying	-7790
▁insect	-7791
▁sodium	-7792
▁twenty	-7793
▁weapon	-7794
▁contrast	-7795
▁unfortun	-7796
▁container	-7797
▁afghanistan	-7798
▁ingredients	-7799
hr	-7800
nik	-7801
▁ct	-7802
aker	-7803
▁16,	-7804
▁jac	-7805
▁keo	-7806
▁vây	-7807
▁vắc	-7808
lines	-7809
lying	-7810
▁thôn	-7811
▁camer	-7812
▁illeg	-7813
▁paste	-7814
▁advert	-7815
▁citrus	-7816
▁editor	-7817
▁script	-7818
culation	-7819
▁abandon	-7820
▁burning	-7821
▁involve	-7822
▁nghiêng	-7823
▁profile	-7824
▁volunte	-7825
▁arrested	-7826
▁directed	-7827
▁painting	-7828
▁decisions	-7829
▁technique	-7830
▁experiment	-7831
▁photograph	-7832
▁techniques	-7833
▁governments	-7834
99	-7835
▁#	-7836
bby	-7837
ova	-7838
ưởi	-7839
▁ku	-7840
oman	-7841
▁jar	-7842
▁rio	-7843
▁vay	-7844
erves	-7845
▁chăn	-7846
▁phật	-7847
▁sate	-7848
▁scan	-7849
▁seed	-7850
active	-7851
▁owned	-7852
▁deputy	-7853
▁golden	-7854
▁invent	-7855
▁nguyen	-7856
▁besides	-7857
▁capable	-7858
▁chicken	-7859
▁closely	-7860
▁comment	-7861
▁confron	-7862
▁breaking	-7863
▁champion	-7864
▁infected	-7865
▁launched	-7866
▁measures	-7867
▁apartment	-7868
▁functions	-7869
ũi	-7870
leg	-7871
nia	-7872
ocy	-7873
tha	-7874
tra	-7875
▁34	-7876
▁nụ	-7877
▁ưa	-7878
acle	-7879
idel	-7880
inse	-7881
umin	-7882
▁cáp	-7883
▁pok	-7884
▁bern	-7885
▁dose	-7886
▁frag	-7887
▁giọt	-7888
▁sund	-7889
▁fried	-7890
▁mixed	-7891
▁siles	-7892
▁formal	-7893
▁airport	-7894
▁entered	-7895
▁johnson	-7896
▁passion	-7897
▁sisters	-7898
▁advantage	-7899
▁happiness	-7900
gie	-7901
▁ow	-7902
▁pc	-7903
▁tị	-7904
cope	-7905
▁mồi	-7906
▁vel	-7907
olved	-7908
▁mask	-7909
▁blind	-7910
▁ngưng	-7911
▁owner	-7912
▁smoke	-7913
▁actual	-7914
▁agents	-7915
▁baking	-7916
▁choles	-7917
▁diplom	-7918
▁prices	-7919
▁transm	-7920
▁chances	-7921
▁equation	-7922
▁familiar	-7923
▁opposite	-7924
▁soldiers	-7925
▁stronger	-7926
▁commander	-7927
▁evolution	-7928
▁initially	-7929
▁cholesterol	-7930
▁il	-7931
▁lt	-7932
emia	-7933
▁dắt	-7934
▁giê	-7935
▁hop	-7936
house	-7937
▁gạch	-7938
▁roof	-7939
▁thấu	-7940
icious	-7941
▁2003,	-7942
▁catal	-7943
▁faces	-7944
▁thiền	-7945
▁thuẫn	-7946
▁killer	-7947
▁falling	-7948
▁entirely	-7949
▁involves	-7950
▁resistance	-7951
▁represented	-7952
hov	-7953
lan	-7954
pol	-7955
▁pd	-7956
fast	-7957
▁12.	-7958
▁18,	-7959
▁19,	-7960
▁ack	-7961
▁dat	-7962
▁khe	-7963
▁mit	-7964
▁vặt	-7965
cause	-7966
▁bàng	-7967
▁guns	-7968
▁hano	-7969
▁sets	-7970
▁tape	-7971
▁emper	-7972
▁tasks	-7973
lements	-7974
▁indeed	-7975
▁paying	-7976
▁sector	-7977
▁valley	-7978
▁contest	-7979
▁letters	-7980
▁organic	-7981
▁suspect	-7982
▁unknown	-7983
▁elizabeth	-7984
▁providing	-7985
▁ultimately	-7986
▁fundamental	-7987
lv	-7988
nel	-7989
nge	-7990
ario	-7991
cers	-7992
gged	-7993
mann	-7994
olve	-7995
orph	-7996
▁lag	-7997
▁lợn	-7998
▁phú	-7999
▁rib	-8000
▁tak	-8001
▁đệm	-8002
aches	-8003
adian	-8004
erial	-8005
ester	-8006
▁biał	-8007
▁cảng	-8008
▁diệu	-8009
▁myth	-8010
▁rabb	-8011
▁2011.	-8012
▁knock	-8013
▁optim	-8014
▁route	-8015
▁teles	-8016
▁thoái	-8017
▁earned	-8018
▁immune	-8019
▁enterpr	-8020
▁advanced	-8021
▁messages	-8022
▁victoria	-8023
32	-8024
75	-8025
oni	-8026
▁lọ	-8027
hist	-8028
road	-8029
▁blu	-8030
▁cạn	-8031
▁kẹo	-8032
▁row	-8033
▁đam	-8034
▁đan	-8035
▁fert	-8036
▁hoan	-8037
▁khơi	-8038
ounter	-8039
stairs	-8040
▁cards	-8041
▁cưỡng	-8042
▁obama	-8043
▁squad	-8044
▁combat	-8045
▁expert	-8046
▁knight	-8047
▁dropped	-8048
▁musical	-8049
▁olympics	-8050
▁communities	-8051
▁technologies	-8052
16	-8053
48	-8054
tv	-8055
iec	-8056
aint	-8057
▁bog	-8058
▁kur	-8059
▁luc	-8060
▁sét	-8061
▁crew	-8062
▁foll	-8063
▁lean	-8064
▁maur	-8065
▁mode	-8066
▁pour	-8067
▁flood	-8068
▁homes	-8069
▁jimmy	-8070
▁medal	-8071
▁satur	-8072
istered	-8073
▁budget	-8074
▁remote	-8075
▁syrian	-8076
▁tables	-8077
▁trials	-8078
▁jamaica	-8079
▁vinegar	-8080
▁patterns	-8081
▁broadcast	-8082
▁newspaper	-8083
▁regularly	-8084
▁effectively	-8085
▁opportunities	-8086
wi	-8087
die	-8088
gal	-8089
osp	-8090
▁pm	-8091
▁vl	-8092
agen	-8093
quar	-8094
sole	-8095
uten	-8096
▁14,	-8097
▁150	-8098
▁bóp	-8099
▁dop	-8100
▁gdp	-8101
▁hab	-8102
▁nắp	-8103
▁pak	-8104
▁wii	-8105
▁xen	-8106
▁xóm	-8107
▁đắn	-8108
rates	-8109
▁1000	-8110
▁alle	-8111
▁clus	-8112
▁khôn	-8113
▁tưới	-8114
▁billy	-8115
▁greek	-8116
▁marie	-8117
▁noted	-8118
▁simpl	-8119
▁spain	-8120
▁toler	-8121
▁urban	-8122
▁facing	-8123
▁ladies	-8124
▁seemed	-8125
▁tested	-8126
▁regions	-8127
▁sharing	-8128
▁visible	-8129
▁zealand	-8130
▁catholic	-8131
▁observed	-8132
▁pleasure	-8133
▁organized	-8134
▁transition	-8135
▁cooperation	-8136
▁institutions	-8137
és	-8138
iko	-8139
▁64	-8140
▁ov	-8141
▁đà	-8142
kins	-8143
this	-8144
▁cel	-8145
▁dải	-8146
▁gol	-8147
▁hâm	-8148
▁mốc	-8149
orter	-8150
▁dram	-8151
▁sale	-8152
▁2005,	-8153
▁drama	-8154
▁fract	-8155
▁lunch	-8156
▁nhúng	-8157
▁quãng	-8158
▁assess	-8159
▁conver	-8160
▁harder	-8161
▁carried	-8162
▁counsel	-8163
▁genetic	-8164
▁quarter	-8165
▁serving	-8166
▁smoking	-8167
▁stadium	-8168
▁theater	-8169
▁category	-8170
▁machines	-8171
▁chemicals	-8172
▁southeast	-8173
▁witnesses	-8174
▁challenges	-8175
▁increasingly	-8176
iol	-8177
▁bì	-8178
▁rã	-8179
fall	-8180
ński	-8181
▁fas	-8182
▁sốc	-8183
annah	-8184
inate	-8185
works	-8186
▁1997	-8187
▁chat	-8188
▁kông	-8189
▁lind	-8190
▁pink	-8191
▁quit	-8192
▁soph	-8193
▁trop	-8194
▁điền	-8195
▁giáng	-8196
▁laser	-8197
▁wheel	-8198
iciency	-8199
▁acknow	-8200
▁monica	-8201
▁answers	-8202
▁emperor	-8203
▁hanging	-8204
▁illness	-8205
▁birthday	-8206
▁combined	-8207
▁recording	-8208
ẹt	-8209
▁zo	-8210
wind	-8211
▁bốc	-8212
▁chẽ	-8213
▁kon	-8214
▁nảy	-8215
▁váy	-8216
itors	-8217
point	-8218
▁jeff	-8219
▁logo	-8220
▁orch	-8221
▁phơi	-8222
▁rick	-8223
▁tone	-8224
▁2019.	-8225
▁meals	-8226
▁quyến	-8227
▁rates	-8228
▁contem	-8229
▁gender	-8230
▁puerto	-8231
▁satell	-8232
▁videos	-8233
▁massive	-8234
▁olympic	-8235
▁typical	-8236
▁younger	-8237
▁describe	-8238
▁policies	-8239
▁promoted	-8240
▁suggests	-8241
▁syndrome	-8242
▁versions	-8243
▁alexander	-8244
▁encourage	-8245
▁exercises	-8246
▁mentioned	-8247
aga	-8248
uls	-8249
uri	-8250
▁ds	-8251
▁ốm	-8252
▁pho	-8253
▁1996	-8254
▁cogn	-8255
▁dude	-8256
▁lăng	-8257
▁lũng	-8258
▁quát	-8259
▁runs	-8260
▁sega	-8261
▁tiệm	-8262
ffeine	-8263
▁buddy	-8264
▁chrome	-8265
▁format	-8266
▁laptop	-8267
▁moscow	-8268
▁adopted	-8269
▁classes	-8270
▁vessels	-8271
▁sensitive	-8272
▁personality	-8273
▁championships	-8274
ju	-8275
enz	-8276
roc	-8277
ardo	-8278
chol	-8279
icul	-8280
▁10%	-8281
▁dol	-8282
▁dâu	-8283
▁gry	-8284
▁gấu	-8285
▁hem	-8286
▁joh	-8287
▁rog	-8288
▁rus	-8289
▁tab	-8290
ivers	-8291
oston	-8292
▁1992	-8293
▁châm	-8294
▁guil	-8295
▁hoãn	-8296
▁mảng	-8297
▁rụng	-8298
▁sier	-8299
▁vành	-8300
ailand	-8301
▁chiên	-8302
▁debut	-8303
▁lemon	-8304
▁santa	-8305
ensions	-8306
▁arrang	-8307
▁defend	-8308
▁engage	-8309
▁movies	-8310
▁creation	-8311
▁malaysia	-8312
▁swelling	-8313
▁construct	-8314
▁processes	-8315
18	-8316
asp	-8317
▁ớt	-8318
pret	-8319
▁cơm	-8320
▁dẹp	-8321
▁jin	-8322
▁tet	-8323
enses	-8324
ipped	-8325
▁cass	-8326
▁chọc	-8327
▁gluc	-8328
▁mate	-8329
▁nasa	-8330
▁stro	-8331
▁swed	-8332
ptions	-8333
terday	-8334
▁abuse	-8335
▁lường	-8336
▁patch	-8337
▁thung	-8338
▁linked	-8339
▁matthe	-8340
▁physics	-8341
▁possess	-8342
▁assembly	-8343
▁caffeine	-8344
▁incorpor	-8345
▁teachers	-8346
▁literally	-8347
▁yesterday	-8348
▁atmosphere	-8349
▁everywhere	-8350
▁recognized	-8351
▁complicated	-8352
▁neighborhood	-8353
ti	-8354
mph	-8355
uge	-8356
ếch	-8357
▁tc	-8358
enth	-8359
iser	-8360
rete	-8361
▁bun	-8362
▁cấy	-8363
▁gũi	-8364
▁mầm	-8365
▁rig	-8366
▁đắp	-8367
chlor	-8368
▁hors	-8369
▁miêu	-8370
▁tùng	-8371
▁grade	-8372
▁horiz	-8373
▁sword	-8374
▁chocol	-8375
▁hiding	-8376
▁insert	-8377
▁punish	-8378
▁tongue	-8379
▁storage	-8380
▁presented	-8381
▁resulting	-8382
▁experienced	-8383
24	-8384
ois	-8385
▁33	-8386
▁ps	-8387
zing	-8388
▁13,	-8389
▁600	-8390
▁dốc	-8391
▁liu	-8392
▁phr	-8393
▁vứt	-8394
▁cycl	-8395
▁khay	-8396
▁ngắm	-8397
▁pent	-8398
▁tail	-8399
▁thâm	-8400
▁angel	-8401
▁crack	-8402
▁cryst	-8403
▁holly	-8404
▁knife	-8405
▁roles	-8406
▁amazon	-8407
ologists	-8408
▁compass	-8409
▁markets	-8410
▁thailand	-8411
▁customers	-8412
▁employees	-8413
▁treatments	-8414
▁appointment	-8415
▁consumption	-8416
aa	-8417
asa	-8418
eno	-8419
▁kẽ	-8420
▁vờ	-8421
arin	-8422
▁alf	-8423
▁rif	-8424
iform	-8425
▁(195	-8426
▁andr	-8427
▁coat	-8428
▁cành	-8429
estyle	-8430
▁hanoi	-8431
▁innoc	-8432
▁rinse	-8433
▁shirt	-8434
▁spoke	-8435
▁tower	-8436
▁boston	-8437
▁decade	-8438
▁desire	-8439
▁excell	-8440
▁locked	-8441
▁pulled	-8442
▁console	-8443
▁factory	-8444
▁sending	-8445
▁friendly	-8446
▁reducing	-8447
▁expression	-8448
▁identified	-8449
▁structures	-8450
"),	-8451
aph	-8452
bạn	-8453
icz	-8454
▁42	-8455
▁ân	-8456
hips	-8457
pres	-8458
▁piz	-8459
▁raw	-8460
▁râu	-8461
▁đun	-8462
▁eric	-8463
▁hind	-8464
▁leon	-8465
▁stem	-8466
illing	-8467
stream	-8468
▁armed	-8469
▁brian	-8470
▁danny	-8471
▁holds	-8472
▁albert	-8473
▁centre	-8474
▁claire	-8475
▁columb	-8476
▁gotten	-8477
▁inches	-8478
▁concert	-8479
▁inflamm	-8480
▁streets	-8481
▁underst	-8482
▁existing	-8483
▁mistakes	-8484
▁christmas	-8485
▁surprised	-8486
▁constantly	-8487
▁surrounding	-8488
78	-8489
je	-8490
sz	-8491
cos	-8492
cue	-8493
iny	-8494
▁rồ	-8495
▁ồn	-8496
-201	-8497
asma	-8498
atem	-8499
▁dun	-8500
▁era	-8501
▁ker	-8502
▁múa	-8503
icing	-8504
illin	-8505
▁duty	-8506
▁fuel	-8507
▁hiếp	-8508
▁mượn	-8509
▁bunch	-8510
▁guide	-8511
▁ideal	-8512
▁miami	-8513
▁prose	-8514
▁toile	-8515
▁flower	-8516
▁guilty	-8517
▁hidden	-8518
▁listed	-8519
▁meters	-8520
▁random	-8521
▁stable	-8522
▁noticed	-8523
▁tournam	-8524
▁featured	-8525
▁manufactur	-8526
▁restaurant	-8527
cet	-8528
eta	-8529
tên	-8530
▁tò	-8531
▁đẻ	-8532
amed	-8533
▁bio	-8534
▁kẹp	-8535
▁pic	-8536
▁vom	-8537
iders	-8538
▁auth	-8539
▁narr	-8540
▁rent	-8541
▁2000,	-8542
▁2006.	-8543
▁brows	-8544
▁conce	-8545
▁giant	-8546
▁heads	-8547
▁khoác	-8548
▁assume	-8549
▁carlos	-8550
▁client	-8551
▁hungry	-8552
▁papers	-8553
▁pounds	-8554
▁repair	-8555
▁sierra	-8556
▁symbol	-8557
▁afterno	-8558
▁conclud	-8559
▁depends	-8560
▁harvard	-8561
▁matthew	-8562
▁painful	-8563
▁circumst	-8564
▁extended	-8565
▁external	-8566
▁procedure	-8567
▁accomplish	-8568
hal	-8569
iac	-8570
▁39	-8571
▁bù	-8572
bean	-8573
outs	-8574
quin	-8575
▁15,	-8576
▁184	-8577
▁arc	-8578
▁cán	-8579
▁ecu	-8580
▁hét	-8581
▁tỉa	-8582
▁1991	-8583
▁aids	-8584
▁cops	-8585
▁ears	-8586
▁lips	-8587
▁mich	-8588
▁oils	-8589
▁thép	-8590
▁xăng	-8591
▁2009.	-8592
▁audio	-8593
▁crash	-8594
▁mayor	-8595
▁schol	-8596
▁urine	-8597
isation	-8598
▁traffic	-8599
▁withdra	-8600
▁achieved	-8601
▁promised	-8602
▁household	-8603
▁immediate	-8604
▁particles	-8605
▁standards	-8606
▁unfortunately	-8607
38	-8608
oro	-8609
▁sô	-8610
▁wy	-8611
also	-8612
coln	-8613
ller	-8614
▁17,	-8615
▁dor	-8616
▁hip	-8617
▁ngô	-8618
▁rùa	-8619
▁vòi	-8620
ethyl	-8621
gging	-8622
icted	-8623
▁jazz	-8624
▁jess	-8625
▁nurs	-8626
▁trật	-8627
▁admin	-8628
▁depos	-8629
▁natri	-8630
▁orbit	-8631
▁petro	-8632
▁sauce	-8633
▁veter	-8634
ruption	-8635
▁agreed	-8636
▁brings	-8637
▁battery	-8638
▁largely	-8639
▁lincoln	-8640
▁neutral	-8641
▁competed	-8642
▁imperial	-8643
▁sentence	-8644
eo	-8645
ati	-8646
chy	-8647
sen	-8648
▁dj	-8649
ando	-8650
whel	-8651
▁kaz	-8652
▁lit	-8653
▁mcc	-8654
▁mến	-8655
▁tip	-8656
eline	-8657
▁buýt	-8658
▁fake	-8659
▁jail	-8660
▁kate	-8661
▁kosz	-8662
▁lùng	-8663
▁mộng	-8664
▁rash	-8665
▁1990,	-8666
▁aires	-8667
▁doors	-8668
▁hurry	-8669
▁noise	-8670
▁nutri	-8671
▁puppy	-8672
▁ships	-8673
▁trúng	-8674
▁headed	-8675
▁itunes	-8676
▁refers	-8677
▁stands	-8678
▁taiwan	-8679
▁damaged	-8680
▁ecuador	-8681
▁excited	-8682
▁forgive	-8683
▁protest	-8684
▁suicide	-8685
▁supreme	-8686
▁bathroom	-8687
▁cultures	-8688
▁proposed	-8689
▁surprise	-8690
▁afternoon	-8691
▁discovery	-8692
▁documents	-8693
▁returning	-8694
▁resolution	-8695
▁significantly	-8696
fi	-8697
ls	-8698
bul	-8699
với	-8700
▁nt	-8701
▁vỗ	-8702
ours	-8703
▁800	-8704
▁dịp	-8705
▁kep	-8706
▁nan	-8707
osing	-8708
▁1995	-8709
▁rico	-8710
▁sony	-8711
▁tort	-8712
▁decor	-8713
▁kenya	-8714
▁manip	-8715
▁nhũng	-8716
▁driver	-8717
▁hannah	-8718
▁intake	-8719
▁offers	-8720
▁server	-8721
▁suffer	-8722
▁aspects	-8723
▁exposed	-8724
▁precise	-8725
abilities	-8726
▁argument	-8727
▁romantic	-8728
▁gradually	-8729
▁reduction	-8730
▁territory	-8731
▁convention	-8732
▁independence	-8733
▁concentration	-8734
%)	-8735
là	-8736
aba	-8737
ali	-8738
cur	-8739
vas	-8740
▁37	-8741
▁cọ	-8742
abil	-8743
atsu	-8744
icit	-8745
idal	-8746
iper	-8747
onym	-8748
▁zam	-8749
▁đợt	-8750
ordan	-8751
▁atom	-8752
▁chòm	-8753
▁furn	-8754
▁gord	-8755
▁lith	-8756
▁nhện	-8757
▁xách	-8758
▁boost	-8759
▁forth	-8760
▁ghost	-8761
▁attorn	-8762
▁calcio	-8763
▁dating	-8764
▁vulner	-8765
▁aspirin	-8766
▁breathe	-8767
▁feeding	-8768
▁nahiyah	-8769
▁distingu	-8770
▁overwhel	-8771
▁religion	-8772
▁necessarily	-8773
13	-8774
zi	-8775
eda	-8776
hea	-8777
lli	-8778
raz	-8779
sey	-8780
▁mẻ	-8781
▁ya	-8782
idad	-8783
▁bấm	-8784
▁dội	-8785
▁gor	-8786
▁hụt	-8787
▁pod	-8788
▁wow	-8789
rence	-8790
▁emph	-8791
▁kali	-8792
▁navy	-8793
▁nest	-8794
▁pron	-8795
▁vạch	-8796
father	-8797
▁fiber	-8798
▁olive	-8799
▁pitch	-8800
▁serot	-8801
▁surge	-8802
▁kepler	-8803
▁kraków	-8804
▁manner	-8805
▁picked	-8806
▁retail	-8807
▁figured	-8808
▁ordered	-8809
▁rapidly	-8810
▁schedul	-8811
▁carrying	-8812
▁consists	-8813
▁decrease	-8814
▁dopamine	-8815
▁scholars	-8816
▁struggle	-8817
▁permanent	-8818
▁universal	-8819
▁agriculture	-8820
▁subsequently	-8821
%,	-8822
,'	-8823
fr	-8824
mm	-8825
pc	-8826
hel	-8827
mic	-8828
tes	-8829
▁bc	-8830
▁dc	-8831
▁yo	-8832
anol	-8833
anth	-8834
ares	-8835
such	-8836
▁alk	-8837
▁lui	-8838
▁tuệ	-8839
azole	-8840
berry	-8841
owice	-8842
▁nail	-8843
▁ruồi	-8844
▁trân	-8845
▁đoan	-8846
▁2005.	-8847
▁2007.	-8848
▁tempt	-8849
▁latter	-8850
▁walked	-8851
▁attacks	-8852
▁choices	-8853
▁whereas	-8854
▁memories	-8855
▁obtained	-8856
▁technical	-8857
▁contribute	-8858
▁officially	-8859
▁researchers	-8860
▁manufacturing	-8861
bod	-8862
▁ss	-8863
fice	-8864
leep	-8865
umps	-8866
điều	-8867
▁(10	-8868
▁bọt	-8869
▁dub	-8870
▁chip	-8871
▁khan	-8872
▁loud	-8873
▁peak	-8874
▁trơn	-8875
▁advoc	-8876
▁brook	-8877
▁deriv	-8878
▁dirty	-8879
▁embra	-8880
▁grace	-8881
▁rural	-8882
▁steel	-8883
▁daniel	-8884
▁desert	-8885
▁shadow	-8886
▁wilson	-8887
▁dialect	-8888
▁illegal	-8889
▁package	-8890
▁recovery	-8891
▁breakfast	-8892
▁injection	-8893
▁electronic	-8894
▁importance	-8895
▁understood	-8896
▁differences	-8897
2),	-8898
kho	-8899
not	-8900
uto	-8901
▁(9	-8902
▁bh	-8903
▁lờ	-8904
mình	-8905
oids	-8906
▁adh	-8907
▁gut	-8908
▁meg	-8909
▁rèn	-8910
▁bass	-8911
▁dies	-8912
▁earn	-8913
▁sole	-8914
▁vắng	-8915
▁wrap	-8916
icians	-8917
itable	-8918
rition	-8919
▁aside	-8920
▁drunk	-8921
▁split	-8922
▁tunis	-8923
raction	-8924
▁facial	-8925
▁poetry	-8926
▁calcium	-8927
▁forming	-8928
▁healing	-8929
▁constell	-8930
▁koszalin	-8931
▁subjects	-8932
▁politician	-8933
▁institution	-8934
▁testosterone	-8935
23	-8936
sự	-8937
pin	-8938
urb	-8939
▁nm	-8940
▁rẽ	-8941
cipl	-8942
lett	-8943
▁aer	-8944
▁cig	-8945
▁ger	-8946
▁kor	-8947
▁mâu	-8948
▁tuỷ	-8949
▁wax	-8950
▁đãi	-8951
agram	-8952
break	-8953
using	-8954
venue	-8955
▁1930	-8956
▁cure	-8957
▁gods	-8958
▁juan	-8959
▁jung	-8960
▁mama	-8961
▁trim	-8962
▁vịnh	-8963
▁2002,	-8964
▁clock	-8965
▁coach	-8966
▁divor	-8967
▁fifth	-8968
▁guest	-8969
▁moves	-8970
▁nause	-8971
▁truck	-8972
▁drinks	-8973
▁eccell	-8974
▁guatem	-8975
▁houses	-8976
▁inspir	-8977
▁rwanda	-8978
▁troops	-8979
▁intense	-8980
▁moments	-8981
▁ukraine	-8982
▁academic	-8983
▁branches	-8984
▁insurance	-8985
▁reference	-8986
▁definition	-8987
▁eccellenza	-8988
nn	-8989
ếm	-8990
ded	-8991
iry	-8992
kel	-8993
thy	-8994
ŏng	-8995
▁rỉ	-8996
umes	-8997
▁bướ	-8998
▁mập	-8999
arant	-9000
cules	-9001
▁apps	-9002
▁coal	-9003
▁disk	-9004
▁flex	-9005
▁hunt	-9006
▁lect	-9007
▁scul	-9008
▁vuốt	-9009
▁anime	-9010
▁chăng	-9011
▁costa	-9012
▁gabri	-9013
▁grass	-9014
▁risks	-9015
▁heaven	-9016
▁johnny	-9017
▁missed	-9018
▁sample	-9019
▁survey	-9020
inations	-9021
▁engaged	-9022
▁vaccine	-9023
▁chocolate	-9024
▁interpret	-9025
▁incredible	-9026
▁prescription	-9027
▁temperatures	-9028
ml	-9029
akh	-9030
aro	-9031
zan	-9032
▁cừ	-9033
▁ft	-9034
▁zh	-9035
▁ôn	-9036
bell	-9037
care	-9038
miss	-9039
▁120	-9040
▁agg	-9041
▁bơm	-9042
hovah	-9043
inton	-9044
lings	-9045
▁euro	-9046
▁fung	-9047
▁mere	-9048
ancing	-9049
arrass	-9050
▁banks	-9051
▁jones	-9052
▁pizza	-9053
▁theme	-9054
▁exclus	-9055
▁latest	-9056
▁phenom	-9057
▁rescue	-9058
▁shaped	-9059
▁experts	-9060
▁figures	-9061
▁estrogen	-9062
▁officers	-9063
▁scotland	-9064
▁virginia	-9065
▁billboard	-9066
▁continues	-9067
▁economics	-9068
▁radiation	-9069
▁receiving	-9070
▁apparently	-9071
▁biological	-9072
▁components	-9073
▁tournament	-9074
▁communicate	-9075
▁potentially	-9076
26	-9077
cô	-9078
sm	-9079
mun	-9080
fied	-9081
▁lặn	-9082
▁owe	-9083
▁wis	-9084
▁đậy	-9085
▁đứt	-9086
▁bast	-9087
▁beer	-9088
▁brad	-9089
▁brom	-9090
▁bush	-9091
▁dean	-9092
▁luke	-9093
▁merg	-9094
▁rỗng	-9095
▁solo	-9096
▁2008.	-9097
▁cuồng	-9098
▁drain	-9099
▁frust	-9100
▁proof	-9101
▁toxic	-9102
▁asleep	-9103
▁babies	-9104
▁debate	-9105
▁emphas	-9106
▁narrow	-9107
▁saving	-9108
▁fantasy	-9109
▁hunting	-9110
▁shortly	-9111
▁warning	-9112
▁applying	-9113
▁embarrass	-9114
▁existence	-9115
▁highlight	-9116
▁introduce	-9117
▁mechanism	-9118
▁producing	-9119
▁serotonin	-9120
▁assistance	-9121
▁electrical	-9122
▁opposition	-9123
▁transferred	-9124
28	-9125
km	-9126
iếc	-9127
ril	-9128
▁46	-9129
▁65	-9130
▁hố	-9131
aver	-9132
keep	-9133
▁ape	-9134
▁jay	-9135
▁roy	-9136
abled	-9137
bling	-9138
vania	-9139
▁batt	-9140
▁butt	-9141
▁ford	-9142
▁gest	-9143
▁indo	-9144
▁mini	-9145
▁sink	-9146
▁tiệt	-9147
▁1998,	-9148
▁input	-9149
▁khiếu	-9150
▁nobel	-9151
▁penal	-9152
▁rober	-9153
▁secre	-9154
▁vượng	-9155
▁carter	-9156
▁chuông	-9157
▁portug	-9158
▁sculpt	-9159
▁extract	-9160
▁granted	-9161
▁monster	-9162
▁theatre	-9163
ibilities	-9164
▁consumer	-9165
▁intended	-9166
▁caribbean	-9167
▁centuries	-9168
▁inhibitor	-9169
▁suggested	-9170
▁determined	-9171
▁experiencing	-9172
hô	-9173
ih	-9174
zyn	-9175
▁55	-9176
▁fc	-9177
agan	-9178
ctic	-9179
ierz	-9180
▁bil	-9181
▁bóc	-9182
antly	-9183
gment	-9184
▁cống	-9185
▁ipad	-9186
▁ngột	-9187
▁rush	-9188
▁shir	-9189
▁stir	-9190
▁sườn	-9191
▁tamp	-9192
▁vast	-9193
▁đoạt	-9194
▁1,000	-9195
▁abdom	-9196
▁loyal	-9197
▁pound	-9198
▁surve	-9199
▁vocal	-9200
▁buenos	-9201
▁dollar	-9202
▁pepper	-9203
▁plasma	-9204
▁britain	-9205
▁confirm	-9206
▁massage	-9207
▁periods	-9208
▁occurred	-9209
▁proteins	-9210
▁shooting	-9211
▁brazilian	-9212
▁childhood	-9213
▁detective	-9214
▁elections	-9215
▁locations	-9216
▁reactions	-9217
▁therapist	-9218
▁difficulty	-9219
▁interaction	-9220
▁recognition	-9221
min	-9222
olo	-9223
rah	-9224
illo	-9225
▁clo	-9226
▁dow	-9227
▁gil	-9228
▁gym	-9229
▁gác	-9230
▁kan	-9231
▁pla	-9232
▁rạp	-9233
▁tob	-9234
▁toạ	-9235
▁voi	-9236
aceut	-9237
alous	-9238
print	-9239
▁cake	-9240
▁nhát	-9241
▁nhục	-9242
▁orth	-9243
▁quấn	-9244
▁alter	-9245
▁depth	-9246
▁shamp	-9247
▁stain	-9248
rations	-9249
▁athlet	-9250
▁depart	-9251
▁latinh	-9252
▁legend	-9253
▁relief	-9254
▁dancing	-9255
▁equival	-9256
▁heading	-9257
▁declared	-9258
▁feedback	-9259
▁producer	-9260
▁revealed	-9261
▁behaviors	-9262
rd	-9263
aku	-9264
bao	-9265
uda	-9266
▁2)	-9267
▁56	-9268
▁cz	-9269
igen	-9270
ista	-9271
nica	-9272
orie	-9273
▁50%	-9274
▁cad	-9275
▁cpu	-9276
▁dil	-9277
▁mak	-9278
▁shr	-9279
▁thy	-9280
▁vig	-9281
▁ván	-9282
▁xay	-9283
5,000	-9284
amide	-9285
etime	-9286
▁bars	-9287
▁bart	-9288
▁cher	-9289
▁cope	-9290
▁gánh	-9291
▁holy	-9292
▁item	-9293
▁obst	-9294
▁puts	-9295
▁seal	-9296
▁shif	-9297
▁trap	-9298
assium	-9299
▁canxi	-9300
▁grate	-9301
▁haiti	-9302
▁inhab	-9303
▁manga	-9304
▁niger	-9305
▁slide	-9306
▁usual	-9307
▁bullet	-9308
▁chuồng	-9309
▁landsc	-9310
▁miller	-9311
▁owners	-9312
▁antagon	-9313
▁capture	-9314
▁charged	-9315
▁comprom	-9316
▁density	-9317
▁guarant	-9318
▁mercury	-9319
▁speaker	-9320
▁uniform	-9321
▁writers	-9322
▁composed	-9323
▁focusing	-9324
▁shopping	-9325
▁assistant	-9326
▁component	-9327
▁diagnosis	-9328
▁principle	-9329
bro	-9330
dis	-9331
syl	-9332
ườm	-9333
anta	-9334
ptic	-9335
rors	-9336
wich	-9337
▁250	-9338
▁bam	-9339
▁gạt	-9340
▁twe	-9341
▁đực	-9342
adesh	-9343
irect	-9344
▁hack	-9345
▁sees	-9346
▁thạc	-9347
▁trùm	-9348
▁điêu	-9349
▁blank	-9350
▁delta	-9351
▁false	-9352
▁fixed	-9353
▁pursu	-9354
▁apolog	-9355
▁barely	-9356
▁hypoth	-9357
▁johann	-9358
▁strike	-9359
▁toilet	-9360
▁tomato	-9361
▁jehovah	-9362
▁passing	-9363
▁roughly	-9364
▁visited	-9365
▁attorney	-9366
▁murdered	-9367
▁ordinary	-9368
▁alongside	-9369
▁efficient	-9370
▁frequency	-9371
▁philosophy	-9372
-4	-9373
sk	-9374
ẻo	-9375
3),	-9376
iya	-9377
▁bỉ	-9378
▁hở	-9379
▁mp	-9380
▁rư	-9381
▁xì	-9382
cons	-9383
wing	-9384
ycin	-9385
▁bbc	-9386
▁jos	-9387
▁jur	-9388
▁lân	-9389
▁nov	-9390
▁rốt	-9391
▁sấy	-9392
▁100%	-9393
▁hoài	-9394
▁keys	-9395
▁nuts	-9396
▁salv	-9397
▁semi	-9398
▁surf	-9399
▁thir	-9400
▁blame	-9401
▁falls	-9402
▁immig	-9403
▁index	-9404
▁islam	-9405
▁liked	-9406
▁multi	-9407
▁cambod	-9408
▁column	-9409
▁cultiv	-9410
▁deeply	-9411
▁invite	-9412
▁marine	-9413
▁pocket	-9414
▁provin	-9415
▁remark	-9416
▁sunday	-9417
▁classic	-9418
▁moistur	-9419
▁inspired	-9420
▁removing	-9421
▁potassium	-9422
▁wondering	-9423
▁circumstances	-9424
▁constellation	-9425
-5	-9426
▁ờ	-9427
exp	-9428
mad	-9429
tok	-9430
▁47	-9431
▁ấu	-9432
alia	-9433
zyce	-9434
▁20.	-9435
▁ana	-9436
▁chì	-9437
▁gạo	-9438
▁sne	-9439
▁sói	-9440
▁vic	-9441
▁đạc	-9442
angle	-9443
attan	-9444
inter	-9445
iture	-9446
▁aunt	-9447
▁dave	-9448
▁ghen	-9449
▁mond	-9450
▁ngửi	-9451
▁sque	-9452
▁valu	-9453
▁vect	-9454
▁whit	-9455
▁wing	-9456
▁wipe	-9457
▁dates	-9458
▁entry	-9459
▁fired	-9460
▁membr	-9461
▁pills	-9462
▁witch	-9463
itarian	-9464
▁bother	-9465
▁defeat	-9466
▁donald	-9467
▁jewish	-9468
▁rarely	-9469
▁samuel	-9470
▁stimul	-9471
▁strict	-9472
▁chamber	-9473
▁diamond	-9474
▁reprodu	-9475
▁chairman	-9476
▁thorough	-9477
▁protected	-9478
▁strategic	-9479
▁uncomfort	-9480
▁businesses	-9481
▁compassion	-9482
▁journalist	-9483
▁permission	-9484
▁pharmaceut	-9485
▁principles	-9486
▁differently	-9487
▁inflammation	-9488
▁ê	-9489
aze	-9490
mus	-9491
rea	-9492
sis	-9493
tan	-9494
▁mổ	-9495
good	-9496
ship	-9497
▁hệt	-9498
▁pix	-9499
▁ske	-9500
▁1982	-9501
▁buff	-9502
▁hạch	-9503
▁kenn	-9504
▁plug	-9505
▁prev	-9506
▁xoắn	-9507
▁buồng	-9508
▁chand	-9509
▁draws	-9510
▁emily	-9511
▁holes	-9512
▁inher	-9513
▁nails	-9514
▁serge	-9515
▁steal	-9516
▁topic	-9517
▁trail	-9518
▁copies	-9519
▁diabet	-9520
▁divers	-9521
▁hoping	-9522
▁jordan	-9523
▁protoc	-9524
▁societ	-9525
▁charges	-9526
▁claimed	-9527
▁license	-9528
▁pennsyl	-9529
▁virtual	-9530
▁carolina	-9531
▁hardware	-9532
▁interfer	-9533
▁produces	-9534
▁shoulder	-9535
▁swimming	-9536
▁disorders	-9537
▁positions	-9538
▁spiritual	-9539
▁disappoint	-9540
▁respectively	-9541
▁β	-9542
1),	-9543
ngh	-9544
osy	-9545
uck	-9546
▁53	-9547
▁wi	-9548
fish	-9549
life	-9550
path	-9551
▁179	-9552
▁gau	-9553
▁ghê	-9554
▁lap	-9555
▁lux	-9556
▁nãy	-9557
▁nồi	-9558
▁tie	-9559
▁vet	-9560
allow	-9561
opher	-9562
▁chục	-9563
▁cous	-9564
▁fulf	-9565
▁incl	-9566
▁nhặt	-9567
▁nuốt	-9568
▁pump	-9569
▁trin	-9570
cribed	-9571
▁2001.	-9572
▁craft	-9573
▁dehyd	-9574
▁excel	-9575
▁lymph	-9576
▁plain	-9577
▁spell	-9578
▁tommy	-9579
instein	-9580
▁ambass	-9581
▁betray	-9582
▁cardio	-9583
▁deeper	-9584
▁horses	-9585
▁madrid	-9586
▁nausea	-9587
▁nhượng	-9588
▁rising	-9589
▁divided	-9590
▁liberal	-9591
▁portion	-9592
▁somehow	-9593
▁anderson	-9594
▁sequence	-9595
▁disappear	-9596
▁explained	-9597
▁substance	-9598
▁traveling	-9599
▁controvers	-9600
▁essentially	-9601
▁playstation	-9602
▁pennsylvania	-9603
▁representative	-9604
55	-9605
98	-9606
ła	-9607
ło	-9608
bus	-9609
zer	-9610
oked	-9611
osal	-9612
▁21,	-9613
▁cac	-9614
▁cyp	-9615
▁dal	-9616
▁dại	-9617
▁hub	-9618
▁jen	-9619
▁ket	-9620
▁lun	-9621
▁lăn	-9622
▁nag	-9623
▁ngụ	-9624
▁nur	-9625
▁rey	-9626
itate	-9627
▁ages	-9628
▁carb	-9629
▁dong	-9630
▁este	-9631
▁heal	-9632
▁joke	-9633
▁loét	-9634
▁scor	-9635
▁sore	-9636
▁tạng	-9637
▁whis	-9638
illion	-9639
senger	-9640
▁1999,	-9641
▁rooms	-9642
▁scrub	-9643
▁trend	-9644
▁waves	-9645
▁assert	-9646
▁belief	-9647
▁buried	-9648
▁gordon	-9649
▁talent	-9650
▁temple	-9651
▁babylon	-9652
▁deserve	-9653
▁singing	-9654
▁substit	-9655
▁accepted	-9656
▁headquar	-9657
▁incident	-9658
▁measured	-9659
▁survival	-9660
▁tropical	-9661
▁weakness	-9662
▁connections	-9663
▁uncomfortable	-9664
ém	-9665
-20	-9666
oxy	-9667
▁44	-9668
▁bã	-9669
▁eb	-9670
acin	-9671
burn	-9672
usal	-9673
▁ald	-9674
▁gps	-9675
▁usa	-9676
agger	-9677
anmar	-9678
cript	-9679
uchia	-9680
▁anne	-9681
▁bổng	-9682
▁cole	-9683
▁debt	-9684
▁isab	-9685
▁muỗi	-9686
▁rung	-9687
▁1970,	-9688
▁adren	-9689
▁cable	-9690
▁entre	-9691
▁idiot	-9692
▁naked	-9693
▁sheet	-9694
▁sweat	-9695
▁ancest	-9696
▁andrew	-9697
▁attrib	-9698
▁breaks	-9699
▁ending	-9700
▁frozen	-9701
▁radius	-9702
ographic	-9703
▁clients	-9704
▁fiction	-9705
▁relieve	-9706
▁columbia	-9707
▁diabetes	-9708
▁innocent	-9709
▁offering	-9710
▁prominent	-9711
▁receptors	-9712
▁publishing	-9713
▁possibility	-9714
73	-9715
dg	-9716
yo	-9717
300	-9718
bye	-9719
còn	-9720
ênh	-9721
etta	-9722
fare	-9723
icks	-9724
norm	-9725
oted	-9726
▁(17	-9727
▁bid	-9728
▁dưa	-9729
▁nếp	-9730
▁nứt	-9731
essed	-9732
isted	-9733
▁ants	-9734
▁bite	-9735
▁bund	-9736
▁caps	-9737
▁gran	-9738
▁nhốt	-9739
▁pand	-9740
▁thắc	-9741
▁wolf	-9742
rating	-9743
▁anton	-9744
▁congo	-9745
▁drawn	-9746
▁flour	-9747
▁huynh	-9748
▁nhiễu	-9749
▁pants	-9750
▁salad	-9751
▁skill	-9752
▁stood	-9753
▁trace	-9754
▁tráng	-9755
ication	-9756
▁crying	-9757
▁fertil	-9758
▁kidney	-9759
▁muslim	-9760
▁beliefs	-9761
▁discipl	-9762
▁planets	-9763
▁seeking	-9764
▁grateful	-9765
▁moisture	-9766
▁committed	-9767
▁expressed	-9768
▁hollywood	-9769
▁prisoners	-9770
▁similarly	-9771
▁participated	-9772
éc	-9773
đã	-9774
aci	-9775
eng	-9776
hay	-9777
lar	-9778
opl	-9779
▁oz	-9780
adel	-9781
bors	-9782
ched	-9783
chen	-9784
mail	-9785
oval	-9786
▁180	-9787
▁cod	-9788
▁gân	-9789
▁lúa	-9790
▁pit	-9791
▁rit	-9792
▁sẹo	-9793
▁tỏi	-9794
▁tựu	-9795
stone	-9796
▁jers	-9797
▁phác	-9798
▁thầm	-9799
▁thầu	-9800
▁trán	-9801
▁unus	-9802
▁carbo	-9803
▁diarr	-9804
▁phồng	-9805
▁punch	-9806
▁rocks	-9807
▁sacri	-9808
▁steam	-9809
ception	-9810
▁bleach	-9811
▁bloody	-9812
▁explos	-9813
▁friday	-9814
▁intent	-9815
▁upload	-9816
▁walter	-9817
▁colored	-9818
▁describ	-9819
▁explore	-9820
▁georgia	-9821
▁hungary	-9822
▁minimum	-9823
▁pulling	-9824
▁radical	-9825
▁seasons	-9826
▁soldier	-9827
▁vehicle	-9828
▁articles	-9829
▁attached	-9830
▁defeated	-9831
▁moderate	-9832
▁speakers	-9833
▁touching	-9834
▁treating	-9835
▁campuchia	-9836
▁graduated	-9837
▁satellite	-9838
▁contemporary	-9839
▁automatically	-9840
-6	-9841
▁●	-9842
7),	-9843
fit	-9844
san	-9845
uay	-9846
▁vớ	-9847
enia	-9848
erly	-9849
lets	-9850
tion	-9851
umab	-9852
▁abu	-9853
▁kab	-9854
▁sac	-9855
▁tig	-9856
agues	-9857
plant	-9858
uting	-9859
which	-9860
while	-9861
▁clor	-9862
▁cute	-9863
▁cuts	-9864
▁grey	-9865
▁mold	-9866
▁ngọc	-9867
▁nhét	-9868
▁purs	-9869
▁vert	-9870
coming	-9871
weight	-9872
▁alger	-9873
▁chườm	-9874
▁colin	-9875
▁cough	-9876
▁lands	-9877
▁naval	-9878
▁releg	-9879
▁spots	-9880
▁expans	-9881
▁geomet	-9882
▁refuge	-9883
▁stones	-9884
▁derived	-9885
▁enforce	-9886
▁jealous	-9887
▁printed	-9888
▁shelter	-9889
▁facility	-9890
▁marketed	-9891
▁somewhat	-9892
▁supplies	-9893
▁guatemala	-9894
▁manhattan	-9895
▁movements	-9896
▁sufficient	-9897
▁pharmaceutical	-9898
ée	-9899
ór	-9900
hai	-9901
iev	-9902
arsh	-9903
hyth	-9904
imet	-9905
pson	-9906
real	-9907
reen	-9908
▁80%	-9909
▁bìa	-9910
▁ern	-9911
▁lub	-9912
▁mum	-9913
▁rót	-9914
▁tệp	-9915
▁đốm	-9916
burgh	-9917
▁bags	-9918
▁chéo	-9919
▁cock	-9920
▁fitz	-9921
▁josh	-9922
▁lact	-9923
▁leaf	-9924
▁poké	-9925
▁symb	-9926
ipedia	-9927
ipping	-9928
mother	-9929
upiter	-9930
▁dutch	-9931
▁giang	-9932
▁invas	-9933
▁thính	-9934
▁valid	-9935
chester	-9936
▁burned	-9937
▁jersey	-9938
▁tablet	-9939
▁winner	-9940
▁aggress	-9941
▁glucose	-9942
▁opposed	-9943
▁senator	-9944
▁weekend	-9945
▁accurate	-9946
▁exciting	-9947
▁indicate	-9948
▁activists	-9949
▁antibiotic	-9950
▁classified	-9951
▁commitment	-9952
▁friendship	-9953
▁occupation	-9954
▁sustainable	-9955
▁psychological	-9956
64	-9957
gue	-9958
lem	-9959
lov	-9960
▁1:	-9961
fect	-9962
imer	-9963
seud	-9964
udes	-9965
▁178	-9966
▁bin	-9967
▁gai	-9968
▁giơ	-9969
▁hán	-9970
▁lãi	-9971
▁phế	-9972
▁vẹn	-9973
caine	-9974
inson	-9975
organ	-9976
▁1975	-9977
▁carn	-9978
▁cups	-9979
▁dumb	-9980
▁hama	-9981
▁sake	-9982
▁wise	-9983
▁yard	-9984
▁yosh	-9985
antine	-9986
phrine	-9987
▁2020.	-9988
▁chuối	-9989
▁escap	-9990
▁firef	-9991
▁hills	-9992
▁humid	-9993
▁kevin	-9994
▁khoán	-9995
▁khuấy	-9996
▁shock	-9997
▁swear	-9998
▁texts	-9999
▁views	-10000
clusion	-10001
▁ignore	-10002
▁follows	-10003
▁maximum	-10004
▁monthly	-10005
▁premier	-10006
▁pretend	-10007
▁acquired	-10008
▁attacked	-10009
▁prisoner	-10010
▁nominated	-10011
▁pollution	-10012
▁regarding	-10013
▁succeeded	-10014
▁performing	-10015
▁supplements	-10016
▁interactions	-10017
▁successfully	-10018
fu	-10019
▁→	-10020
-10	-10021
bat	-10022
khi	-10023
org	-10024
rix	-10025
uno	-10026
▁11.	-10027
▁cep	-10028
▁dyn	-10029
▁eug	-10030
▁hav	-10031
▁hãm	-10032
▁lew	-10033
▁lắc	-10034
▁súp	-10035
ashed	-10036
celer	-10037
prene	-10038
rofen	-10039
▁1986	-10040
▁dent	-10041
▁greg	-10042
▁mete	-10043
▁pepp	-10044
▁plot	-10045
▁scal	-10046
▁ties	-10047
ateral	-10048
▁balls	-10049
▁bones	-10050
▁datab	-10051
▁humor	-10052
▁maker	-10053
▁outdo	-10054
▁parad	-10055
▁talks	-10056
▁trinh	-10057
▁conven	-10058
▁dishes	-10059
▁gained	-10060
▁habits	-10061
▁issued	-10062
▁nathan	-10063
▁regime	-10064
▁ticket	-10065
standing	-10066
▁acceler	-10067
▁artific	-10068
▁browser	-10069
▁default	-10070
▁desktop	-10071
▁fishing	-10072
▁myanmar	-10073
▁signals	-10074
▁attempts	-10075
▁attitude	-10076
▁concrete	-10077
▁customer	-10078
▁einstein	-10079
▁relevant	-10080
ifications	-10081
▁abandoned	-10082
▁chemistry	-10083
▁cognitive	-10084
▁conducted	-10085
▁protecting	-10086
14	-10087
95	-10088
abi	-10089
bot	-10090
boy	-10091
obe	-10092
rot	-10093
ỳnh	-10094
▁dỗ	-10095
▁lầ	-10096
▁nề	-10097
gent	-10098
rist	-10099
▁24,	-10100
▁cừu	-10101
▁heo	-10102
▁mịn	-10103
▁nak	-10104
▁ott	-10105
▁thọ	-10106
▁viv	-10107
▁1945	-10108
▁cord	-10109
▁dirt	-10110
▁găng	-10111
▁palm	-10112
▁rưỡi	-10113
▁soup	-10114
bridge	-10115
▁angle	-10116
▁chose	-10117
▁circu	-10118
▁delay	-10119
▁finds	-10120
▁minds	-10121
▁oppon	-10122
▁panel	-10123
▁10,000	-10124
▁abroad	-10125
▁beings	-10126
▁borrow	-10127
▁bronze	-10128
▁contra	-10129
▁convin	-10130
▁estate	-10131
▁exists	-10132
▁goddam	-10133
▁marked	-10134
▁sevent	-10135
▁theore	-10136
atherine	-10137
▁session	-10138
▁whoever	-10139
▁activist	-10140
▁captured	-10141
▁extraord	-10142
▁pakistan	-10143
▁printing	-10144
▁reaching	-10145
▁saturday	-10146
▁vomiting	-10147
▁candidate	-10148
▁neighbors	-10149
▁discussion	-10150
▁profession	-10151
▁circulation	-10152
▁educational	-10153
▁occasionally	-10154
▁ż	-10155
iki	-10156
rez	-10157
tyn	-10158
▁bệ	-10159
▁dở	-10160
▁eh	-10161
▁sd	-10162
▁đỗ	-10163
acet	-10164
ante	-10165
emet	-10166
hara	-10167
imir	-10168
inea	-10169
ioid	-10170
otte	-10171
▁(15	-10172
▁1/2	-10173
▁bee	-10174
▁bis	-10175
▁maz	-10176
▁mẩu	-10177
▁pim	-10178
▁vag	-10179
▁đòn	-10180
▁beck	-10181
▁boot	-10182
▁cage	-10183
▁fern	-10184
▁seiz	-10185
▁snap	-10186
▁đinh	-10187
luding	-10188
▁1996,	-10189
▁ammon	-10190
▁chess	-10191
▁eddie	-10192
▁invis	-10193
▁loves	-10194
▁loãng	-10195
▁mouse	-10196
▁nurse	-10197
▁wales	-10198
▁warri	-10199
icillin	-10200
unction	-10201
▁flavor	-10202
▁fought	-10203
▁khuynh	-10204
▁marath	-10205
▁morgan	-10206
▁stream	-10207
▁tender	-10208
▁worker	-10209
▁cluster	-10210
▁combine	-10211
▁dischar	-10212
▁earthqu	-10213
▁farmers	-10214
▁jupiter	-10215
▁violent	-10216
▁agencies	-10217
▁peaceful	-10218
▁classical	-10219
▁intellect	-10220
▁wikipedia	-10221
▁entreprene	-10222
▁personally	-10223
▁physically	-10224
▁processing	-10225
▁supplement	-10226
▁antibiotics	-10227
▁improvement	-10228
▁agricultural	-10229
9%	-10230
ال	-10231
bow	-10232
loc	-10233
lox	-10234
ulu	-10235
▁ừm	-10236
atar	-10237
hole	-10238
ocin	-10239
opia	-10240
oren	-10241
sell	-10242
▁aqu	-10243
▁bến	-10244
▁lọt	-10245
▁mul	-10246
▁mỉm	-10247
▁tok	-10248
▁yok	-10249
zczno	-10250
▁1984	-10251
▁blan	-10252
▁bách	-10253
▁chay	-10254
▁cyst	-10255
▁hông	-10256
▁laid	-10257
▁tear	-10258
▁xbox	-10259
▁xông	-10260
▁1991,	-10261
▁acute	-10262
▁admit	-10263
▁algor	-10264
▁arrow	-10265
▁globe	-10266
▁hawai	-10267
▁hired	-10268
▁legit	-10269
▁lungs	-10270
▁pseud	-10271
▁regul	-10272
▁reput	-10273
▁robin	-10274
▁shame	-10275
▁tràng	-10276
▁vital	-10277
▁blocks	-10278
▁courts	-10279
▁profit	-10280
▁rabbit	-10281
▁trauma	-10282
▁acetate	-10283
▁alexand	-10284
▁binding	-10285
▁centers	-10286
▁drawing	-10287
▁victory	-10288
▁allergic	-10289
▁approval	-10290
▁confront	-10291
▁diarrhea	-10292
▁imprison	-10293
▁injuries	-10294
▁valuable	-10295
▁celebrate	-10296
▁choszczno	-10297
▁consumers	-10298
▁involving	-10299
▁telescope	-10300
▁temporary	-10301
▁ambassador	-10302
▁corruption	-10303
▁equivalent	-10304
▁vulnerable	-10305
▁considering	-10306
▁mathematics	-10307
▁participate	-10308
▁communications	-10309
65	-10310
▁|	-10311
alf	-10312
hãy	-10313
làm	-10314
zed	-10315
▁eo	-10316
▁sz	-10317
aken	-10318
enon	-10319
gard	-10320
icop	-10321
that	-10322
uman	-10323
▁dys	-10324
▁gom	-10325
▁ios	-10326
▁nến	-10327
▁sỏi	-10328
▁vụn	-10329
▁yến	-10330
emies	-10331
under	-10332
verty	-10333
▁1920	-10334
▁1940	-10335
▁acne	-10336
▁bour	-10337
▁corp	-10338
▁luis	-10339
▁sams	-10340
contin	-10341
ficial	-10342
▁1989,	-10343
▁1995,	-10344
▁cheap	-10345
▁fears	-10346
▁moral	-10347
▁param	-10348
▁treas	-10349
otherap	-10350
▁basket	-10351
▁nghiền	-10352
▁titles	-10353
▁walker	-10354
▁adverse	-10355
▁checked	-10356
▁forests	-10357
▁fortune	-10358
▁founder	-10359
▁goodbye	-10360
▁poverty	-10361
▁comments	-10362
▁disaster	-10363
▁entering	-10364
▁eliminate	-10365
▁perfectly	-10366
▁separated	-10367
▁federation	-10368
▁surrounded	-10369
2%	-10370
fo	-10371
pd	-10372
ui	-10373
ód	-10374
của	-10375
umi	-10376
▁..	-10377
▁kỵ	-10378
▁lg	-10379
▁św	-10380
aska	-10381
igan	-10382
ique	-10383
itan	-10384
uous	-10385
▁20%	-10386
▁22,	-10387
▁fog	-10388
▁nhị	-10389
▁nsa	-10390
▁rộn	-10391
▁vib	-10392
▁đùi	-10393
▁đấm	-10394
icial	-10395
itzer	-10396
oured	-10397
▁1985	-10398
▁alan	-10399
▁craw	-10400
▁dict	-10401
▁hans	-10402
▁jake	-10403
▁ngắt	-10404
▁panc	-10405
▁trem	-10406
▁wart	-10407
▁milan	-10408
▁woods	-10409
▁analog	-10410
▁anesth	-10411
▁assass	-10412
▁fright	-10413
▁guards	-10414
▁hunter	-10415
▁infant	-10416
▁output	-10417
▁oxford	-10418
▁savage	-10419
▁beneath	-10420
▁compare	-10421
▁courage	-10422
▁finance	-10423
▁funding	-10424
▁persons	-10425
▁restore	-10426
▁settled	-10427
▁shampoo	-10428
inephrine	-10429
▁aircraft	-10430
▁algorith	-10431
▁checking	-10432
▁delivery	-10433
▁strongly	-10434
▁investors	-10435
▁nutrition	-10436
▁practical	-10437
▁employment	-10438
▁incredibly	-10439
▁represents	-10440
▁programming	-10441
pi	-10442
▁~	-10443
mia	-10444
uff	-10445
▁ja	-10446
▁ub	-10447
asha	-10448
conn	-10449
icia	-10450
mony	-10451
opol	-10452
oral	-10453
wart	-10454
▁cúm	-10455
▁dip	-10456
▁hcm	-10457
▁rải	-10458
▁soy	-10459
▁tăm	-10460
igned	-10461
ipher	-10462
itals	-10463
quito	-10464
▁1983	-10465
▁bướm	-10466
▁drum	-10467
▁ease	-10468
▁josé	-10469
▁karl	-10470
▁khao	-10471
▁lone	-10472
▁mamm	-10473
▁mush	-10474
▁phar	-10475
▁robb	-10476
▁skip	-10477
▁soak	-10478
▁sưởi	-10479
▁whoa	-10480
▁alice	-10481
▁cuban	-10482
▁cyber	-10483
▁eaten	-10484
▁error	-10485
▁grain	-10486
▁intim	-10487
▁shake	-10488
▁stake	-10489
▁varia	-10490
▁xưởng	-10491
inction	-10492
▁covers	-10493
▁foster	-10494
▁recall	-10495
▁tracks	-10496
▁transp	-10497
▁colonel	-10498
▁consume	-10499
▁watched	-10500
▁ceremony	-10501
▁confused	-10502
▁improved	-10503
▁interior	-10504
▁literary	-10505
▁spectrum	-10506
▁visiting	-10507
▁criticism	-10508
▁dedicated	-10509
▁excessive	-10510
▁expansion	-10511
▁practices	-10512
▁attractive	-10513
▁collective	-10514
▁requirements	-10515
27	-10516
rh	-10517
▁•	-10518
cca	-10519
ses	-10520
aded	-10521
apse	-10522
ifer	-10523
laus	-10524
▁23,	-10525
▁cia	-10526
▁lid	-10527
▁lột	-10528
▁moz	-10529
▁mys	-10530
▁org	-10531
▁sty	-10532
oline	-10533
olone	-10534
▁duke	-10535
▁huân	-10536
▁lướt	-10537
▁mint	-10538
▁nato	-10539
▁slic	-10540
▁sons	-10541
▁tons	-10542
▁ugly	-10543
▁đính	-10544
phones	-10545
radiol	-10546
terior	-10547
▁explo	-10548
▁incom	-10549
▁jewel	-10550
▁obser	-10551
▁stere	-10552
▁trash	-10553
inating	-10554
itivity	-10555
▁ethnic	-10556
▁fairly	-10557
▁oldest	-10558
▁pomors	-10559
▁affects	-10560
▁tension	-10561
▁graduate	-10562
▁stressed	-10563
▁corporate	-10564
▁improving	-10565
▁szczecine	-10566
▁continuing	-10567
▁meditation	-10568
▁distributed	-10569
cd	-10570
tu	-10571
xa	-10572
ño	-10573
aux	-10574
bid	-10575
lav	-10576
str	-10577
tor	-10578
uba	-10579
▁43	-10580
▁cỗ	-10581
▁og	-10582
▁tq	-10583
anes	-10584
eman	-10585
enda	-10586
iams	-10587
look	-10588
okes	-10589
uate	-10590
▁ave	-10591
▁cún	-10592
▁haz	-10593
▁jaw	-10594
▁kun	-10595
▁lav	-10596
▁lầu	-10597
▁nai	-10598
▁nàn	-10599
▁odd	-10600
▁pab	-10601
▁rud	-10602
▁rét	-10603
▁shy	-10604
▁wra	-10605
▁đặn	-10606
ctive	-10607
▁bish	-10608
▁epid	-10609
▁folk	-10610
▁garb	-10611
▁horn	-10612
▁olsz	-10613
▁taxi	-10614
▁thắn	-10615
▁toys	-10616
▁trọn	-10617
▁vacu	-10618
▁vlad	-10619
writer	-10620
▁1990.	-10621
▁2000.	-10622
▁antip	-10623
▁chinh	-10624
▁clubs	-10625
▁faced	-10626
▁folks	-10627
▁funds	-10628
▁helen	-10629
▁infin	-10630
▁marit	-10631
▁oblig	-10632
▁opens	-10633
▁pilot	-10634
▁resid	-10635
▁seoul	-10636
▁spart	-10637
▁xướng	-10638
▁bachel	-10639
▁backup	-10640
▁desper	-10641
▁nether	-10642
▁preced	-10643
▁respir	-10644
▁rivers	-10645
▁saturn	-10646
▁stanis	-10647
▁summit	-10648
▁titled	-10649
▁assault	-10650
▁bedroom	-10651
▁creates	-10652
▁harvest	-10653
▁landing	-10654
▁notable	-10655
▁refused	-10656
▁secrets	-10657
▁carbohyd	-10658
▁channels	-10659
▁purposes	-10660
▁sunlight	-10661
▁intention	-10662
▁lifestyle	-10663
▁magnitude	-10664
▁purchased	-10665
▁scientist	-10666
▁laboratory	-10667
▁mathematical	-10668
▁restrictions	-10669
aug	-10670
een	-10671
eff	-10672
lle	-10673
rox	-10674
sch	-10675
yan	-10676
▁52	-10677
▁rổ	-10678
amps	-10679
esar	-10680
isha	-10681
phet	-10682
rams	-10683
yers	-10684
▁177	-10685
▁fet	-10686
▁gaz	-10687
▁lor	-10688
▁poz	-10689
▁xám	-10690
ophen	-10691
▁1988	-10692
▁amin	-10693
▁awes	-10694
▁belt	-10695
▁benj	-10696
▁bike	-10697
▁chun	-10698
▁conj	-10699
▁dump	-10700
▁entr	-10701
▁hams	-10702
▁hưng	-10703
▁kiếp	-10704
▁mall	-10705
▁stol	-10706
thường	-10707
ussian	-10708
▁1980,	-10709
▁1994,	-10710
▁alert	-10711
▁argue	-10712
▁brill	-10713
▁canal	-10714
▁devil	-10715
▁facts	-10716
▁gates	-10717
▁kiêng	-10718
▁kyoto	-10719
▁leone	-10720
▁phiêu	-10721
▁phiến	-10722
▁ratio	-10723
▁score	-10724
▁sương	-10725
▁wayne	-10726
utenant	-10727
▁deaths	-10728
▁define	-10729
▁explan	-10730
▁filter	-10731
▁lesson	-10732
▁nguyền	-10733
▁phrase	-10734
▁pursue	-10735
▁string	-10736
▁taylor	-10737
▁treaty	-10738
▁update	-10739
▁barrier	-10740
▁enemies	-10741
▁helicop	-10742
▁matches	-10743
▁payment	-10744
▁swallow	-10745
▁androgen	-10746
▁covering	-10747
▁humanity	-10748
▁memorial	-10749
▁nutrients	-10750
▁organisms	-10751
▁searching	-10752
▁facilities	-10753
▁underground	-10754
86	-10755
▁^	-10756
600	-10757
bas	-10758
idi	-10759
oir	-10760
▁54	-10761
▁đê	-10762
▁ال	-10763
pton	-10764
uine	-10765
▁cud	-10766
▁cụt	-10767
▁lùn	-10768
▁neo	-10769
▁nhổ	-10770
▁phì	-10771
▁soi	-10772
▁tản	-10773
▁đôn	-10774
adder	-10775
▁andy	-10776
▁chằm	-10777
▁curt	-10778
▁mant	-10779
▁quấy	-10780
▁subm	-10781
▁đọng	-10782
icking	-10783
polish	-10784
▁brave	-10785
▁chiết	-10786
▁dozen	-10787
▁enorm	-10788
▁intra	-10789
▁jesse	-10790
▁khoái	-10791
ressive	-10792
uprofen	-10793
▁calend	-10794
▁driven	-10795
▁makeup	-10796
▁reserv	-10797
▁tennis	-10798
▁vienna	-10799
▁clinton	-10800
▁decline	-10801
▁heavily	-10802
▁employee	-10803
▁explorer	-10804
▁johannes	-10805
▁marathon	-10806
▁networks	-10807
▁excellent	-10808
▁furniture	-10809
▁installed	-10810
▁societies	-10811
▁innovation	-10812
▁prevention	-10813
▁statements	-10814
▁supporting	-10815
▁description	-10816
▁conservation	-10817
▁headquarters	-10818
▁conversations	-10819
1%	-10820
hl	-10821
pm	-10822
add	-10823
jan	-10824
oku	-10825
usz	-10826
▁''	-10827
▁bẻ	-10828
▁ig	-10829
▁nd	-10830
most	-10831
▁19.	-10832
▁ace	-10833
▁ate	-10834
▁dồn	-10835
▁nie	-10836
▁pir	-10837
▁sib	-10838
▁séc	-10839
anted	-10840
aving	-10841
ograp	-10842
▁bold	-10843
▁gast	-10844
▁giun	-10845
▁tart	-10846
▁walt	-10847
angers	-10848
ieties	-10849
▁accum	-10850
▁draft	-10851
▁finch	-10852
▁grave	-10853
▁merch	-10854
▁renew	-10855
▁schem	-10856
▁weigh	-10857
▁casual	-10858
▁export	-10859
▁guests	-10860
▁hydrox	-10861
▁riding	-10862
▁spouse	-10863
▁stroke	-10864
ications	-10865
▁cabinet	-10866
▁curious	-10867
▁desired	-10868
▁goddamn	-10869
▁pokémon	-10870
▁printer	-10871
▁quantum	-10872
▁unusual	-10873
▁canadian	-10874
▁sciences	-10875
▁stopping	-10876
▁substant	-10877
▁indicates	-10878
▁physician	-10879
▁qualities	-10880
▁scheduled	-10881
▁afterwards	-10882
▁artificial	-10883
▁boundaries	-10884
▁comparison	-10885
▁lieutenant	-10886
▁controlling	-10887
▁grandfather	-10888
▁additionally	-10889
22	-10890
35	-10891
39	-10892
agi	-10893
asu	-10894
bab	-10895
eon	-10896
ngu	-10897
psy	-10898
sky	-10899
ươm	-10900
▁",	-10901
▁88	-10902
▁bú	-10903
▁lơ	-10904
▁xá	-10905
chin	-10906
neum	-10907
oing	-10908
▁bug	-10909
▁bực	-10910
▁chớ	-10911
▁lev	-10912
▁pdf	-10913
▁são	-10914
▁uef	-10915
▁vòm	-10916
achus	-10917
iazep	-10918
inder	-10919
named	-10920
uther	-10921
▁bend	-10922
▁damp	-10923
▁hire	-10924
▁lied	-10925
▁1992,	-10926
▁admir	-10927
▁bible	-10928
▁huỳnh	-10929
▁khiêm	-10930
▁oscar	-10931
▁perce	-10932
▁tumor	-10933
agement	-10934
▁absorb	-10935
▁alfred	-10936
▁assets	-10937
▁cortic	-10938
▁garlic	-10939
▁mutual	-10940
▁napole	-10941
▁rubber	-10942
aughters	-10943
▁placing	-10944
▁prolong	-10945
▁railway	-10946
▁removal	-10947
▁tunisia	-10948
▁controls	-10949
▁everyday	-10950
▁headache	-10951
▁keyboard	-10952
▁margaret	-10953
▁meetings	-10954
▁outbreak	-10955
▁sandwich	-10956
▁sections	-10957
▁williams	-10958
▁delivered	-10959
▁landscape	-10960
▁psychology	-10961
▁substances	-10962
▁competitive	-10963
▁replacement	-10964
▁intellectual	-10965
▁presentation	-10966
▁consciousness	-10967
▁extraordinary	-10968
ŏn	-10969
adi	-10970
aru	-10971
esa	-10972
she	-10973
tar	-10974
ươn	-10975
▁1)	-10976
▁57	-10977
▁kl	-10978
▁xé	-10979
anga	-10980
apor	-10981
emen	-10982
ippi	-10983
olin	-10984
rage	-10985
vide	-10986
zzle	-10987
▁15.	-10988
▁bộc	-10989
▁doc	-10990
▁ink	-10991
▁iod	-10992
▁nad	-10993
▁ngộ	-10994
grade	-10995
neath	-10996
▁chét	-10997
▁dwar	-10998
▁fate	-10999
▁java	-11000
▁pete	-11001
▁tact	-11002
▁warn	-11003
▁đuối	-11004
terone	-11005
▁acids	-11006
▁advis	-11007
▁harsh	-11008
▁navig	-11009
▁polar	-11010
▁recon	-11011
▁spons	-11012
▁wells	-11013
counter	-11014
ilation	-11015
western	-11016
▁divide	-11017
▁grains	-11018
▁justin	-11019
▁stages	-11020
▁stored	-11021
▁thoáng	-11022
▁waters	-11023
▁yogurt	-11024
▁accused	-11025
▁awesome	-11026
▁calorie	-11027
▁dioxide	-11028
▁emotion	-11029
▁jessica	-11030
▁mississ	-11031
▁silicon	-11032
▁lifetime	-11033
▁maritime	-11034
▁opinions	-11035
▁protests	-11036
▁resource	-11037
▁superior	-11038
▁northwest	-11039
▁kilometers	-11040
▁szczecinek	-11041
▁underlying	-11042
▁underneath	-11043
▁governorate	-11044
nu	-11045
từ	-11046
8),	-11047
xem	-11048
▁72	-11049
▁ao	-11050
hand	-11051
zech	-11052
▁130	-11053
▁30,	-11054
▁eve	-11055
▁hed	-11056
▁hạm	-11057
▁rip	-11058
▁unw	-11059
▁1972	-11060
▁barn	-11061
▁belg	-11062
▁berg	-11063
▁gonz	-11064
▁hits	-11065
▁mend	-11066
▁mile	-11067
▁pine	-11068
▁pond	-11069
▁scra	-11070
▁tens	-11071
ortion	-11072
▁2,000	-11073
▁burns	-11074
▁chrom	-11075
▁crowd	-11076
▁displ	-11077
▁fleet	-11078
▁genes	-11079
▁ligue	-11080
▁nhiếp	-11081
▁outer	-11082
▁pages	-11083
▁simon	-11084
▁sorts	-11085
▁stole	-11086
▁susan	-11087
▁titan	-11088
▁vegas	-11089
▁cacbon	-11090
▁cousin	-11091
▁fallen	-11092
▁guinea	-11093
▁intest	-11094
▁junior	-11095
▁limits	-11096
▁priest	-11097
▁propag	-11098
▁reveal	-11099
▁strain	-11100
▁turkey	-11101
ographer	-11102
▁belongs	-11103
▁citizen	-11104
▁disrupt	-11105
▁dynamic	-11106
▁glasses	-11107
▁gravity	-11108
▁heights	-11109
▁olsztyn	-11110
▁privile	-11111
▁tickets	-11112
▁frequent	-11113
▁pressing	-11114
▁resident	-11115
▁associate	-11116
▁bacterial	-11117
▁economies	-11118
▁ibuprofen	-11119
▁indicated	-11120
▁interface	-11121
▁australian	-11122
▁discomfort	-11123
▁prescribed	-11124
▁electricity	-11125
6%	-11126
ku	-11127
úm	-11128
hot	-11129
iba	-11130
igm	-11131
usa	-11132
zeg	-11133
ềng	-11134
▁(8	-11135
▁cớ	-11136
▁lở	-11137
▁vả	-11138
▁đè	-11139
▁ủi	-11140
etts	-11141
mers	-11142
omed	-11143
rone	-11144
unci	-11145
▁(11	-11146
▁17.	-11147
▁29,	-11148
▁cet	-11149
▁cối	-11150
▁dye	-11151
▁hex	-11152
▁mao	-11153
ilton	-11154
urian	-11155
usive	-11156
▁asks	-11157
▁dick	-11158
▁grid	-11159
▁kitô	-11160
▁orph	-11161
▁pace	-11162
▁rica	-11163
▁rosa	-11164
▁stal	-11165
▁tiễn	-11166
▁twel	-11167
▁allen	-11168
▁aster	-11169
▁begun	-11170
▁conqu	-11171
▁fewer	-11172
▁grows	-11173
▁jason	-11174
▁kings	-11175
▁manif	-11176
▁winds	-11177
onymous	-11178
▁arabic	-11179
▁brains	-11180
▁enable	-11181
▁hawaii	-11182
▁meteor	-11183
▁nghiệt	-11184
▁nights	-11185
▁phones	-11186
▁proven	-11187
▁safely	-11188
▁spider	-11189
▁stolen	-11190
▁tampon	-11191
▁vacuum	-11192
▁electro	-11193
▁garbage	-11194
▁mineral	-11195
▁observe	-11196
▁persist	-11197
▁picking	-11198
▁retired	-11199
▁cambodia	-11200
▁chandler	-11201
▁membrane	-11202
▁peroxide	-11203
▁protocol	-11204
▁resulted	-11205
▁trinidad	-11206
▁variable	-11207
▁addiction	-11208
▁daughters	-11209
▁dependent	-11210
▁elsewhere	-11211
▁intervent	-11212
▁paintings	-11213
▁shoulders	-11214
▁stability	-11215
▁synthetic	-11216
▁colleagues	-11217
▁influenced	-11218
▁subsequent	-11219
▁distinguish	-11220
▁installation	-11221
▁manufacturer	-11222
để	-11223
▁ủ	-11224
6),	-11225
len	-11226
lia	-11227
▁mĩ	-11228
essa	-11229
ivia	-11230
omon	-11231
phen	-11232
star	-11233
▁1.5	-11234
▁bos	-11235
▁gum	-11236
▁gòn	-11237
▁laz	-11238
▁lud	-11239
▁lều	-11240
▁pon	-11241
▁tcn	-11242
▁uốn	-11243
▁đúp	-11244
akers	-11245
chẳng	-11246
ensed	-11247
esium	-11248
usted	-11249
▁exit	-11250
▁hond	-11251
▁jews	-11252
▁khoả	-11253
▁nhấc	-11254
▁slip	-11255
▁tube	-11256
▁urug	-11257
▁util	-11258
▁vera	-11259
aneous	-11260
ashing	-11261
▁archa	-11262
▁blake	-11263
▁deleg	-11264
▁hence	-11265
▁lagos	-11266
▁pneum	-11267
▁reass	-11268
▁sized	-11269
▁snake	-11270
▁strip	-11271
▁tract	-11272
windows	-11273
▁abnorm	-11274
▁albums	-11275
▁allerg	-11276
▁ballet	-11277
▁disney	-11278
▁marvel	-11279
▁merely	-11280
▁overse	-11281
▁router	-11282
▁worksh	-11283
▁absence	-11284
▁insight	-11285
including	-11286
▁airlines	-11287
▁avoiding	-11288
▁benjamin	-11289
▁repeated	-11290
▁unlikely	-11291
▁discussed	-11292
▁extension	-11293
▁molecules	-11294
▁aggressive	-11295
▁enterprise	-11296
▁reputation	-11297
▁composition	-11298
▁experiments	-11299
▁mississippi	-11300
▁partnership	-11301
▁universities	-11302
▁>	-11303
9),	-11304
boo	-11305
cip	-11306
fol	-11307
omi	-11308
phy	-11309
vào	-11310
zhe	-11311
▁(/	-11312
▁49	-11313
▁ay	-11314
▁jr	-11315
▁nọ	-11316
aser	-11317
bble	-11318
bled	-11319
esty	-11320
oebe	-11321
stru	-11322
▁700	-11323
▁cúp	-11324
▁lít	-11325
▁lấn	-11326
▁lội	-11327
▁ome	-11328
▁spo	-11329
▁tus	-11330
▁ups	-11331
▁yan	-11332
ading	-11333
ateur	-11334
heart	-11335
▁buck	-11336
▁chen	-11337
▁cosm	-11338
▁kitt	-11339
▁ngặt	-11340
▁quầy	-11341
▁rách	-11342
▁stap	-11343
▁vari	-11344
▁vươn	-11345
ogenic	-11346
person	-11347
▁chase	-11348
▁clark	-11349
▁essay	-11350
▁ignor	-11351
▁immun	-11352
▁lewis	-11353
▁lingu	-11354
▁pione	-11355
▁sixth	-11356
▁thiếp	-11357
illance	-11358
osystem	-11359
▁appeal	-11360
▁chuyền	-11361
▁drives	-11362
▁fluids	-11363
▁garcia	-11364
▁khoang	-11365
▁loving	-11366
▁marcus	-11367
▁phoebe	-11368
▁portra	-11369
▁potent	-11370
▁queens	-11371
▁retire	-11372
▁barbara	-11373
▁darling	-11374
▁discour	-11375
▁equally	-11376
▁funeral	-11377
▁marshal	-11378
▁masters	-11379
▁operate	-11380
▁paralle	-11381
▁portray	-11382
▁reaches	-11383
▁stephen	-11384
▁stretch	-11385
▁targets	-11386
▁telecom	-11387
▁tissues	-11388
▁topical	-11389
▁wanting	-11390
▁astronom	-11391
▁bachelor	-11392
▁minimize	-11393
▁mosquito	-11394
▁rejected	-11395
▁stargard	-11396
▁suffered	-11397
▁upstairs	-11398
▁catherine	-11399
▁participants	-11400
▁presidential	-11401
▁characteristics	-11402
4),	-11403
des	-11404
ele	-11405
erk	-11406
sex	-11407
▁00	-11408
▁gb	-11409
▁ll	-11410
brew	-11411
case	-11412
cule	-11413
iber	-11414
rons	-11415
▁13.	-11416
▁16.	-11417
▁26,	-11418
▁cis	-11419
▁rệt	-11420
▁syd	-11421
▁vần	-11422
opath	-11423
power	-11424
▁$100	-11425
▁abst	-11426
▁agon	-11427
▁coul	-11428
▁dare	-11429
▁dawn	-11430
▁gray	-11431
▁nhăn	-11432
▁ours	-11433
▁oven	-11434
▁pope	-11435
▁sylv	-11436
▁túng	-11437
khoảng	-11438
rocław	-11439
uments	-11440
▁2003.	-11441
▁adams	-11442
▁alien	-11443
▁bored	-11444
▁candy	-11445
▁crops	-11446
▁luồng	-11447
▁marks	-11448
▁moham	-11449
ructure	-11450
▁angela	-11451
▁digest	-11452
▁proved	-11453
▁render	-11454
▁silent	-11455
▁stayed	-11456
▁surviv	-11457
▁thirty	-11458
▁voices	-11459
▁anxious	-11460
▁dynasty	-11461
▁embrace	-11462
▁examine	-11463
▁housing	-11464
▁infrast	-11465
▁reverse	-11466
▁threats	-11467
▁dominant	-11468
▁magnetic	-11469
▁napoleon	-11470
▁psychiat	-11471
▁sherlock	-11472
▁traveled	-11473
▁framework	-11474
▁invisible	-11475
▁principal	-11476
▁selection	-11477
▁uncertain	-11478
▁conclusion	-11479
▁derivative	-11480
▁percentage	-11481
▁surprising	-11482
▁enforcement	-11483
▁maintaining	-11484
▁introduction	-11485
ẽn	-11486
100	-11487
erb	-11488
icl	-11489
kan	-11490
oda	-11491
tại	-11492
▁85	-11493
▁91	-11494
▁kệ	-11495
▁sê	-11496
ados	-11497
amel	-11498
assy	-11499
away	-11500
cure	-11501
ilia	-11502
last	-11503
mate	-11504
ruit	-11505
tail	-11506
▁(1.	-11507
▁25,	-11508
▁90%	-11509
▁awk	-11510
▁bấy	-11511
▁gap	-11512
▁hận	-11513
▁luỹ	-11514
▁raj	-11515
▁xíu	-11516
build	-11517
erior	-11518
olves	-11519
oszcz	-11520
rants	-11521
rooms	-11522
▁(197	-11523
▁chảo	-11524
▁chổi	-11525
▁dere	-11526
▁ethi	-11527
▁evac	-11528
▁grat	-11529
▁lion	-11530
▁nhai	-11531
▁ohio	-11532
▁rebe	-11533
▁sket	-11534
▁đàng	-11535
athers	-11536
monary	-11537
ometer	-11538
▁1997.	-11539
▁belly	-11540
▁cemet	-11541
▁chước	-11542
▁disag	-11543
▁doses	-11544
▁gross	-11545
▁kidna	-11546
▁knees	-11547
▁roads	-11548
▁silly	-11549
▁trave	-11550
odiazep	-11551
osition	-11552
▁colour	-11553
▁comedy	-11554
▁harold	-11555
▁layers	-11556
▁martha	-11557
▁purple	-11558
▁shares	-11559
▁twelve	-11560
otherapy	-11561
▁alleged	-11562
▁assumed	-11563
▁awkward	-11564
▁bladder	-11565
▁compete	-11566
▁genuine	-11567
▁indigen	-11568
▁injured	-11569
▁lessons	-11570
▁municip	-11571
▁ongoing	-11572
▁samsung	-11573
▁undergo	-11574
▁cemetery	-11575
▁chloride	-11576
▁concepts	-11577
▁guardian	-11578
▁informed	-11579
▁prevents	-11580
▁surgical	-11581
▁theories	-11582
▁awareness	-11583
▁charlotte	-11584
▁ecosystem	-11585
▁interrupt	-11586
▁objective	-11587
▁healthcare	-11588
▁phenomenon	-11589
▁thoroughly	-11590
▁inspiration	-11591
▁surveillance	-11592
▁traditionally	-11593
nó	-11594
zh	-11595
emp	-11596
ikh	-11597
iph	-11598
rag	-11599
reh	-11600
tuy	-11601
▁kw	-11602
acco	-11603
arus	-11604
chat	-11605
list	-11606
olid	-11607
oshi	-11608
quez	-11609
rium	-11610
user	-11611
▁1-2	-11612
▁182	-11613
▁dập	-11614
▁gìn	-11615
▁jet	-11616
▁lon	-11617
▁sug	-11618
▁đầm	-11619
itage	-11620
▁apec	-11621
▁cave	-11622
▁chin	-11623
▁derm	-11624
▁epic	-11625
▁fans	-11626
▁láng	-11627
▁lánh	-11628
▁magi	-11629
▁nhầy	-11630
▁uefa	-11631
americ	-11632
inates	-11633
▁1997,	-11634
▁czech	-11635
▁davis	-11636
▁guilt	-11637
▁hopes	-11638
▁meter	-11639
▁quyên	-11640
▁resem	-11641
▁rhyth	-11642
▁ruled	-11643
▁spark	-11644
▁triệt	-11645
▁veloc	-11646
▁wheat	-11647
tenance	-11648
▁carmen	-11649
▁crimes	-11650
▁ginger	-11651
▁gloves	-11652
▁handed	-11653
▁linear	-11654
▁needle	-11655
▁nichol	-11656
▁organs	-11657
▁struck	-11658
▁sweden	-11659
▁sydney	-11660
▁viewed	-11661
▁carrier	-11662
▁cleaner	-11663
▁compens	-11664
▁inhabit	-11665
▁pageant	-11666
▁patrick	-11667
▁privacy	-11668
▁prosper	-11669
▁revenue	-11670
▁symptom	-11671
▁tobacco	-11672
▁uruguay	-11673
▁wrocław	-11674
▁database	-11675
▁enormous	-11676
▁formerly	-11677
▁managing	-11678
▁rational	-11679
▁sergeant	-11680
▁silesian	-11681
▁suitable	-11682
▁throwing	-11683
▁vehicles	-11684
▁forgotten	-11685
▁intensity	-11686
▁personnel	-11687
▁residents	-11688
▁varieties	-11689
▁indigenous	-11690
▁generations	-11691
▁capabilities	-11692
-8	-11693
3%	-11694
37	-11695
44	-11696
gm	-11697
ốp	-11698
ads	-11699
aws	-11700
opa	-11701
zzy	-11702
ửng	-11703
▁vỉ	-11704
achi	-11705
asia	-11706
atus	-11707
ayer	-11708
azep	-11709
stan	-11710
▁(16	-11711
▁amp	-11712
▁cào	-11713
▁gem	-11714
▁ibm	-11715
▁loa	-11716
▁nạt	-11717
▁shō	-11718
▁tảo	-11719
riers	-11720
ritis	-11721
ronto	-11722
▁clip	-11723
▁edit	-11724
▁guid	-11725
▁gừng	-11726
▁jenn	-11727
▁khâu	-11728
▁liễu	-11729
▁lách	-11730
▁oxid	-11731
▁radi	-11732
▁recy	-11733
▁slav	-11734
▁tanz	-11735
▁tast	-11736
▁urge	-11737
▁wick	-11738
▁zach	-11739
ospher	-11740
▁beans	-11741
▁boxes	-11742
▁bruce	-11743
▁bruss	-11744
▁chuck	-11745
▁karen	-11746
▁larry	-11747
▁nhược	-11748
▁physi	-11749
▁thiêu	-11750
dgoszcz	-11751
▁barrel	-11752
▁cooked	-11753
▁criter	-11754
▁delete	-11755
▁deploy	-11756
▁labour	-11757
▁lovely	-11758
▁ruling	-11759
▁serves	-11760
▁steady	-11761
▁amongst	-11762
▁chilean	-11763
▁circuit	-11764
▁cocaine	-11765
▁dismiss	-11766
▁firefox	-11767
▁hamster	-11768
▁kennedy	-11769
▁kidding	-11770
▁mystery	-11771
▁reduces	-11772
▁silence	-11773
▁silesia	-11774
▁toronto	-11775
gesterone	-11776
▁annivers	-11777
▁basement	-11778
▁convince	-11779
▁diameter	-11780
▁engineer	-11781
▁prompted	-11782
▁tracking	-11783
▁triangle	-11784
▁wireless	-11785
▁abilities	-11786
▁calculate	-11787
▁compounds	-11788
▁expecting	-11789
▁molecular	-11790
▁pulmonary	-11791
▁variables	-11792
▁compliment	-11793
▁industries	-11794
▁irritation	-11795
▁procedures	-11796
▁productive	-11797
▁acknowledge	-11798
▁respiratory	-11799
▁expectations	-11800
▁representing	-11801
▁characterized	-11802
eh	-11803
▁ō	-11804
1).	-11805
gra	-11806
iri	-11807
rút	-11808
who	-11809
▁68	-11810
▁95	-11811
▁đố	-11812
/201	-11813
bian	-11814
elly	-11815
infl	-11816
inum	-11817
name	-11818
pers	-11819
phia	-11820
rics	-11821
uing	-11822
utan	-11823
▁14.	-11824
▁bah	-11825
▁bầy	-11826
▁cer	-11827
▁htt	-11828
▁pel	-11829
▁sid	-11830
▁sue	-11831
eland	-11832
found	-11833
iring	-11834
orous	-11835
video	-11836
▁(196	-11837
▁1973	-11838
▁hank	-11839
▁jong	-11840
▁knee	-11841
▁maps	-11842
▁ngào	-11843
▁ngẩn	-11844
▁odor	-11845
▁pale	-11846
▁peel	-11847
▁phàn	-11848
▁reid	-11849
▁1945,	-11850
▁chiêu	-11851
▁chron	-11852
▁edges	-11853
▁genre	-11854
▁horri	-11855
▁newly	-11856
▁patri	-11857
▁phoen	-11858
▁ultra	-11859
essions	-11860
▁darwin	-11861
▁domain	-11862
▁extent	-11863
▁facult	-11864
▁genius	-11865
▁havana	-11866
▁hitler	-11867
▁insult	-11868
▁ritual	-11869
▁scored	-11870
▁smells	-11871
▁topics	-11872
▁versus	-11873
▁anticip	-11874
▁asshole	-11875
▁enhance	-11876
▁grounds	-11877
▁lasting	-11878
▁raymond	-11879
▁ridicul	-11880
▁screens	-11881
▁sulfate	-11882
▁artistic	-11883
▁clicking	-11884
▁expanded	-11885
▁isolated	-11886
▁nicholas	-11887
▁philadel	-11888
▁regarded	-11889
▁salvador	-11890
▁supports	-11891
▁surfaces	-11892
▁apologize	-11893
▁converted	-11894
▁discharge	-11895
▁popularity	-11896
▁preventing	-11897
▁punishment	-11898
▁destruction	-11899
▁threatening	-11900
49	-11901
▁ơ	-11902
400	-11903
sec	-11904
uer	-11905
uru	-11906
via	-11907
zes	-11908
▁mw	-11909
▁sọ	-11910
cery	-11911
công	-11912
elan	-11913
itsu	-11914
leum	-11915
phát	-11916
when	-11917
▁bry	-11918
▁cub	-11919
▁hes	-11920
▁ngớ	-11921
▁nản	-11922
▁xao	-11923
mates	-11924
nhưng	-11925
▁1987	-11926
▁adhd	-11927
▁fifa	-11928
▁gren	-11929
▁inev	-11930
▁mack	-11931
▁pole	-11932
▁trêu	-11933
▁trắc	-11934
▁vist	-11935
azines	-11936
enovel	-11937
icylic	-11938
▁1993,	-11939
▁bloom	-11940
▁bonds	-11941
▁chips	-11942
▁entit	-11943
▁flesh	-11944
▁hobby	-11945
▁marty	-11946
▁morph	-11947
▁panic	-11948
▁perry	-11949
▁pozna	-11950
▁stack	-11951
▁straw	-11952
aturing	-11953
loxacin	-11954
sengers	-11955
uration	-11956
▁cleans	-11957
▁clorua	-11958
▁dosage	-11959
▁exceed	-11960
▁extend	-11961
▁floren	-11962
▁manual	-11963
▁myster	-11964
▁nhường	-11965
▁proton	-11966
▁settle	-11967
▁shield	-11968
▁thiêng	-11969
▁thread	-11970
▁alright	-11971
▁demands	-11972
▁drawsko	-11973
▁dressed	-11974
▁evolved	-11975
▁filling	-11976
▁pointed	-11977
achusetts	-11978
▁choosing	-11979
▁designer	-11980
▁detailed	-11981
▁heritage	-11982
▁historic	-11983
▁invented	-11984
▁occupied	-11985
▁peripher	-11986
▁villages	-11987
▁visitors	-11988
▁adventure	-11989
▁bydgoszcz	-11990
▁contained	-11991
▁preferred	-11992
▁spreading	-11993
▁consistent	-11994
▁transplant	-11995
▁anniversary	-11996
▁championnat	-11997
▁maintenance	-11998
▁netherlands	-11999
▁politicians	-12000
▁demonstrated	-12001
▁difficulties	-12002
▁philadelphia	-12003
▁alternatively	-12004
ea	-12005
oa	-12006
õm	-12007
asi	-12008
aza	-12009
irm	-12010
▁nơ	-12011
▁rò	-12012
▁tơ	-12013
brid	-12014
eong	-12015
esia	-12016
hire	-12017
▁1,5	-12018
▁181	-12019
▁gập	-12020
▁tub	-12021
▁tvn	-12022
▁unp	-12023
▁vịt	-12024
▁xôi	-12025
▁xăm	-12026
▁yah	-12027
▁đần	-12028
▁đục	-12029
etics	-12030
icacy	-12031
umber	-12032
▁bing	-12033
▁cafe	-12034
▁chén	-12035
▁fats	-12036
▁gand	-12037
▁gear	-12038
▁inqu	-12039
▁kern	-12040
▁lega	-12041
▁odds	-12042
▁unhe	-12043
▁vacc	-12044
imeter	-12045
▁codes	-12046
▁damas	-12047
▁facil	-12048
▁gifts	-12049
▁irish	-12050
▁jerry	-12051
▁lance	-12052
▁linda	-12053
▁lists	-12054
▁pablo	-12055
▁tears	-12056
▁threw	-12057
▁thurs	-12058
▁yield	-12059
▁10.000	-12060
▁arrive	-12061
▁clinic	-12062
▁fisher	-12063
▁garage	-12064
▁monday	-12065
▁serial	-12066
▁sheets	-12067
▁sooner	-12068
▁spaces	-12069
▁stalin	-12070
▁weekly	-12071
▁enjoyed	-12072
▁lawyers	-12073
▁nowhere	-12074
▁orchest	-12075
▁passage	-12076
▁reconst	-12077
▁resolve	-12078
▁rolling	-12079
▁warming	-12080
▁accompan	-12081
▁crossing	-12082
▁engaging	-12083
▁equality	-12084
▁evaluate	-12085
▁nigerian	-12086
▁operated	-12087
▁parallel	-12088
▁wherever	-12089
▁abdominal	-12090
▁estradiol	-12091
▁meanwhile	-12092
▁messenger	-12093
▁philosoph	-12094
▁resistant	-12095
▁responses	-12096
▁categories	-12097
▁continuous	-12098
▁mechanical	-12099
▁disappeared	-12100
▁complications	-12101
▁infrastructure	-12102
agu	-12103
ige	-12104
igo	-12105
▁2:	-12106
▁lự	-12107
▁rỡ	-12108
▁uv	-12109
cuộc	-12110
ndez	-12111
ńska	-12112
▁(0.	-12113
▁70%	-12114
▁ere	-12115
▁fee	-12116
▁gậy	-12117
▁oak	-12118
▁oph	-12119
▁pam	-12120
▁tag	-12121
ansas	-12122
arrat	-12123
trước	-12124
world	-12125
▁aged	-12126
▁anat	-12127
▁beau	-12128
▁doug	-12129
▁dâng	-12130
▁foss	-12131
▁melt	-12132
▁ngất	-12133
▁pist	-12134
▁poem	-12135
▁porn	-12136
▁suýt	-12137
▁thối	-12138
▁wand	-12139
▁annie	-12140
▁auton	-12141
▁bruno	-12142
▁fluor	-12143
▁frost	-12144
▁juris	-12145
▁milit	-12146
▁scalp	-12147
▁towns	-12148
present	-12149
▁brands	-12150
▁caesar	-12151
▁copper	-12152
▁ernest	-12153
▁favour	-12154
▁hosted	-12155
▁judges	-12156
▁lesser	-12157
▁litter	-12158
▁locate	-12159
▁ranked	-12160
▁senate	-12161
▁sulfur	-12162
▁throne	-12163
▁cameron	-12164
▁convert	-12165
▁crucial	-12166
▁enabled	-12167
▁existed	-12168
▁greatly	-12169
▁janeiro	-12170
▁neurons	-12171
▁outcome	-12172
▁proport	-12173
▁singles	-12174
▁alliance	-12175
▁certific	-12176
▁contents	-12177
▁honestly	-12178
▁molecule	-12179
▁organize	-12180
▁passport	-12181
▁releases	-12182
▁attracted	-12183
▁engineers	-12184
▁petroleum	-12185
▁salicylic	-12186
▁regulation	-12187
▁importantly	-12188
▁populations	-12189
▁preparation	-12190
▁administered	-12191
▁johannesburg	-12192
▁massachusetts	-12193
0)	-12194
:;	-12195
▁`	-12196
▁μ	-12197
ete	-12198
fly	-12199
isy	-12200
law	-12201
mac	-12202
nom	-12203
▁aj	-12204
▁gw	-12205
▁kề	-12206
▁vã	-12207
▁xế	-12208
▁xỏ	-12209
ello	-12210
itol	-12211
kind	-12212
onal	-12213
▁(1,	-12214
▁hao	-12215
▁kel	-12216
▁mck	-12217
▁mud	-12218
▁pip	-12219
▁ric	-12220
▁seg	-12221
▁tes	-12222
acent	-12223
aline	-12224
amins	-12225
erals	-12226
inkle	-12227
press	-12228
▁bapt	-12229
▁carr	-12230
▁ctrl	-12231
▁gary	-12232
▁gust	-12233
▁hipp	-12234
▁hood	-12235
▁lens	-12236
▁maid	-12237
▁quad	-12238
▁sean	-12239
▁sexy	-12240
▁shoe	-12241
inking	-12242
wealth	-12243
▁1950,	-12244
▁bless	-12245
▁chiêm	-12246
▁dairy	-12247
▁dried	-12248
▁fatty	-12249
▁hoped	-12250
▁khiếm	-12251
▁lydia	-12252
▁nasal	-12253
▁scand	-12254
▁shots	-12255
▁waist	-12256
▁wrist	-12257
▁argued	-12258
▁clever	-12259
▁harvey	-12260
▁paraly	-12261
▁regret	-12262
▁scroll	-12263
▁toxins	-12264
▁wooden	-12265
▁algeria	-12266
▁amateur	-12267
▁athlete	-12268
▁beating	-12269
▁biology	-12270
▁cameras	-12271
▁coulson	-12272
▁designs	-12273
▁embassy	-12274
▁holiday	-12275
▁kissing	-12276
▁malaria	-12277
▁pharmac	-12278
▁pushing	-12279
▁samples	-12280
▁shorter	-12281
▁smiling	-12282
▁baseball	-12283
▁blocking	-12284
▁complain	-12285
▁counting	-12286
▁episodes	-12287
▁register	-12288
▁survived	-12289
▁triggers	-12290
▁brilliant	-12291
▁collected	-12292
▁conflicts	-12293
▁diversity	-12294
▁exclusive	-12295
▁libraries	-12296
▁magnesium	-12297
▁suspended	-12298
▁telenovel	-12299
▁instrument	-12300
▁remarkable	-12301
▁translated	-12302
▁electronics	-12303
▁intelligent	-12304
▁legislation	-12305
▁publication	-12306
▁regulations	-12307
▁establishment	-12308
-9	-12309
ht	-12310
iu	-12311
rí	-12312
abe	-12313
arb	-12314
elo	-12315
kar	-12316
kov	-12317
lez	-12318
oly	-12319
opr	-12320
vet	-12321
▁($	-12322
▁1⁄	-12323
▁98	-12324
▁xx	-12325
agua	-12326
isol	-12327
mont	-12328
ules	-12329
wear	-12330
▁27,	-12331
▁abd	-12332
▁bùn	-12333
▁bịt	-12334
▁dum	-12335
▁hut	-12336
▁hèn	-12337
▁lyn	-12338
▁nhã	-12339
▁ráp	-12340
▁tut	-12341
▁vặn	-12342
▁woo	-12343
▁xấp	-12344
comes	-12345
erick	-12346
liest	-12347
▁1976	-12348
▁brid	-12349
▁cann	-12350
▁herb	-12351
▁lanh	-12352
▁mats	-12353
▁nhồi	-12354
▁nina	-12355
▁offs	-12356
▁rape	-12357
▁ryan	-12358
▁vamp	-12359
▁viền	-12360
▁wang	-12361
▁antar	-12362
▁cliff	-12363
▁digit	-12364
▁giềng	-12365
▁laura	-12366
▁memor	-12367
▁nghẽn	-12368
▁nguội	-12369
▁omega	-12370
▁parag	-12371
▁penet	-12372
▁rival	-12373
▁snack	-12374
▁sperm	-12375
▁tries	-12376
▁config	-12377
▁jacket	-12378
▁opioid	-12379
▁panama	-12380
▁recipe	-12381
▁resort	-12382
▁speaks	-12383
▁toothp	-12384
▁wounds	-12385
▁bearing	-12386
▁crossed	-12387
▁crystal	-12388
▁destiny	-12389
▁menstru	-12390
▁missile	-12391
▁notably	-12392
▁painted	-12393
▁polymer	-12394
▁tablets	-12395
▁theoret	-12396
▁utility	-12397
▁announce	-12398
▁atlantic	-12399
▁employed	-12400
▁florence	-12401
▁laughing	-12402
▁overcome	-12403
▁pandemic	-12404
▁pleasant	-12405
▁velocity	-12406
▁displayed	-12407
▁generated	-12408
▁gentleman	-12409
▁measuring	-12410
▁northeast	-12411
▁relegated	-12412
▁replacing	-12413
▁mechanisms	-12414
▁passengers	-12415
▁protective	-12416
▁regardless	-12417
▁strategies	-12418
▁benzodiazep	-12419
▁corticoster	-12420
67	-12421
kg	-12422
ũa	-12423
▁́	-12424
amo	-12425
cor	-12426
iao	-12427
isc	-12428
ppo	-12429
sts	-12430
var	-12431
xít	-12432
▁-,	-12433
▁99	-12434
▁wu	-12435
ader	-12436
appy	-12437
bact	-12438
cour	-12439
mons	-12440
neys	-12441
▁60%	-12442
▁aur	-12443
▁dak	-12444
▁dệt	-12445
▁gig	-12446
▁gởi	-12447
▁ich	-12448
▁lụt	-12449
▁miy	-12450
▁rực	-12451
▁tôm	-12452
agers	-12453
ellar	-12454
music	-12455
otype	-12456
▁axis	-12457
▁chày	-12458
▁glue	-12459
▁pept	-12460
▁rảnh	-12461
▁sail	-12462
▁trói	-12463
▁volt	-12464
▁worn	-12465
▁xước	-12466
employ	-12467
orship	-12468
rising	-12469
▁1994.	-12470
▁2002.	-12471
▁alzhe	-12472
▁amino	-12473
▁apoll	-12474
▁awake	-12475
▁badly	-12476
▁chánh	-12477
▁dense	-12478
▁duyên	-12479
▁gamma	-12480
▁herbs	-12481
▁hydra	-12482
▁mommy	-12483
▁rings	-12484
▁spare	-12485
▁stiff	-12486
▁taxes	-12487
▁wyatt	-12488
imental	-12489
inflamm	-12490
issions	-12491
▁bhutan	-12492
▁compat	-12493
▁curren	-12494
▁maurit	-12495
▁prosec	-12496
▁rating	-12497
▁retain	-12498
▁robots	-12499
▁sovere	-12500
▁tempor	-12501
▁closing	-12502
▁coastal	-12503
▁insects	-12504
▁inspect	-12505
▁joining	-12506
▁partial	-12507
▁returns	-12508
▁sheriff	-12509
▁thunder	-12510
▁viruses	-12511
▁admitted	-12512
▁brussels	-12513
▁calendar	-12514
▁collapse	-12515
▁feminist	-12516
▁infinite	-12517
▁potatoes	-12518
▁acknowled	-12519
▁alzheimer	-12520
▁cambridge	-12521
▁detention	-12522
▁magazines	-12523
▁precisely	-12524
▁volunteer	-12525
▁antagonist	-12526
▁candidates	-12527
▁consisting	-12528
▁structural	-12529
▁advertising	-12530
▁christopher	-12531
▁exploration	-12532
▁grandmother	-12533
▁specialized	-12534
▁territorial	-12535
▁civilization	-12536
▁commonwealth	-12537
04	-12538
ụa	-12539
aco	-12540
aha	-12541
ako	-12542
cie	-12543
ike	-12544
lis	-12545
mal	-12546
nda	-12547
ogy	-12548
sau	-12549
thr	-12550
ucl	-12551
ẵng	-12552
▁2/	-12553
▁41	-12554
▁71	-12555
▁ic	-12556
▁mb	-12557
▁sờ	-12558
▁vs	-12559
cũng	-12560
loyd	-12561
pany	-12562
stic	-12563
uese	-12564
▁30%	-12565
▁31,	-12566
▁bầm	-12567
▁dời	-12568
▁dừa	-12569
▁ecl	-12570
▁fuk	-12571
▁kol	-12572
▁mồm	-12573
▁nón	-12574
▁spy	-12575
▁thà	-12576
▁đạm	-12577
▁độn	-12578
about	-12579
acles	-12580
arest	-12581
brzeg	-12582
cloth	-12583
idesp	-12584
ifies	-12585
ommod	-12586
▁ariz	-12587
▁beef	-12588
▁bras	-12589
▁chèn	-12590
▁chớp	-12591
▁cược	-12592
▁duỗi	-12593
▁glob	-12594
▁lent	-12595
▁nazi	-12596
▁pant	-12597
▁rats	-12598
▁ruth	-12599
▁silk	-12600
▁stef	-12601
▁styl	-12602
▁tied	-12603
▁vest	-12604
▁wiel	-12605
cience	-12606
elling	-12607
etooth	-12608
screen	-12609
▁cairo	-12610
▁carac	-12611
▁creep	-12612
▁crist	-12613
▁exped	-12614
▁melan	-12615
▁ought	-12616
▁recip	-12617
▁teddy	-12618
▁tends	-12619
▁unexp	-12620
▁viral	-12621
▁votes	-12622
▁choáng	-12623
▁fascin	-12624
▁holmes	-12625
▁howard	-12626
▁hunger	-12627
▁hypert	-12628
▁lonely	-12629
▁racing	-12630
▁valent	-12631
▁vector	-12632
aneously	-12633
▁chapter	-12634
▁gallery	-12635
▁harmful	-12636
▁mindful	-12637
▁penalty	-12638
▁surgeon	-12639
▁turkish	-12640
idespread	-12641
▁abnormal	-12642
▁compress	-12643
▁dramatic	-12644
▁executed	-12645
▁founding	-12646
▁squadron	-12647
▁stations	-12648
▁targeted	-12649
▁vacation	-12650
▁vitamins	-12651
▁bluetooth	-12652
▁competing	-12653
▁histamine	-12654
▁attempting	-12655
▁diplomatic	-12656
▁downstairs	-12657
▁efficiency	-12658
▁registered	-12659
▁threatened	-12660
▁unexpected	-12661
▁enterprises	-12662
▁instruments	-12663
▁orientation	-12664
▁transportation	-12665
//	-12666
29	-12667
eb	-12668
nm	-12669
vì	-12670
ás	-12671
▁ˈ	-12672
://	-12673
ask	-12674
cio	-12675
cit	-12676
eur	-12677
iji	-12678
zew	-12679
▁""	-12680
▁58	-12681
▁66	-12682
▁ls	-12683
▁lề	-12684
▁sq	-12685
akia	-12686
helm	-12687
iate	-12688
just	-12689
lers	-12690
obic	-12691
untu	-12692
worm	-12693
zewo	-12694
▁boh	-12695
▁dẻo	-12696
▁exh	-12697
▁gin	-12698
▁hou	-12699
▁hái	-12700
▁kép	-12701
▁ltd	-12702
▁lạy	-12703
▁mam	-12704
▁mik	-12705
▁oun	-12706
▁pup	-12707
▁rìa	-12708
▁tul	-12709
▁xua	-12710
althy	-12711
amate	-12712
apeut	-12713
etine	-12714
▁1965	-12715
▁bỗng	-12716
▁hobb	-12717
▁khéo	-12718
▁khép	-12719
▁nhọn	-12720
▁niêm	-12721
▁orle	-12722
▁peas	-12723
▁phết	-12724
▁phớt	-12725
▁tips	-12726
▁trội	-12727
enberg	-12728
icular	-12729
ounced	-12730
uation	-12731
urskie	-12732
▁1980.	-12733
▁adequ	-12734
▁alarm	-12735
▁andre	-12736
▁appet	-12737
▁bangl	-12738
▁beast	-12739
▁bombs	-12740
▁sizes	-12741
▁slave	-12742
▁tense	-12743
▁yaman	-12744
faction	-12745
▁archae	-12746
▁behalf	-12747
▁kitten	-12748
▁norway	-12749
▁patrol	-12750
▁poznań	-12751
▁prohib	-12752
▁shapes	-12753
▁austria	-12754
▁critics	-12755
▁divorce	-12756
▁genesis	-12757
▁islamic	-12758
▁martial	-12759
▁miracle	-12760
▁raising	-12761
▁sadness	-12762
▁scholar	-12763
▁suscept	-12764
▁symbols	-12765
▁torture	-12766
▁trapped	-12767
▁warmian	-12768
▁accommod	-12769
▁creature	-12770
▁damascus	-12771
▁flexible	-12772
▁lawrence	-12773
▁platinum	-12774
▁publicly	-12775
▁stealing	-12776
▁ultimate	-12777
▁websites	-12778
▁accompany	-12779
▁discontin	-12780
▁divisione	-12781
▁identical	-12782
▁instagram	-12783
▁provinces	-12784
▁designated	-12785
▁widespread	-12786
▁destination	-12787
▁explanation	-12788
▁inhabitants	-12789
▁territories	-12790
▁conventional	-12791
▁effectiveness	-12792
31	-12793
▁é	-12794
700	-12795
blo	-12796
eze	-12797
hus	-12798
oka	-12799
pie	-12800
urg	-12801
đặc	-12802
arez	-12803
bury	-12804
fire	-12805
oric	-12806
rell	-12807
unct	-12808
▁110	-12809
▁125	-12810
▁165	-12811
▁2,5	-12812
▁bưu	-12813
▁duc	-12814
▁kìm	-12815
▁lén	-12816
▁mim	-12817
▁pyr	-12818
▁qui	-12819
▁vẩn	-12820
▁zip	-12821
▁đắm	-12822
aired	-12823
ardon	-12824
cloud	-12825
elson	-12826
ighth	-12827
keley	-12828
ospor	-12829
ounce	-12830
there	-12831
▁1978	-12832
▁amid	-12833
▁cruz	-12834
▁hoạn	-12835
▁liby	-12836
▁lisa	-12837
▁pets	-12838
▁pose	-12839
▁slam	-12840
▁thri	-12841
▁tivi	-12842
▁tues	-12843
▁świd	-12844
▁bears	-12845
▁bever	-12846
▁buông	-12847
▁cocon	-12848
▁forum	-12849
▁mario	-12850
▁namco	-12851
▁paras	-12852
▁pride	-12853
▁saudi	-12854
▁seats	-12855
▁stark	-12856
▁swing	-12857
▁wrest	-12858
section	-12859
▁aleppo	-12860
▁angola	-12861
▁bulgar	-12862
▁carpet	-12863
▁castro	-12864
▁drying	-12865
▁hurric	-12866
▁incent	-12867
▁palmer	-12868
▁courses	-12869
▁defence	-12870
▁empower	-12871
▁faculty	-12872
▁gryfice	-12873
▁heating	-12874
▁maarrat	-12875
▁prostit	-12876
▁reforms	-12877
▁romance	-12878
▁rubbing	-12879
▁thermal	-12880
▁trading	-12881
▁wounded	-12882
▁absorbed	-12883
▁balanced	-12884
▁believes	-12885
▁berkeley	-12886
▁disputes	-12887
▁ethiopia	-12888
▁horizont	-12889
▁occasion	-12890
▁precious	-12891
▁tomatoes	-12892
▁vladimir	-12893
▁atmospher	-12894
▁decreased	-12895
▁delicious	-12896
▁dominican	-12897
▁extensive	-12898
▁headaches	-12899
▁neighbour	-12900
▁preparing	-12901
▁qualified	-12902
▁relatives	-12903
▁releasing	-12904
▁residence	-12905
▁vegetable	-12906
▁bangladesh	-12907
▁basketball	-12908
▁collecting	-12909
▁helicopter	-12910
▁reasonable	-12911
▁reflection	-12912
▁legislative	-12913
▁translation	-12914
▁considerable	-12915
▁progesterone	-12916
▁classification	-12917
21	-12918
7).	-12919
chỉ	-12920
hey	-12921
iga	-12922
ipt	-12923
ser	-12924
ugg	-12925
zys	-12926
▁dí	-12927
▁eg	-12928
▁nệ	-12929
▁tở	-12930
ders	-12931
ngày	-12932
ouri	-12933
poon	-12934
vian	-12935
your	-12936
ńsko	-12937
▁côi	-12938
▁cúi	-12939
▁cớm	-12940
▁ecc	-12941
▁esp	-12942
▁fus	-12943
▁isa	-12944
▁kaf	-12945
▁kay	-12946
▁pis	-12947
▁rac	-12948
▁reb	-12949
▁seo	-12950
▁sto	-12951
▁tod	-12952
▁trá	-12953
▁vất	-12954
▁vắt	-12955
domin	-12956
eroon	-12957
osity	-12958
otrop	-12959
poons	-12960
▁auto	-12961
▁bury	-12962
▁chóc	-12963
▁deck	-12964
▁emma	-12965
▁guer	-12966
▁ivan	-12967
▁pile	-12968
▁shed	-12969
▁tenn	-12970
▁wins	-12971
▁yang	-12972
▁zoom	-12973
▁điếu	-12974
entric	-12975
itudes	-12976
teries	-12977
▁1960,	-12978
▁1987,	-12979
▁awful	-12980
▁brick	-12981
▁diego	-12982
▁dough	-12983
▁flies	-12984
▁khiết	-12985
▁mines	-12986
▁posts	-12987
▁recre	-12988
▁retin	-12989
▁roger	-12990
▁safer	-12991
▁steak	-12992
▁stops	-12993
▁theod	-12994
▁tweet	-12995
regular	-12996
▁esteem	-12997
▁fibers	-12998
▁guidel	-12999
▁landed	-13000
▁mature	-13001
▁mixing	-13002
▁obtain	-13003
▁patric	-13004
▁prints	-13005
▁pushed	-13006
▁runner	-13007
▁simult	-13008
▁anthony	-13009
▁envelop	-13010
▁jewelry	-13011
▁peoples	-13012
▁posture	-13013
▁restart	-13014
▁revenge	-13015
▁roberts	-13016
▁vincent	-13017
▁vistula	-13018
itzerland	-13019
▁assigned	-13020
▁buddhist	-13021
▁darkness	-13022
▁efficacy	-13023
▁geometry	-13024
▁invasion	-13025
▁opponent	-13026
▁quarters	-13027
▁reliable	-13028
▁stanford	-13029
▁suppress	-13030
▁terminal	-13031
▁convinced	-13032
▁correctly	-13033
▁creatures	-13034
▁encounter	-13035
▁execution	-13036
▁pneumonia	-13037
▁strangers	-13038
▁terrorist	-13039
▁unhealthy	-13040
▁acceptance	-13041
▁directions	-13042
▁discipline	-13043
▁impression	-13044
▁perception	-13045
▁relaxation	-13046
▁ridiculous	-13047
▁strengthen	-13048
▁furthermore	-13049
▁imagination	-13050
-7	-13051
.:	-13052
46	-13053
-15	-13054
alo	-13055
bly	-13056
din	-13057
fir	-13058
iii	-13059
kim	-13060
lit	-13061
mel	-13062
omo	-13063
sty	-13064
uct	-13065
uki	-13066
ups	-13067
▁1%	-13068
▁tứ	-13069
▁′′	-13070
aman	-13071
chem	-13072
colm	-13073
feld	-13074
from	-13075
ichi	-13076
iner	-13077
▁40%	-13078
▁cẩu	-13079
▁hmm	-13080
▁kle	-13081
▁nhí	-13082
▁nệm	-13083
▁rna	-13084
▁đúc	-13085
atson	-13086
ckets	-13087
olith	-13088
▁1939	-13089
▁bits	-13090
▁brut	-13091
▁fame	-13092
▁hăng	-13093
▁ipod	-13094
▁lann	-13095
▁ngửa	-13096
▁nord	-13097
▁nore	-13098
▁numb	-13099
▁prod	-13100
▁reun	-13101
▁seas	-13102
▁sene	-13103
▁ultr	-13104
▁visa	-13105
nhagen	-13106
▁1995.	-13107
▁arist	-13108
▁brist	-13109
▁comic	-13110
▁corps	-13111
▁cuống	-13112
▁dwarf	-13113
▁ethan	-13114
▁hepat	-13115
▁khánh	-13116
▁khùng	-13117
▁laund	-13118
▁masks	-13119
▁moroc	-13120
▁nicot	-13121
▁phông	-13122
▁pyram	-13123
▁solub	-13124
▁spong	-13125
▁sudan	-13126
▁sướng	-13127
▁thumb	-13128
▁allies	-13129
▁banana	-13130
▁chains	-13131
▁charts	-13132
▁colony	-13133
▁commod	-13134
▁duties	-13135
▁joshua	-13136
▁lately	-13137
▁lowest	-13138
▁newton	-13139
▁revers	-13140
▁rocket	-13141
▁snacks	-13142
▁sought	-13143
▁sphere	-13144
▁styles	-13145
▁vessel	-13146
▁warned	-13147
▁atlanta	-13148
▁bastard	-13149
▁charity	-13150
▁diverse	-13151
▁drivers	-13152
▁flights	-13153
▁grocery	-13154
▁lightly	-13155
▁malcolm	-13156
▁offices	-13157
▁orleans	-13158
▁progest	-13159
▁rebecca	-13160
▁solving	-13161
▁cameroon	-13162
▁civilian	-13163
▁cortisol	-13164
▁duration	-13165
▁elevated	-13166
▁entitled	-13167
▁guidance	-13168
▁herschel	-13169
▁interrog	-13170
▁priority	-13171
▁pronunci	-13172
▁seizures	-13173
▁tanzania	-13174
▁thursday	-13175
▁unemploy	-13176
▁fantastic	-13177
▁guarantee	-13178
▁hospitals	-13179
▁inventory	-13180
▁promoting	-13181
▁reinforce	-13182
▁reporting	-13183
▁signature	-13184
▁sophistic	-13185
▁synthesis	-13186
▁ingredient	-13187
▁meaningful	-13188
▁metabolism	-13189
▁suggesting	-13190
▁documentary	-13191
▁switzerland	-13192
▁contributions	-13193
▁corresponding	-13194
36	-13195
mg	-13196
mu	-13197
̣c	-13198
6).	-13199
ben	-13200
ido	-13201
ień	-13202
nhe	-13203
opt	-13204
spe	-13205
why	-13206
xon	-13207
yes	-13208
▁3)	-13209
▁dê	-13210
▁tp	-13211
aved	-13212
cere	-13213
clos	-13214
olia	-13215
otes	-13216
rane	-13217
vens	-13218
▁000	-13219
▁28,	-13220
▁báu	-13221
▁jav	-13222
▁jor	-13223
▁kom	-13224
▁lận	-13225
▁mek	-13226
▁mài	-13227
▁mẹo	-13228
▁nac	-13229
▁quế	-13230
▁riv	-13231
▁vod	-13232
▁www	-13233
after	-13234
andan	-13235
apers	-13236
ashes	-13237
idone	-13238
izers	-13239
▁1974	-13240
▁abra	-13241
▁asth	-13242
▁bent	-13243
▁beth	-13244
▁chợt	-13245
▁dess	-13246
▁giòn	-13247
▁kent	-13248
▁mash	-13249
▁mice	-13250
▁nano	-13251
▁nhức	-13252
▁tụng	-13253
▁unre	-13254
inence	-13255
ishing	-13256
render	-13257
▁1940,	-13258
▁boats	-13259
▁derek	-13260
▁gmail	-13261
▁nepal	-13262
▁wider	-13263
▁yahoo	-13264
ictions	-13265
oration	-13266
▁acetyl	-13267
▁actors	-13268
▁affair	-13269
▁bishop	-13270
▁cherry	-13271
▁cinema	-13272
▁dermat	-13273
▁encoun	-13274
▁gaming	-13275
▁greece	-13276
▁hacker	-13277
▁helium	-13278
▁hybrid	-13279
▁icloud	-13280
▁interf	-13281
▁maggie	-13282
▁patent	-13283
▁pencil	-13284
▁sacred	-13285
▁scheme	-13286
▁spiral	-13287
▁borders	-13288
▁closest	-13289
▁coconut	-13290
▁emerged	-13291
▁inhibit	-13292
▁mexican	-13293
▁millenn	-13294
▁ottoman	-13295
▁relaxed	-13296
▁reviews	-13297
▁texture	-13298
▁touched	-13299
▁trusted	-13300
▁vaginal	-13301
▁actively	-13302
▁affinity	-13303
▁brooklyn	-13304
▁earliest	-13305
▁humidity	-13306
▁outcomes	-13307
▁sessions	-13308
▁celebrity	-13309
▁colombian	-13310
▁companion	-13311
▁counselor	-13312
▁defensive	-13313
▁diagnosed	-13314
▁dominated	-13315
▁medicines	-13316
▁overnight	-13317
▁processed	-13318
▁realistic	-13319
▁sentenced	-13320
▁socialist	-13321
▁stimulate	-13322
▁beneficial	-13323
▁compromise	-13324
▁earthquake	-13325
▁initiative	-13326
▁portuguese	-13327
▁practicing	-13328
▁struggling	-13329
▁accompanied	-13330
▁concentrate	-13331
▁influential	-13332
▁historically	-13333
▁productivity	-13334
▁collaboration	-13335
bey	-13336
cái	-13337
gae	-13338
gel	-13339
ovo	-13340
rod	-13341
zig	-13342
▁"-	-13343
▁51	-13344
agic	-13345
anti	-13346
card	-13347
gnar	-13348
issa	-13349
jack	-13350
laim	-13351
omes	-13352
riet	-13353
urai	-13354
vest	-13355
▁ank	-13356
▁cẩm	-13357
▁dex	-13358
▁hug	-13359
▁ian	-13360
▁kẽm	-13361
▁mcg	-13362
▁mép	-13363
▁mút	-13364
▁neb	-13365
▁nes	-13366
▁nhủ	-13367
▁quí	-13368
▁sri	-13369
▁tởm	-13370
▁uss	-13371
▁zen	-13372
aphor	-13373
brand	-13374
ogard	-13375
otted	-13376
ropol	-13377
trung	-13378
▁1941	-13379
▁1954	-13380
▁1961	-13381
▁1963	-13382
▁clan	-13383
▁drew	-13384
▁exha	-13385
▁finn	-13386
▁flew	-13387
▁lawn	-13388
▁lima	-13389
▁lucy	-13390
▁nico	-13391
▁niệu	-13392
▁rely	-13393
▁ruin	-13394
▁stab	-13395
▁subt	-13396
▁sảnh	-13397
bility	-13398
orters	-13399
usalem	-13400
▁1979,	-13401
▁1998.	-13402
▁alleg	-13403
▁atoms	-13404
▁baked	-13405
▁breed	-13406
▁cheer	-13407
▁chuộc	-13408
▁elite	-13409
▁ester	-13410
▁fatal	-13411
▁julia	-13412
▁kills	-13413
▁natal	-13414
▁pulse	-13415
▁shang	-13416
▁spoon	-13417
▁stare	-13418
▁stems	-13419
▁strat	-13420
▁tatto	-13421
▁trunk	-13422
▁tyler	-13423
▁walks	-13424
ipation	-13425
▁boring	-13426
▁campus	-13427
▁decent	-13428
▁grammy	-13429
▁hebrew	-13430
▁loaded	-13431
▁mining	-13432
▁perpet	-13433
▁ragnar	-13434
▁refrig	-13435
▁refuse	-13436
▁steven	-13437
▁stitch	-13438
▁tricks	-13439
▁watson	-13440
iningrad	-13441
▁adapted	-13442
▁arizona	-13443
▁collaps	-13444
▁elastic	-13445
▁escaped	-13446
▁renamed	-13447
▁reserve	-13448
▁tuesday	-13449
aminophen	-13450
▁contacts	-13451
▁egyptian	-13452
▁hamilton	-13453
▁jennifer	-13454
▁jonathan	-13455
▁minerals	-13456
▁overseas	-13457
▁particle	-13458
▁yamanaka	-13459
▁animation	-13460
▁concluded	-13461
▁convicted	-13462
▁jerusalem	-13463
▁occurring	-13464
▁rejection	-13465
▁stressful	-13466
▁therapeut	-13467
▁virtually	-13468
▁accessible	-13469
▁engagement	-13470
▁exhibition	-13471
▁newspapers	-13472
▁investments	-13473
▁involvement	-13474
▁kaliningrad	-13475
▁overwhelming	-13476
▁professionals	-13477
42	-13478
7%	-13479
bn	-13480
▁·	-13481
upt	-13482
▁86	-13483
▁cc	-13484
▁dą	-13485
inda	-13486
inst	-13487
open	-13488
opes	-13489
pent	-13490
rans	-13491
rary	-13492
velt	-13493
▁asc	-13494
▁bik	-13495
▁bye	-13496
▁bén	-13497
▁cav	-13498
▁cul	-13499
▁mửa	-13500
▁quỵ	-13501
▁rớt	-13502
▁spa	-13503
▁xói	-13504
▁yếm	-13505
▁zak	-13506
berto	-13507
edies	-13508
state	-13509
▁1966	-13510
▁alge	-13511
▁bees	-13512
▁beng	-13513
▁boil	-13514
▁brig	-13515
▁bust	-13516
▁chui	-13517
▁crap	-13518
▁curs	-13519
▁dign	-13520
▁kang	-13521
▁kend	-13522
▁lamb	-13523
▁lets	-13524
▁luci	-13525
▁ngần	-13526
▁nons	-13527
▁pont	-13528
▁scat	-13529
▁toes	-13530
▁trèo	-13531
necess	-13532
▁ambul	-13533
▁basil	-13534
▁cares	-13535
▁coinc	-13536
▁flows	-13537
▁freak	-13538
▁henri	-13539
▁katie	-13540
▁kelly	-13541
▁khuất	-13542
▁overd	-13543
▁paulo	-13544
▁rocky	-13545
▁skull	-13546
▁slept	-13547
▁swift	-13548
▁usage	-13549
▁amanda	-13550
▁ashley	-13551
▁choàng	-13552
▁dennis	-13553
▁fusion	-13554
▁hardly	-13555
▁jurisd	-13556
▁passes	-13557
▁solved	-13558
▁stabil	-13559
▁sticks	-13560
▁turtle	-13561
▁voiced	-13562
▁wisdom	-13563
▁zambia	-13564
▁arrange	-13565
▁fifteen	-13566
▁germans	-13567
▁hydroxy	-13568
▁impacts	-13569
▁induced	-13570
▁liberty	-13571
▁lighter	-13572
▁russell	-13573
▁seattle	-13574
▁starred	-13575
▁tourism	-13576
▁veterin	-13577
▁judgment	-13578
▁masurian	-13579
▁monsters	-13580
▁vascular	-13581
▁vertical	-13582
▁wildlife	-13583
▁desperate	-13584
▁developer	-13585
▁irregular	-13586
▁ownership	-13587
▁prescribe	-13588
▁sacrifice	-13589
▁assignment	-13590
▁connecting	-13591
▁criticized	-13592
▁invitation	-13593
▁liberation	-13594
▁peripheral	-13595
▁sweetheart	-13596
inflammatory	-13597
▁challenging	-13598
▁continental	-13599
▁restaurants	-13600
▁susceptible	-13601
▁technically	-13602
▁concentrated	-13603
▁measurements	-13604
▁possibilities	-13605
▁pronunciation	-13606
";	-13607
05	-13608
84	-13609
93	-13610
ei	-13611
rs	-13612
fin	-13613
iah	-13614
mặc	-13615
pop	-13616
wer	-13617
ych	-13618
▁3:	-13619
▁vy	-13620
▁êm	-13621
atia	-13622
cocc	-13623
keys	-13624
▁(12	-13625
▁175	-13626
▁aar	-13627
▁abe	-13628
▁bip	-13629
▁câm	-13630
▁dùm	-13631
▁gót	-13632
▁hân	-13633
▁ish	-13634
▁sab	-13635
▁sco	-13636
▁tpp	-13637
▁une	-13638
▁xộn	-13639
avery	-13640
ensen	-13641
illes	-13642
owska	-13643
▁1900	-13644
▁1947	-13645
▁aloe	-13646
▁bore	-13647
▁cran	-13648
▁dock	-13649
▁duck	-13650
▁gryf	-13651
▁heir	-13652
▁koło	-13653
▁lamp	-13654
▁liar	-13655
▁ngấm	-13656
▁nháy	-13657
▁nhôm	-13658
▁phôi	-13659
▁rust	-13660
▁suck	-13661
▁tale	-13662
▁thea	-13663
▁thạo	-13664
▁tran	-13665
▁trỗi	-13666
▁1975,	-13667
▁1999.	-13668
▁amend	-13669
▁betty	-13670
▁bills	-13671
▁climb	-13672
▁cuddy	-13673
▁dougl	-13674
▁drift	-13675
▁drown	-13676
▁femin	-13677
▁hoành	-13678
▁links	-13679
▁magiê	-13680
▁males	-13681
▁nitro	-13682
▁noble	-13683
▁persu	-13684
▁phill	-13685
▁prest	-13686
▁recur	-13687
▁scorp	-13688
▁serum	-13689
▁shade	-13690
▁sheep	-13691
▁uncom	-13692
▁wings	-13693
atories	-13694
▁alumin	-13695
▁arctic	-13696
▁clouds	-13697
▁curios	-13698
▁degrad	-13699
▁examin	-13700
▁gloria	-13701
▁heroin	-13702
▁orphan	-13703
▁pestic	-13704
▁peters	-13705
▁pierre	-13706
▁praise	-13707
▁recycl	-13708
▁traged	-13709
▁bandage	-13710
▁compreh	-13711
▁denmark	-13712
▁georges	-13713
▁instant	-13714
▁labeled	-13715
▁laundry	-13716
▁longest	-13717
▁passive	-13718
▁savings	-13719
▁seventh	-13720
▁slavery	-13721
▁wilhelm	-13722
▁dialects	-13723
▁fraction	-13724
▁freezing	-13725
▁generate	-13726
▁intimate	-13727
▁metaphor	-13728
▁michigan	-13729
▁nitrogen	-13730
▁profound	-13731
▁sportiva	-13732
▁transact	-13733
▁worrying	-13734
▁attempted	-13735
▁classroom	-13736
▁exception	-13737
▁featuring	-13738
▁followers	-13739
▁frederick	-13740
▁hopefully	-13741
▁sentences	-13742
▁successor	-13743
▁behavioral	-13744
▁developers	-13745
▁hydrochlor	-13746
▁maintained	-13747
▁variations	-13748
▁venezuelan	-13749
▁achievement	-13750
▁consequence	-13751
▁examination	-13752
▁transformed	-13753
▁accomplished	-13754
▁environments	-13755
▁transmission	-13756
▁constitutional	-13757
47	-13758
nc	-13759
vy	-13760
yp	-13761
ój	-13762
ỡn	-13763
aoh	-13764
czy	-13765
hon	-13766
jas	-13767
mod	-13768
nut	-13769
năm	-13770
opy	-13771
www	-13772
▁nk	-13773
▁ou	-13774
▁té	-13775
acon	-13776
ción	-13777
cycl	-13778
imen	-13779
mare	-13780
meal	-13781
olet	-13782
opsy	-13783
osen	-13784
take	-13785
thal	-13786
trên	-13787
ushi	-13788
▁101	-13789
▁115	-13790
▁160	-13791
▁abb	-13792
▁cab	-13793
▁exf	-13794
▁gda	-13795
▁hud	-13796
▁jak	-13797
▁kap	-13798
▁kas	-13799
▁kry	-13800
▁lex	-13801
▁lil	-13802
▁lậu	-13803
▁lụa	-13804
▁rao	-13805
▁sak	-13806
▁tuỵ	-13807
▁vnd	-13808
▁zim	-13809
child	-13810
elect	-13811
ophil	-13812
otein	-13813
produ	-13814
▁1953	-13815
▁1977	-13816
▁1979	-13817
▁buzz	-13818
▁chồi	-13819
▁coin	-13820
▁debr	-13821
▁flip	-13822
▁gieo	-13823
▁leak	-13824
▁ngây	-13825
▁ngạo	-13826
▁nhàm	-13827
▁papa	-13828
▁pork	-13829
▁quin	-13830
▁roma	-13831
▁spar	-13832
▁1.000	-13833
▁1981,	-13834
▁1996.	-13835
▁aimed	-13836
▁arbit	-13837
▁arena	-13838
▁bands	-13839
▁blast	-13840
▁cater	-13841
▁dimin	-13842
▁inaug	-13843
▁intel	-13844
▁phụng	-13845
▁radar	-13846
▁reloc	-13847
▁stays	-13848
▁alaska	-13849
▁cephal	-13850
▁chướng	-13851
▁cooler	-13852
▁declar	-13853
▁errors	-13854
▁extrem	-13855
▁harass	-13856
▁harris	-13857
▁linkin	-13858
▁louise	-13859
▁manuel	-13860
▁microw	-13861
▁nerves	-13862
▁shirts	-13863
▁surely	-13864
▁thesis	-13865
▁triple	-13866
▁warner	-13867
▁100,000	-13868
▁agonist	-13869
▁arrival	-13870
▁authent	-13871
▁compact	-13872
▁custody	-13873
▁debuted	-13874
▁delight	-13875
▁endorph	-13876
▁enzymes	-13877
▁farming	-13878
▁hurting	-13879
▁itching	-13880
▁peppers	-13881
▁warrior	-13882
▁assuming	-13883
▁chambers	-13884
▁currency	-13885
▁delicate	-13886
▁discount	-13887
▁displays	-13888
▁entrance	-13889
▁franklin	-13890
▁indirect	-13891
▁licensed	-13892
▁midnight	-13893
▁mistress	-13894
▁relation	-13895
▁scenario	-13896
▁anonymous	-13897
▁describes	-13898
▁estimates	-13899
▁expanding	-13900
▁finishing	-13901
▁hurricane	-13902
▁lightning	-13903
▁louisiana	-13904
▁occasions	-13905
▁recipient	-13906
▁sensation	-13907
▁strengths	-13908
▁surrender	-13909
▁variation	-13910
▁completing	-13911
▁guidelines	-13912
▁legitimate	-13913
▁consistency	-13914
▁dehydration	-13915
▁identifying	-13916
▁observatory	-13917
▁progressive	-13918
▁hypertension	-13919
▁manufactured	-13920
▁performances	-13921
▁simultaneously	-13922
62	-13923
85	-13924
▁⌘	-13925
.",	-13926
alk	-13927
chủ	-13928
eto	-13929
eve	-13930
gom	-13931
gun	-13932
iso	-13933
jud	-13934
nhà	-13935
pus	-13936
thế	-13937
▁dỡ	-13938
▁lh	-13939
▁pf	-13940
▁yi	-13941
-200	-13942
anus	-13943
bbie	-13944
clic	-13945
esco	-13946
mart	-13947
onna	-13948
term	-13949
theo	-13950
they	-13951
umed	-13952
wall	-13953
xual	-13954
▁170	-13955
▁18.	-13956
▁agu	-13957
▁bum	-13958
▁dsi	-13959
▁gán	-13960
▁jab	-13961
▁seb	-13962
▁sie	-13963
▁slo	-13964
▁tết	-13965
▁wes	-13966
▁wip	-13967
▁xát	-13968
acher	-13969
anges	-13970
brevi	-13971
copes	-13972
farin	-13973
inois	-13974
woman	-13975
worth	-13976
▁1964	-13977
▁bios	-13978
▁boom	-13979
▁emer	-13980
▁fled	-13981
▁hips	-13982
▁hiro	-13983
▁isot	-13984
▁kamp	-13985
▁nept	-13986
▁owns	-13987
▁sect	-13988
▁tack	-13989
▁tomb	-13990
▁ware	-13991
▁zinc	-13992
ective	-13993
odynam	-13994
▁1941,	-13995
▁airpl	-13996
▁bites	-13997
▁bobby	-13998
▁eleph	-13999
▁escal	-14000
▁exile	-14001
▁inequ	-14002
▁jacob	-14003
▁nghẹt	-14004
▁nicar	-14005
▁onset	-14006
▁penny	-14007
▁pixel	-14008
▁prone	-14009
▁putin	-14010
▁sting	-14011
▁twist	-14012
▁villa	-14013
inburgh	-14014
russian	-14015
ulating	-14016
▁apollo	-14017
▁bandai	-14018
▁crimin	-14019
▁dickon	-14020
▁hearts	-14021
▁intend	-14022
▁juliet	-14023
▁matrix	-14024
▁naples	-14025
▁philip	-14026
▁posted	-14027
▁rhythm	-14028
▁sylvia	-14029
▁treats	-14030
▁urgent	-14031
etically	-14032
▁algebra	-14033
▁ammonia	-14034
▁authors	-14035
▁avoided	-14036
▁belarus	-14037
▁cardiac	-14038
▁carries	-14039
▁dispute	-14040
▁disturb	-14041
▁easiest	-14042
▁fighter	-14043
▁gabriel	-14044
▁jumping	-14045
▁leather	-14046
▁orbital	-14047
▁parking	-14048
▁pharaoh	-14049
▁somalia	-14050
▁winners	-14051
▁świdwin	-14052
▁damaging	-14053
▁educated	-14054
▁gathered	-14055
▁handsome	-14056
▁hormones	-14057
▁planting	-14058
▁prostate	-14059
▁provider	-14060
▁stranger	-14061
ologically	-14062
▁affecting	-14063
▁affection	-14064
▁explosion	-14065
▁predicted	-14066
▁telephone	-14067
▁convenient	-14068
▁encouraged	-14069
▁mainstream	-14070
▁telenovela	-14071
▁traditions	-14072
▁withdrawal	-14073
▁certificate	-14074
▁overwhelmed	-14075
▁constipation	-14076
▁organisation	-14077
▁revolutionary	-14078
▁concentrations	-14079
▁transformation	-14080
▁representatives	-14081
ér	-14082
awi	-14083
jar	-14084
sub	-14085
ulk	-14086
wię	-14087
▁62	-14088
▁mớ	-14089
aney	-14090
anto	-14091
asis	-14092
avis	-14093
etti	-14094
igma	-14095
itin	-14096
mine	-14097
plus	-14098
tech	-14099
▁(2.	-14100
▁api	-14101
▁bou	-14102
▁bẩm	-14103
▁cbs	-14104
▁cửu	-14105
▁gắt	-14106
▁ngự	-14107
▁sic	-14108
▁vẹt	-14109
ifier	-14110
onium	-14111
orted	-14112
owing	-14113
▁1946	-14114
▁1967	-14115
▁1968	-14116
▁avoc	-14117
▁bert	-14118
▁chùm	-14119
▁cáck	-14120
▁dizz	-14121
▁fion	-14122
▁golf	-14123
▁hiếu	-14124
▁jill	-14125
▁joan	-14126
▁judg	-14127
▁junk	-14128
▁lily	-14129
▁lượn	-14130
▁miên	-14131
▁noah	-14132
▁quạt	-14133
▁quặc	-14134
▁reck	-14135
▁rect	-14136
▁tent	-14137
▁toss	-14138
▁tray	-14139
▁trừu	-14140
▁twin	-14141
▁zomb	-14142
coccus	-14143
ematic	-14144
estion	-14145
inator	-14146
ofield	-14147
tering	-14148
▁1982.	-14149
▁acted	-14150
▁boris	-14151
▁brace	-14152
▁chaos	-14153
▁crust	-14154
▁deals	-14155
▁drill	-14156
▁equil	-14157
▁fairy	-14158
▁fifty	-14159
▁flush	-14160
▁liêng	-14161
▁pengu	-14162
▁reset	-14163
▁revol	-14164
▁scent	-14165
▁shore	-14166
▁width	-14167
▁xoang	-14168
berries	-14169
nington	-14170
ructive	-14171
▁dental	-14172
▁forbid	-14173
▁franch	-14174
▁hammer	-14175
▁honour	-14176
▁monkey	-14177
▁novels	-14178
▁poorly	-14179
▁potter	-14180
▁reagan	-14181
▁rodrig	-14182
▁sandra	-14183
▁senses	-14184
▁symmet	-14185
▁timing	-14186
▁ubuntu	-14187
▁corrupt	-14188
▁footage	-14189
▁loyalty	-14190
▁phoenix	-14191
▁redness	-14192
▁warrant	-14193
▁wrapped	-14194
imination	-14195
▁criteria	-14196
▁estimate	-14197
▁forehead	-14198
▁instinct	-14199
▁patricia	-14200
▁proposal	-14201
▁warfarin	-14202
▁activated	-14203
▁attending	-14204
▁dizziness	-14205
▁gratitude	-14206
▁isolation	-14207
▁narrative	-14208
▁creativity	-14209
▁eliminated	-14210
▁monitoring	-14211
▁motivation	-14212
▁remembered	-14213
▁substitute	-14214
▁atmospheric	-14215
▁conditioner	-14216
▁constructed	-14217
▁distinction	-14218
▁observation	-14219
▁preferences	-14220
▁corporations	-14221
▁experimental	-14222
▁humanitarian	-14223
▁intervention	-14224
▁controversial	-14225
▁entrepreneurs	-14226
)"	-14227
8%	-14228
dz	-14229
5),	-14230
gio	-14231
igs	-14232
imp	-14233
izz	-14234
kee	-14235
obi	-14236
wno	-14237
đây	-14238
ếng	-14239
▁5%	-14240
▁ek	-14241
▁jó	-14242
▁đẽ	-14243
anni	-14244
beat	-14245
eing	-14246
guez	-14247
inic	-14248
mill	-14249
obia	-14250
rect	-14251
uras	-14252
yang	-14253
▁$1,	-14254
▁140	-14255
▁159	-14256
▁900	-14257
▁ark	-14258
▁ced	-14259
▁cef	-14260
▁cua	-14261
▁cyn	-14262
▁kus	-14263
▁lac	-14264
▁pac	-14265
▁reh	-14266
archy	-14267
cedes	-14268
eling	-14269
▁bubb	-14270
▁bump	-14271
▁chĩa	-14272
▁cưỡi	-14273
▁deem	-14274
▁euph	-14275
▁gaba	-14276
▁glut	-14277
▁hoff	-14278
▁homs	-14279
▁html	-14280
▁ngậm	-14281
▁outs	-14282
▁summ	-14283
▁wore	-14284
arette	-14285
holder	-14286
iances	-14287
ríguez	-14288
▁1985,	-14289
▁1993.	-14290
▁biały	-14291
▁bucks	-14292
▁caval	-14293
▁eject	-14294
▁fatig	-14295
▁giếng	-14296
▁greet	-14297
▁lithu	-14298
▁meets	-14299
▁moses	-14300
▁muham	-14301
▁namib	-14302
▁pores	-14303
▁reign	-14304
▁salon	-14305
▁scary	-14306
▁shops	-14307
▁silic	-14308
▁socks	-14309
▁stamp	-14310
▁vinci	-14311
cerning	-14312
through	-14313
▁bamboo	-14314
▁barcel	-14315
▁beside	-14316
▁bubble	-14317
▁debris	-14318
▁kinase	-14319
▁lasted	-14320
▁nurses	-14321
▁partly	-14322
▁scenes	-14323
▁traits	-14324
▁unesco	-14325
▁abraham	-14326
▁antonio	-14327
▁banking	-14328
▁breasts	-14329
▁ceiling	-14330
▁corners	-14331
▁distant	-14332
▁failing	-14333
▁fastest	-14334
▁fellows	-14335
▁gryfino	-14336
▁houston	-14337
▁kidneys	-14338
▁miranda	-14339
▁pyramid	-14340
▁stating	-14341
▁swedish	-14342
▁thereby	-14343
▁unclear	-14344
▁useless	-14345
▁welfare	-14346
necessary	-14347
phetamine	-14348
▁belonged	-14349
▁composer	-14350
▁constitu	-14351
▁detected	-14352
▁explains	-14353
▁gabriela	-14354
▁gambling	-14355
▁homework	-14356
▁hydroxyl	-14357
▁pointing	-14358
▁relaxing	-14359
▁tendency	-14360
▁thompson	-14361
▁treasure	-14362
ographical	-14363
▁achieving	-14364
▁kołobrzeg	-14365
▁planetary	-14366
▁platforms	-14367
▁rodríguez	-14368
▁sculpture	-14369
▁assessment	-14370
▁calculated	-14371
▁elementary	-14372
▁exercising	-14373
▁frustrated	-14374
▁functional	-14375
▁horizontal	-14376
▁integrated	-14377
▁localities	-14378
▁scratching	-14379
▁songwriter	-14380
▁supportive	-14381
▁encouraging	-14382
▁implemented	-14383
▁accidentally	-14384
▁veterinarian	-14385
▁participation	-14386
4%	-14387
87	-14388
89	-14389
eu	-14390
/19	-14391
800	-14392
emi	-14393
eni	-14394
igg	-14395
jin	-14396
pez	-14397
pot	-14398
ượm	-14399
▁$2	-14400
▁ấp	-14401
alid	-14402
anic	-14403
atra	-14404
cort	-14405
fold	-14406
hình	-14407
into	-14408
isle	-14409
oned	-14410
orth	-14411
othy	-14412
step	-14413
thia	-14414
urst	-14415
wait	-14416
▁25%	-14417
▁caf	-14418
▁cúc	-14419
▁căm	-14420
▁fry	-14421
▁lựu	-14422
▁oat	-14423
▁thỉ	-14424
▁trỏ	-14425
▁vãn	-14426
▁vảy	-14427
anged	-14428
ingly	-14429
opard	-14430
tháng	-14431
track	-14432
▁chàm	-14433
▁dang	-14434
▁diaz	-14435
▁diêm	-14436
▁echo	-14437
▁font	-14438
▁giàn	-14439
▁hổng	-14440
▁jury	-14441
▁khuỷ	-14442
▁maya	-14443
▁nana	-14444
▁ngai	-14445
▁nẵng	-14446
▁pall	-14447
▁pere	-14448
▁pyth	-14449
▁stub	-14450
▁vein	-14451
▁verb	-14452
▁vách	-14453
▁xưng	-14454
aspoon	-14455
boards	-14456
bourne	-14457
iewicz	-14458
mented	-14459
rolled	-14460
▁1964,	-14461
▁adopt	-14462
▁aging	-14463
▁burst	-14464
▁cruel	-14465
▁diver	-14466
▁downt	-14467
▁drove	-14468
▁felix	-14469
▁fiona	-14470
▁keith	-14471
▁khmer	-14472
▁lucas	-14473
▁lunar	-14474
▁poems	-14475
▁prima	-14476
▁ranks	-14477
▁slice	-14478
▁somed	-14479
▁steep	-14480
▁unity	-14481
▁vault	-14482
▁voted	-14483
▁warmi	-14484
▁yeast	-14485
▁zones	-14486
▁agenda	-14487
▁antide	-14488
▁asthma	-14489
▁athens	-14490
▁atomic	-14491
▁bitter	-14492
▁burden	-14493
▁cataly	-14494
▁devast	-14495
▁exclud	-14496
▁freely	-14497
▁gastro	-14498
▁heroes	-14499
▁khuếch	-14500
▁laurel	-14501
▁losses	-14502
▁poster	-14503
▁slower	-14504
▁trains	-14505
function	-14506
▁anthrop	-14507
▁buttons	-14508
▁dentist	-14509
▁dignity	-14510
▁equilib	-14511
▁iceland	-14512
▁mothers	-14513
▁puppies	-14514
▁samurai	-14515
▁senegal	-14516
▁squeeze	-14517
▁synthes	-14518
▁wealthy	-14519
▁appetite	-14520
▁coverage	-14521
▁findings	-14522
▁graphics	-14523
▁illusion	-14524
▁lighting	-14525
▁mainland	-14526
▁metropol	-14527
▁missouri	-14528
▁portrait	-14529
▁preserve	-14530
▁sexually	-14531
▁siblings	-14532
▁teaspoon	-14533
▁youngest	-14534
▁ambulance	-14535
▁constrain	-14536
▁depressed	-14537
▁edinburgh	-14538
▁exploring	-14539
▁hepatitis	-14540
▁orchestra	-14541
▁poisoning	-14542
▁southwest	-14543
▁accounting	-14544
▁fertilizer	-14545
▁antidepress	-14546
▁coordinates	-14547
▁demonstrate	-14548
▁elimination	-14549
▁photography	-14550
▁dramatically	-14551
▁acetaminophen	-14552
▁characteristic	-14553
/1	-14554
81	-14555
hm	-14556
łc	-14557
▁?	-14558
cas	-14559
cki	-14560
dem	-14561
fia	-14562
may	-14563
maz	-14564
nez	-14565
pen	-14566
run	-14567
ska	-14568
tin	-14569
uro	-14570
vor	-14571
zów	-14572
▁67	-14573
▁78	-14574
▁79	-14575
▁cò	-14576
▁hp	-14577
▁wł	-14578
agle	-14579
agne	-14580
cano	-14581
dist	-14582
enne	-14583
etto	-14584
gram	-14585
inas	-14586
link	-14587
ogly	-14588
very	-14589
will	-14590
▁2.5	-14591
▁bod	-14592
▁cùa	-14593
▁hoi	-14594
▁kev	-14595
▁liz	-14596
▁lẩn	-14597
▁mặn	-14598
▁ore	-14599
▁xít	-14600
▁đít	-14601
aware	-14602
axies	-14603
ogram	-14604
oping	-14605
ropri	-14606
stick	-14607
▁(194	-14608
▁barg	-14609
▁coca	-14610
▁crop	-14611
▁diễu	-14612
▁dąbr	-14613
▁fits	-14614
▁gươm	-14615
▁hugo	-14616
▁lara	-14617
▁lgbt	-14618
▁mast	-14619
▁miện	-14620
▁neph	-14621
▁nhịn	-14622
▁pear	-14623
▁pipe	-14624
▁pitt	-14625
▁pled	-14626
▁rays	-14627
▁siết	-14628
▁socc	-14629
▁sừng	-14630
▁typh	-14631
▁xoáy	-14632
▁yale	-14633
erable	-14634
gomery	-14635
opathy	-14636
ramine	-14637
▁1986,	-14638
▁5,000	-14639
▁abund	-14640
▁bacon	-14641
▁brune	-14642
▁cathy	-14643
▁curse	-14644
▁darcy	-14645
▁elder	-14646
▁fancy	-14647
▁grief	-14648
▁hated	-14649
▁hotch	-14650
▁hurts	-14651
▁jelly	-14652
▁leban	-14653
▁mucus	-14654
▁percy	-14655
▁poles	-14656
▁scare	-14657
▁sheld	-14658
▁sweep	-14659
▁thief	-14660
▁tribe	-14661
▁twent	-14662
▁vướng	-14663
ativity	-14664
ogether	-14665
▁affili	-14666
▁barnes	-14667
▁bypass	-14668
▁denied	-14669
▁forbes	-14670
▁fortun	-14671
▁fossil	-14672
▁genome	-14673
▁humili	-14674
▁pillow	-14675
▁spinal	-14676
▁stains	-14677
▁voters	-14678
▁waited	-14679
▁wallet	-14680
▁wishes	-14681
▁worthy	-14682
ensional	-14683
floxacin	-14684
formerly	-14685
onscious	-14686
▁advised	-14687
▁aerobic	-14688
▁battles	-14689
▁blogger	-14690
▁circles	-14691
▁consent	-14692
▁crowned	-14693
▁customs	-14694
▁dessert	-14695
▁halfway	-14696
▁happier	-14697
▁horizon	-14698
▁painter	-14699
▁shallow	-14700
▁someday	-14701
▁unhappy	-14702
▁worries	-14703
▁aviation	-14704
▁circular	-14705
▁contamin	-14706
▁floating	-14707
▁galaxies	-14708
▁handling	-14709
▁judicial	-14710
▁mercedes	-14711
▁modified	-14712
▁pharmacy	-14713
▁pomorski	-14714
▁presents	-14715
▁promises	-14716
▁situated	-14717
▁sometime	-14718
▁uprising	-14719
▁vaccines	-14720
▁addresses	-14721
▁ancestors	-14722
▁arthritis	-14723
▁barcelona	-14724
▁criminals	-14725
▁curiosity	-14726
▁eccentric	-14727
▁nightmare	-14728
▁requested	-14729
▁sexuality	-14730
▁switching	-14731
▁workplace	-14732
▁adaptation	-14733
▁agreements	-14734
▁architects	-14735
▁copenhagen	-14736
▁discussing	-14737
▁montgomery	-14738
▁passionate	-14739
▁persistent	-14740
▁smartphone	-14741
▁emotionally	-14742
▁journalists	-14743
▁outstanding	-14744
▁scholarship	-14745
▁tablespoons	-14746
▁considerably	-14747
▁negotiations	-14748
▁satisfaction	-14749
▁consideration	-14750
▁manufacturers	-14751
▁corticosteroid	-14752
63	-14753
bộ	-14754
fy	-14755
rô	-14756
}}	-14757
ña	-14758
̣t	-14759
▁£	-14760
▁π	-14761
bad	-14762
cod	-14763
ecd	-14764
igu	-14765
lie	-14766
pad	-14767
tập	-14768
uit	-14769
uta	-14770
vol	-14771
zor	-14772
ấng	-14773
▁76	-14774
▁yö	-14775
..."	-14776
alan	-14777
aler	-14778
bach	-14779
bery	-14780
elia	-14781
held	-14782
irth	-14783
odor	-14784
rous	-14785
yard	-14786
▁(20	-14787
▁2.0	-14788
▁abc	-14789
▁dab	-14790
▁dah	-14791
▁gạc	-14792
▁kai	-14793
▁kaw	-14794
▁kèn	-14795
▁oll	-14796
▁rủa	-14797
▁sáo	-14798
▁sên	-14799
▁sụt	-14800
▁url	-14801
▁vik	-14802
▁voy	-14803
▁wan	-14804
comed	-14805
edral	-14806
ensis	-14807
fying	-14808
isone	-14809
leton	-14810
ollen	-14811
oscop	-14812
owicz	-14813
ández	-14814
▁1918	-14815
▁3000	-14816
▁adri	-14817
▁cuis	-14818
▁dash	-14819
▁erik	-14820
▁godd	-14821
▁gums	-14822
▁hint	-14823
▁irre	-14824
▁khốc	-14825
▁kiêu	-14826
▁lomb	-14827
▁loop	-14828
▁lump	-14829
▁mans	-14830
▁măng	-14831
▁ngẫm	-14832
▁nung	-14833
▁rach	-14834
▁rude	-14835
▁thỉu	-14836
▁toll	-14837
▁tops	-14838
apping	-14839
erator	-14840
esters	-14841
igious	-14842
ington	-14843
market	-14844
orious	-14845
▁1973,	-14846
▁1992.	-14847
▁aaron	-14848
▁asset	-14849
▁blade	-14850
▁brody	-14851
▁claud	-14852
▁coral	-14853
▁jeans	-14854
▁jorge	-14855
▁paren	-14856
▁pedro	-14857
▁quote	-14858
▁stool	-14859
▁thủng	-14860
▁tibet	-14861
▁toast	-14862
sterdam	-14863
▁admire	-14864
▁advise	-14865
▁backed	-14866
▁barack	-14867
▁behave	-14868
▁binary	-14869
▁cattle	-14870
▁circul	-14871
▁closet	-14872
▁corona	-14873
▁dancer	-14874
▁debbie	-14875
▁farmer	-14876
▁gotham	-14877
▁graham	-14878
▁insane	-14879
▁insist	-14880
▁kamień	-14881
▁logged	-14882
▁lotion	-14883
▁murray	-14884
▁norman	-14885
▁packed	-14886
▁parker	-14887
▁portal	-14888
▁puzzle	-14889
▁sahara	-14890
▁tattoo	-14891
▁teresa	-14892
▁violet	-14893
▁wednes	-14894
▁abbrevi	-14895
▁admiral	-14896
▁boiling	-14897
▁cleaned	-14898
▁creator	-14899
▁deliber	-14900
▁descent	-14901
▁foreman	-14902
▁gaining	-14903
▁lifting	-14904
▁migrain	-14905
▁minimal	-14906
▁outlook	-14907
▁pathway	-14908
▁staring	-14909
▁swollen	-14910
▁tragedy	-14911
▁transit	-14912
▁updates	-14913
▁wasting	-14914
ationally	-14915
itational	-14916
▁arranged	-14917
▁divorced	-14918
▁irritate	-14919
▁limiting	-14920
▁manifest	-14921
▁marshall	-14922
▁modeling	-14923
▁prospect	-14924
▁remedies	-14925
▁richards	-14926
▁scarlett	-14927
▁starling	-14928
▁tourists	-14929
▁wondered	-14930
▁allergies	-14931
▁amsterdam	-14932
▁argentine	-14933
▁cigarette	-14934
▁colleague	-14935
▁confusion	-14936
▁programme	-14937
▁reservoir	-14938
▁satisfied	-14939
▁acceptable	-14940
▁approaches	-14941
▁graduating	-14942
▁objectives	-14943
▁penicillin	-14944
▁publishers	-14945
▁references	-14946
▁retirement	-14947
▁tablespoon	-14948
▁yourselves	-14949
▁appearances	-14950
▁assumptions	-14951
▁equilibrium	-14952
▁expressions	-14953
▁forgiveness	-14954
▁sensitivity	-14955
▁reproductive	-14956
▁sophisticated	-14957
))	-14958
fc	-14959
tổ	-14960
▁∗	-14961
-12	-14962
4).	-14963
cảm	-14964
ear	-14965
hic	-14966
kow	-14967
lab	-14968
naz	-14969
non	-14970
oko	-14971
oqu	-14972
rov	-14973
thu	-14974
uke	-14975
▁59	-14976
▁96	-14977
▁nộ	-14978
best	-14979
fell	-14980
hang	-14981
ishi	-14982
ivir	-14983
pple	-14984
rill	-14985
wana	-14986
zens	-14987
▁(2)	-14988
▁búa	-14989
▁ces	-14990
▁dơi	-14991
▁gặm	-14992
▁gục	-14993
▁hae	-14994
▁hoc	-14995
▁hok	-14996
▁lum	-14997
▁líu	-14998
▁lầy	-14999
▁mấu	-15000
▁rán	-15001
▁rỗi	-15002
▁sạc	-15003
▁sủa	-15004
arthe	-15005
tocin	-15006
▁1944	-15007
▁1956	-15008
▁banh	-15009
▁barr	-15010
▁bugs	-15011
▁clog	-15012
▁cước	-15013
▁deng	-15014
▁evan	-15015
▁fuji	-15016
▁giỡn	-15017
▁gulf	-15018
▁hart	-15019
▁heli	-15020
▁hend	-15021
▁hiên	-15022
▁lane	-15023
▁ling	-15024
▁meta	-15025
▁mãnh	-15026
▁obes	-15027
▁pays	-15028
▁shim	-15029
▁slim	-15030
▁spat	-15031
▁wend	-15032
▁điếm	-15033
master	-15034
▁1953,	-15035
▁1976,	-15036
▁bench	-15037
▁bitco	-15038
▁casey	-15039
▁colum	-15040
▁curve	-15041
▁diana	-15042
▁isaac	-15043
▁khinh	-15044
▁lakes	-15045
▁libya	-15046
▁lover	-15047
▁mitch	-15048
▁reese	-15049
▁roose	-15050
▁shave	-15051
▁sonic	-15052
▁unpre	-15053
▁viếng	-15054
artheid	-15055
romycin	-15056
theless	-15057
▁allevi	-15058
▁almond	-15059
▁apples	-15060
▁baltic	-15061
▁banned	-15062
▁counts	-15063
▁deterg	-15064
▁divine	-15065
▁ethics	-15066
▁fluoro	-15067
▁greenh	-15068
▁labels	-15069
▁merged	-15070
▁merger	-15071
▁miguel	-15072
▁nebula	-15073
▁nelson	-15074
▁oceans	-15075
▁orthod	-15076
▁reflex	-15077
▁santos	-15078
▁scales	-15079
▁slices	-15080
▁soccer	-15081
▁subtle	-15082
▁tennes	-15083
▁thrown	-15084
▁blowing	-15085
▁caracas	-15086
▁cheaper	-15087
▁confess	-15088
▁consens	-15089
▁cookies	-15090
▁females	-15091
▁fitness	-15092
▁lithium	-15093
▁logical	-15094
▁morocco	-15095
▁oatmeal	-15096
▁optical	-15097
▁readers	-15098
▁retreat	-15099
▁spirits	-15100
▁thyroid	-15101
▁abstract	-15102
▁brighter	-15103
▁brushing	-15104
▁climbing	-15105
▁colonial	-15106
▁detained	-15107
▁emission	-15108
▁imagined	-15109
▁kindness	-15110
▁likewise	-15111
▁monument	-15112
▁obsessed	-15113
▁orbiting	-15114
▁outdoors	-15115
▁piercing	-15116
▁portugal	-15117
▁predomin	-15118
▁prosecut	-15119
▁quantity	-15120
▁rainfall	-15121
▁reporter	-15122
▁restored	-15123
▁severely	-15124
▁snapchat	-15125
▁starring	-15126
▁accepting	-15127
▁algorithm	-15128
▁automatic	-15129
▁christina	-15130
▁comparing	-15131
▁intermedi	-15132
▁microwave	-15133
▁nicaragua	-15134
▁referring	-15135
▁roosevelt	-15136
▁stanisław	-15137
▁sustained	-15138
▁wandering	-15139
▁bennington	-15140
▁capability	-15141
▁capitalism	-15142
▁concerning	-15143
▁conversion	-15144
▁intentions	-15145
▁mysterious	-15146
▁propaganda	-15147
▁volunteers	-15148
▁contributed	-15149
▁declaration	-15150
▁unnecessary	-15151
▁consistently	-15152
▁unemployment	-15153
▁independently	-15154
,:	-15155
56	-15156
ún	-15157
đó	-15158
acc	-15159
ags	-15160
cot	-15161
isp	-15162
lys	-15163
nan	-15164
rex	-15165
uka	-15166
éon	-15167
▁/;	-15168
▁77	-15169
▁dm	-15170
▁gó	-15171
▁rô	-15172
▁tể	-15173
▁ào	-15174
acus	-15175
agin	-15176
isse	-15177
loid	-15178
lord	-15179
oded	-15180
pedo	-15181
pled	-15182
pool	-15183
sing	-15184
uron	-15185
wick	-15186
▁dot	-15187
▁gad	-15188
▁iso	-15189
▁kah	-15190
▁nại	-15191
▁rut	-15192
▁ráo	-15193
▁rộp	-15194
▁sán	-15195
▁xia	-15196
▁xài	-15197
▁đắc	-15198
abama	-15199
arity	-15200
chính	-15201
elled	-15202
entin	-15203
maker	-15204
oland	-15205
rator	-15206
thông	-15207
young	-15208
▁1942	-15209
▁biom	-15210
▁burr	-15211
▁cerv	-15212
▁chew	-15213
▁chèo	-15214
▁deny	-15215
▁fist	-15216
▁fond	-15217
▁hamm	-15218
▁herm	-15219
▁kirk	-15220
▁luộc	-15221
▁nash	-15222
▁nost	-15223
▁pean	-15224
▁peer	-15225
▁pert	-15226
▁reed	-15227
▁rãnh	-15228
▁unst	-15229
amines	-15230
itated	-15231
mental	-15232
parent	-15233
▁1972,	-15234
▁1983.	-15235
▁1988,	-15236
▁botan	-15237
▁broth	-15238
▁bryan	-15239
▁cance	-15240
▁cecil	-15241
▁dihyd	-15242
▁disin	-15243
▁ellen	-15244
▁energ	-15245
▁fails	-15246
▁fount	-15247
▁glaci	-15248
▁gover	-15249
▁grape	-15250
▁groom	-15251
▁hatch	-15252
▁lobby	-15253
▁loren	-15254
▁madam	-15255
▁marta	-15256
▁mobil	-15257
▁nicol	-15258
▁plato	-15259
▁shelf	-15260
▁sumer	-15261
▁sunny	-15262
▁carrie	-15263
▁condem	-15264
▁cookie	-15265
▁distur	-15266
▁elabor	-15267
▁enthus	-15268
▁isabel	-15269
▁italia	-15270
▁joints	-15271
▁kicked	-15272
▁legacy	-15273
▁mekong	-15274
▁orbits	-15275
▁palest	-15276
▁spokes	-15277
▁statue	-15278
▁submar	-15279
▁themes	-15280
▁tunnel	-15281
▁venice	-15282
vascular	-15283
▁armenia	-15284
▁blocked	-15285
▁caramel	-15286
▁diagram	-15287
▁diction	-15288
▁douglas	-15289
▁elderly	-15290
▁exhibit	-15291
▁generic	-15292
▁israeli	-15293
▁outdoor	-15294
▁planted	-15295
▁studios	-15296
▁torpedo	-15297
▁volumes	-15298
▁worship	-15299
mazurskie	-15300
▁adequate	-15301
▁adoption	-15302
▁claiming	-15303
▁concerts	-15304
▁consolid	-15305
▁disagree	-15306
▁disposal	-15307
▁equipped	-15308
▁forecast	-15309
▁hydrated	-15310
▁intraven	-15311
▁multiply	-15312
▁peruvian	-15313
▁regulate	-15314
▁trillion	-15315
▁workshop	-15316
rimination	-15317
▁arguments	-15318
▁directors	-15319
▁healthier	-15320
▁inflation	-15321
▁partially	-15322
▁perceived	-15323
▁responded	-15324
▁streaming	-15325
▁warmińsko	-15326
▁absorption	-15327
▁compatible	-15328
▁distracted	-15329
▁frightened	-15330
▁hypothesis	-15331
▁protesters	-15332
▁quarantine	-15333
▁discussions	-15334
▁incorporate	-15335
▁investigate	-15336
▁productions	-15337
▁substantial	-15338
▁theoretical	-15339
▁unconscious	-15340
▁broadcasting	-15341
▁nevertheless	-15342
▁determination	-15343
▁participating	-15344
03	-15345
34	-15346
69	-15347
tz	-15348
5).	-15349
:30	-15350
cap	-15351
eks	-15352
fur	-15353
ieu	-15354
ngo	-15355
rup	-15356
uga	-15357
wig	-15358
zzo	-15359
ńsk	-15360
▁"(	-15361
▁73	-15362
▁bự	-15363
...?	-15364
alph	-15365
cted	-15366
iary	-15367
icus	-15368
ieth	-15369
igon	-15370
ilis	-15371
long	-15372
mant	-15373
ople	-15374
osan	-15375
owse	-15376
quis	-15377
rice	-15378
then	-15379
thời	-15380
▁abo	-15381
▁bav	-15382
▁boo	-15383
▁cnn	-15384
▁cyt	-15385
▁cằm	-15386
▁củi	-15387
▁fon	-15388
▁kut	-15389
▁rèm	-15390
▁thự	-15391
▁xyl	-15392
▁xáo	-15393
▁yor	-15394
actic	-15395
brush	-15396
ceton	-15397
omnia	-15398
ridge	-15399
space	-15400
▁1919	-15401
▁1948	-15402
▁1957	-15403
▁aber	-15404
▁aden	-15405
▁amor	-15406
▁bean	-15407
▁blur	-15408
▁bord	-15409
▁clot	-15410
▁cẳng	-15411
▁dall	-15412
▁demo	-15413
▁doub	-15414
▁eros	-15415
▁fier	-15416
▁flea	-15417
▁hier	-15418
▁hiền	-15419
▁intr	-15420
▁kafr	-15421
▁kash	-15422
▁ming	-15423
▁nhậm	-15424
▁pars	-15425
▁quất	-15426
▁rear	-15427
▁uter	-15428
▁vựng	-15429
azepam	-15430
lessly	-15431
makers	-15432
▁1943,	-15433
▁1965,	-15434
▁1987.	-15435
▁2.000	-15436
▁3,000	-15437
▁ahmed	-15438
▁alkyl	-15439
▁bride	-15440
▁crypt	-15441
▁disco	-15442
▁dryer	-15443
▁dwell	-15444
▁elena	-15445
▁embed	-15446
▁ethyl	-15447
▁excit	-15448
▁flora	-15449
▁georg	-15450
▁grams	-15451
▁heter	-15452
▁https	-15453
▁khuỷu	-15454
▁khăng	-15455
▁logan	-15456
▁manus	-15457
▁marco	-15458
▁merit	-15459
▁moore	-15460
▁ranch	-15461
▁retro	-15462
▁rifle	-15463
▁sally	-15464
▁setup	-15465
▁suits	-15466
▁tiger	-15467
▁vapor	-15468
▁widow	-15469
▁bartos	-15470
▁confed	-15471
▁correl	-15472
▁dozens	-15473
▁fights	-15474
▁freeze	-15475
▁fridge	-15476
▁hassan	-15477
▁jumped	-15478
[...]
