<pad>	0
<sos>	0
<eos>	0
<unk>	0
▁t	-0
ng	-1
▁c	-2
▁th	-3
▁n	-4
▁a	-5
▁s	-6
▁đ	-7
▁b	-8
▁m	-9
▁h	-10
▁l	-11
▁v	-12
▁i	-13
er	-14
▁p	-15
▁k	-16
▁ch	-17
▁d	-18
▁the	-19
▁w	-20
▁o	-21
▁g	-22
ou	-23
re	-24
nh	-25
▁tr	-26
at	-27
on	-28
an	-29
▁nh	-30
en	-31
▁kh	-32
▁y	-33
▁f	-34
▁to	-35
es	-36
or	-37
nd	-38
ing	-39
▁ng	-40
▁you	-41
ed	-42
▁r	-43
in	-44
al	-45
▁và	-46
ar	-47
▁in	-48
▁ph	-49
it	-50
ông	-51
▁of	-52
▁là	-53
is	-54
ch	-55
▁and	-56
▁gi	-57
as	-58
om	-59
▁e	-60
ên	-61
▁có	-62
ll	-63
qu	-64
ic	-65
ay	-66
▁-	-67
▁củ	-68
▁của	-69
ôi	-70
iệ	-71
▁cá	-72
ột	-73
le	-74
▁qu	-75
ion	-76
▁một	-77
us	-78
et	-79
ve	-80
▁không	-81
ườ	-82
ượ	-83
iế	-84
ot	-85
ới	-86
ong	-87
▁tôi	-88
ow	-89
▁wh	-90
▁re	-91
▁be	-92
▁it	-93
ent	-94
▁x	-95
am	-96
ly	-97
ược	-98
▁is	-99
▁1	-100
ạn	-101
ut	-102
ất	-103
▁được	-104
ại	-105
uy	-106
id	-107
ct	-108
▁that	-109
▁on	-110
▁ta	-111
▁do	-112
▁ha	-113
ày	-114
▁trong	-115
▁bạn	-116
▁st	-117
▁ho	-118
▁các	-119
im	-120
▁for	-121
ười	-122
▁đã	-123
os	-124
▁nó	-125
ig	-126
▁(	-127
▁u	-128
▁thể	-129
▁đi	-130
▁cho	-131
▁con	-132
▁người	-133
ur	-134
ld	-135
▁đó	-136
▁như	-137
ce	-138
▁chú	-139
▁với	-140
ình	-141
▁we	-142
▁2	-143
▁he	-144
▁sa	-145
▁your	-146
th	-147
ere	-148
ấy	-149
ro	-150
ều	-151
▁anh	-152
▁an	-153
▁as	-154
ải	-155
ần	-156
ad	-157
▁ngh	-158
▁sh	-159
ith	-160
ver	-161
▁j	-162
ang	-163
ững	-164
ir	-165
▁những	-166
ter	-167
▁sẽ	-168
ân	-169
ây	-170
▁with	-171
▁li	-172
ol	-173
▁chúng	-174
▁để	-175
▁ở	-176
ation	-177
ke	-178
▁này	-179
▁họ	-180
il	-181
▁ra	-182
▁"	-183
▁khi	-184
ác	-185
em	-186
▁nă	-187
el	-188
ill	-189
▁or	-190
ướ	-191
▁lo	-192
st	-193
uố	-194
▁was	-195
od	-196
ành	-197
▁this	-198
▁vào	-199
▁làm	-200
▁are	-201
▁se	-202
ến	-203
iết	-204
ết	-205
ầu	-206
iên	-207
▁so	-208
▁cả	-209
▁ne	-210
igh	-211
▁fr	-212
op	-213
▁20	-214
▁com	-215
▁me	-216
▁su	-217
▁độ	-218
ul	-219
ường	-220
▁năm	-221
▁can	-222
▁phải	-223
ằng	-224
▁ba	-225
ơn	-226
ước	-227
iện	-228
ật	-229
▁de	-230
ant	-231
ực	-232
ers	-233
▁al	-234
▁not	-235
▁have	-236
ươ	-237
▁đến	-238
ag	-239
est	-240
ck	-241
▁at	-242
▁cô	-243
▁go	-244
and	-245
▁sự	-246
ống	-247
ặc	-248
▁về	-249
ính	-250
ức	-251
▁từ	-252
pp	-253
ia	-254
▁mà	-255
ản	-256
inh	-257
ore	-258
se	-259
ời	-260
▁ca	-261
ist	-262
ài	-263
ain	-264
ương	-265
iể	-266
ate	-267
ight	-268
um	-269
▁việ	-270
ận	-271
▁us	-272
ùng	-273
▁19	-274
ối	-275
▁em	-276
ếu	-277
ess	-278
▁pro	-279
ust	-280
ung	-281
âu	-282
▁ex	-283
▁di	-284
▁ab	-285
át	-286
▁if	-287
▁lại	-288
ould	-289
▁việc	-290
▁ma	-291
▁nói	-292
áng	-293
..	-294
▁gì	-295
àn	-296
▁điều	-297
ào	-298
un	-299
iến	-300
▁but	-301
ra	-302
art	-303
▁they	-304
▁what	-305
res	-306
▁by	-307
ri	-308
àng	-309
▁le	-310
ền	-311
▁thế	-312
▁cũ	-313
ập	-314
▁ông	-315
ome	-316
▁đây	-317
▁dụ	-318
▁chuy	-319
▁nhi	-320
▁bị	-321
▁nếu	-322
▁from	-323
▁nhưng	-324
▁hơn	-325
end	-326
anh	-327
▁đầu	-328
gh	-329
▁wor	-330
ồi	-331
▁biết	-332
out	-333
▁all	-334
▁cũng	-335
▁chỉ	-336
ect	-337
ally	-338
▁sp	-339
ab	-340
ăn	-341
▁kn	-342
▁thành	-343
▁my	-344
▁she	-345
▁trên	-346
▁đang	-347
ine	-348
▁pl	-349
ích	-350
one	-351
▁hoặc	-352
▁công	-353
ie	-354
all	-355
ive	-356
ci	-357
ok	-358
▁nhà	-359
ity	-360
▁cách	-361
ộc	-362
uốn	-363
ff	-364
00	-365
▁khác	-366
ốc	-367
ard	-368
▁will	-369
▁thấy	-370
ổi	-371
▁nhiều	-372
▁vì	-373
▁thu	-374
iệu	-375
▁nghĩ	-376
▁know	-377
ắt	-378
▁số	-379
au	-380
ơi	-381
▁sau	-382
▁un	-383
ort	-384
ies	-385
▁out	-386
▁gia	-387
▁muốn	-388
▁her	-389
êu	-390
ậy	-391
▁ar	-392
▁there	-393
ast	-394
▁đị	-395
ắc	-396
▁co	-397
▁học	-398
▁ấy	-399
▁one	-400
▁nào	-401
her	-402
ứng	-403
ment	-404
ọi	-405
ind	-406
▁te	-407
ái	-408
▁mình	-409
▁tại	-410
ud	-411
ậu	-412
▁chính	-413
án	-414
▁about	-415
▁cl	-416
▁kho	-417
▁201	-418
▁like	-419
ough	-420
▁quan	-421
▁up	-422
▁get	-423
ưa	-424
▁no	-425
ặt	-426
ữa	-427
ội	-428
▁cần	-429
ure	-430
▁tim	-431
▁sao	-432
▁động	-433
▁nhất	-434
▁tiế	-435
ện	-436
ai	-437
▁dụng	-438
pt	-439
òn	-440
úc	-441
▁nên	-442
▁ngày	-443
ắn	-444
▁rằng	-445
▁pr	-446
▁vậy	-447
▁fe	-448
ide	-449
▁whi	-450
▁3	-451
ạo	-452
▁rồi	-453
ound	-454
our	-455
▁just	-456
ục	-457
ber	-458
áo	-459
ame	-460
▁ti	-461
▁cu	-462
ấn	-463
▁when	-464
▁some	-465
▁cái	-466
âm	-467
ồng	-468
ink	-469
ry	-470
ost	-471
▁hiện	-472
▁man	-473
ip	-474
▁pe	-475
ánh	-476
▁còn	-477
▁may	-478
▁quy	-479
ẫn	-480
ấp	-481
▁ad	-482
▁br	-483
ap	-484
▁theo	-485
▁lu	-486
▁cậu	-487
▁bằng	-488
so	-489
▁thì	-490
ôn	-491
▁thực	-492
▁sử	-493
iv	-494
ảo	-495
▁nước	-496
iểu	-497
ăng	-498
▁nhân	-499
▁thứ	-500
▁has	-501
▁who	-502
ưở	-503
▁rất	-504
òng	-505
▁comp	-506
áp	-507
▁how	-508
ưởng	-509
▁thời	-510
ạt	-511
▁want	-512
▁am	-513
ượng	-514
nt	-515
iz	-516
▁hã	-517
▁int	-518
og	-519
▁tự	-520
ose	-521
▁ye	-522
▁more	-523
ther	-524
ice	-525
▁bản	-526
▁cơ	-527
▁ag	-528
▁giờ	-529
▁im	-530
ish	-531
ated	-532
▁them	-533
▁trước	-534
▁chuyện	-535
ions	-536
▁gr	-537
ỏi	-538
ợp	-539
▁tháng	-540
ep	-541
if	-542
▁hợp	-543
use	-544
ous	-545
▁định	-546
ian	-547
ảng	-548
▁ac	-549
age	-550
▁bu	-551
ak	-552
▁any	-553
▁his	-554
▁tố	-555
▁bec	-556
ace	-557
ìm	-558
▁quốc	-559
▁time	-560
▁cảm	-561
▁hai	-562
▁thường	-563
▁bộ	-564
ởi	-565
▁hành	-566
▁hình	-567
▁mar	-568
ib	-569
▁lên	-570
▁nhận	-571
▁tu	-572
▁hãy	-573
...	-574
▁cuộc	-575
▁were	-576
act	-577
ách	-578
▁phát	-579
▁ý	-580
iệt	-581
▁tìm	-582
ấu	-583
êm	-584
▁tin	-585
per	-586
▁cont	-587
▁trung	-588
▁which	-589
▁200	-590
ọng	-591
▁hay	-592
lo	-593
ach	-594
▁cứ	-595
▁cùng	-596
▁him	-597
ọn	-598
ỗi	-599
▁en	-600
▁qua	-601
▁bao	-602
▁their	-603
▁ro	-604
▁af	-605
▁peop	-606
▁lớ	-607
▁bà	-608
▁ev	-609
are	-610
▁tuy	-611
úp	-612
▁fo	-613
ical	-614
▁app	-615
ac	-616
▁people	-617
▁did	-618
▁also	-619
▁kết	-620
reat	-621
ase	-622
▁now	-623
▁here	-624
ạng	-625
▁work	-626
ick	-627
▁part	-628
▁think	-629
ars	-630
),	-631
▁má	-632
▁other	-633
▁4	-634
▁inc	-635
ừng	-636
▁need	-637
own	-638
▁ever	-639
▁tới	-640
hing	-641
▁mu	-642
ans	-643
▁sinh	-644
ary	-645
▁would	-646
▁per	-647
▁dis	-648
▁ngo	-649
▁giúp	-650
ass	-651
ịch	-652
▁had	-653
▁bắt	-654
▁lý	-655
av	-656
▁act	-657
ue	-658
▁ai	-659
▁right	-660
▁5	-661
▁than	-662
▁see	-663
▁vi	-664
).	-665
▁loại	-666
▁been	-667
▁đối	-668
▁new	-669
ater	-670
▁phần	-671
ress	-672
▁trường	-673
▁make	-674
▁bởi	-675
▁hội	-676
▁res	-677
▁tính	-678
▁xu	-679
▁'	-680
ạnh	-681
ence	-682
▁pre	-683
ph	-684
▁off	-685
▁trở	-686
▁look	-687
▁viên	-688
ings	-689
ển	-690
▁quá	-691
▁mọi	-692
▁inter	-693
▁mặt	-694
▁over	-695
▁tw	-696
▁tiếp	-697
▁thông	-698
▁hàng	-699
ạc	-700
▁tốt	-701
▁sống	-702
▁mới	-703
▁then	-704
na	-705
▁đề	-706
▁trình	-707
▁fir	-708
▁bo	-709
iệm	-710
ult	-711
▁mo	-712
▁chi	-713
ite	-714
▁la	-715
▁tạo	-716
▁these	-717
ge	-718
ays	-719
ations	-720
▁well	-721
▁đồng	-722
▁ăn	-723
▁liên	-724
▁hel	-725
▁gian	-726
▁đại	-727
▁sy	-728
omet	-729
▁giới	-730
orm	-731
du	-732
ount	-733
ance	-734
▁dùng	-735
▁tổ	-736
▁năng	-737
ệnh	-738
ub	-739
▁giải	-740
ond	-741
ause	-742
▁tra	-743
ắng	-744
▁thay	-745
▁tế	-746
▁đâu	-747
▁dự	-748
▁first	-749
iển	-750
▁into	-751
▁phí	-752
▁thật	-753
ồn	-754
▁tập	-755
▁hệ	-756
▁thích	-757
▁sc	-758
▁where	-759
ree	-760
ru	-761
▁lớn	-762
▁comm	-763
vel	-764
▁our	-765
▁nữa	-766
▁back	-767
ord	-768
▁got	-769
▁khu	-770
itt	-771
▁lần	-772
▁ser	-773
▁nguy	-774
▁bảo	-775
ens	-776
▁giả	-777
▁toàn	-778
▁tất	-779
elf	-780
▁help	-781
▁bet	-782
úng	-783
king	-784
▁trị	-785
▁xuất	-786
ign	-787
▁pháp	-788
▁ke	-789
ẩm	-790
pl	-791
ửa	-792
▁nhau	-793
▁tay	-794
ảnh	-795
ial	-796
▁tên	-797
▁every	-798
▁chất	-799
▁could	-800
ẳng	-801
▁jo	-802
▁tác	-803
▁đổi	-804
▁lượng	-805
▁chủ	-806
fe	-807
▁tình	-808
int	-809
▁nhiên	-810
oss	-811
▁gọi	-812
▁đo	-813
▁nam	-814
nder	-815
▁vị	-816
▁after	-817
pe	-818
ạch	-819
▁thức	-820
we	-821
ery	-822
ễn	-823
▁tiên	-824
ẩn	-825
▁trọng	-826
▁take	-827
▁máy	-828
▁should	-829
▁bố	-830
▁because	-831
▁its	-832
▁good	-833
▁spe	-834
▁vụ	-835
▁nơi	-836
ảy	-837
▁vật	-838
óc	-839
▁somet	-840
▁car	-841
▁đường	-842
▁tâm	-843
▁–	-844
▁bất	-845
able	-846
▁use	-847
iệp	-848
▁vẫn	-849
▁sĩ	-850
▁mi	-851
▁tho	-852
▁chứ	-853
▁hoá	-854
ah	-855
▁only	-856
ặp	-857
ition	-858
▁kỳ	-859
▁po	-860
▁hắn	-861
▁let	-862
▁pol	-863
▁two	-864
▁fl	-865
▁xem	-866
▁cao	-867
▁ty	-868
▁giá	-869
ire	-870
cess	-871
▁imp	-872
▁under	-873
amp	-874
ict	-875
ft	-876
▁sản	-877
út	-878
▁bên	-879
óng	-880
▁bỏ	-881
▁dư	-882
other	-883
▁say	-884
ade	-885
ble	-886
▁rem	-887
uốc	-888
▁way	-889
▁ind	-890
ving	-891
▁6	-892
ina	-893
▁down	-894
▁ngoài	-895
▁bệnh	-896
ath	-897
▁10	-898
ory	-899
ìn	-900
▁thống	-901
▁yêu	-902
▁thuốc	-903
▁chưa	-904
ểm	-905
▁bl	-906
▁điểm	-907
▁going	-908
ved	-909
▁call	-910
ộng	-911
▁hiệu	-912
▁/	-913
oth	-914
▁most	-915
▁vấn	-916
▁câu	-917
▁sm	-918
orn	-919
▁ảnh	-920
."	-921
▁mẹ	-922
▁thiết	-923
ors	-924
▁rec	-925
▁quả	-926
▁kinh	-927
wn	-928
▁tiếng	-929
erm	-930
ack	-931
▁cầu	-932
iểm	-933
▁liệu	-934
▁đưa	-935
▁thr	-936
▁chuyển	-937
▁sec	-938
▁chu	-939
▁nhìn	-940
▁đấy	-941
▁thị	-942
▁cr	-943
uối	-944
urn	-945
▁--	-946
ents	-947
▁cố	-948
▁nghe	-949
ầm	-950
▁quyền	-951
iss	-952
▁phụ	-953
▁chiến	-954
▁even	-955
▁tal	-956
fore	-957
▁gh	-958
▁world	-959
ody	-960
▁dân	-961
▁ban	-962
▁aw	-963
▁feel	-964
▁gen	-965
▁inf	-966
ép	-967
▁lập	-968
▁min	-969
▁truy	-970
▁nữ	-971
▁des	-972
▁phía	-973
▁tiêu	-974
▁chọn	-975
▁phương	-976
▁cấp	-977
▁rel	-978
▁lực	-979
ces	-980
▁lúc	-981
▁phòng	-982
ell	-983
▁thân	-984
▁tell	-985
▁cứu	-986
▁try	-987
▁biệt	-988
▁cons	-989
▁chứng	-990
ướng	-991
▁gặp	-992
ít	-993
les	-994
ates	-995
ợi	-996
▁7	-997
ét	-998
▁chị	-999
▁come	-1000
▁199	-1001
▁very	-1002
▁pers	-1003
ail	-1004
▁ngay	-1005
▁diff	-1006
▁z	-1007
▁phẩm	-1008
▁find	-1009
▁does	-1010
▁khoảng	-1011
▁ri	-1012
▁something	-1013
▁chiế	-1014
▁hết	-1015
▁thôi	-1016
ons	-1017
ting	-1018
ắm	-1019
▁vài	-1020
lud	-1021
▁da	-1022
ồm	-1023
▁wr	-1024
ually	-1025
▁why	-1026
▁before	-1027
▁8	-1028
▁ứng	-1029
ừa	-1030
▁nghĩa	-1031
▁tương	-1032
▁chức	-1033
▁hỏi	-1034
▁bình	-1035
be	-1036
▁such	-1037
self	-1038
▁long	-1039
▁mỗi	-1040
▁đúng	-1041
▁hoạt	-1042
▁đều	-1043
▁sáng	-1044
▁tăng	-1045
▁chết	-1046
▁hoàn	-1047
▁phân	-1048
▁gồm	-1049
▁chế	-1050
▁tiền	-1051
▁chơi	-1052
▁biến	-1053
▁inst	-1054
▁att	-1055
▁hiểu	-1056
ise	-1057
ạm	-1058
▁med	-1059
▁thương	-1060
ction	-1061
▁again	-1062
▁through	-1063
▁years	-1064
▁mất	-1065
▁day	-1066
▁lời	-1067
▁18	-1068
▁báo	-1069
▁met	-1070
▁nhỏ	-1071
▁triển	-1072
▁diễn	-1073
te	-1074
▁mon	-1075
▁form	-1076
▁đặt	-1077
▁gây	-1078
hip	-1079
▁khỏi	-1080
▁id	-1081
▁lư	-1082
▁sch	-1083
ves	-1084
ating	-1085
▁bài	-1086
▁many	-1087
▁đặc	-1088
▁thuật	-1089
▁said	-1090
▁life	-1091
▁dù	-1092
▁start	-1093
ám	-1094
▁tư	-1095
ought	-1096
▁dưới	-1097
▁dẫn	-1098
▁đất	-1099
▁reg	-1100
▁điện	-1101
▁includ	-1102
ấm	-1103
ne	-1104
▁9	-1105
▁giáo	-1106
▁acc	-1107
ious	-1108
vers	-1109
▁giảm	-1110
▁play	-1111
▁gần	-1112
000	-1113
▁used	-1114
▁hu	-1115
▁count	-1116
▁pres	-1117
▁tưởng	-1118
▁cuối	-1119
ational	-1120
▁high	-1121
▁đừng	-1122
▁dr	-1123
▁xác	-1124
cial	-1125
▁rep	-1126
▁much	-1127
uống	-1128
co	-1129
ys	-1130
▁sát	-1131
▁từng	-1132
ằm	-1133
get	-1134
▁giống	-1135
red	-1136
▁hy	-1137
▁produ	-1138
▁happ	-1139
ert	-1140
ắp	-1141
▁văn	-1142
▁trẻ	-1143
bs	-1144
ily	-1145
ower	-1146
▁el	-1147
ọc	-1148
▁lấy	-1149
ual	-1150
ative	-1151
▁gu	-1152
▁keep	-1153
ệt	-1154
ks	-1155
ather	-1156
ced	-1157
▁person	-1158
áu	-1159
▁giữ	-1160
▁nghiệp	-1161
▁water	-1162
▁kế	-1163
▁nay	-1164
▁really	-1165
▁vực	-1166
▁(1	-1167
▁thêm	-1168
▁tài	-1169
▁trí	-1170
▁inv	-1171
▁giữa	-1172
▁ear	-1173
▁sách	-1174
▁đơn	-1175
▁hoa	-1176
▁đánh	-1177
▁bel	-1178
▁add	-1179
▁xe	-1180
▁dec	-1181
▁op	-1182
thing	-1183
xt	-1184
▁wom	-1185
▁fri	-1186
olog	-1187
▁exp	-1188
▁mỹ	-1189
▁à	-1190
ows	-1191
▁being	-1192
▁chắc	-1193
▁cent	-1194
oc	-1195
▁dịch	-1196
▁cha	-1197
ful	-1198
▁khó	-1199
▁mạnh	-1200
▁those	-1201
▁sk	-1202
lic	-1203
▁too	-1204
▁đồ	-1205
ạy	-1206
ited	-1207
▁sur	-1208
▁quyết	-1209
▁truyền	-1210
▁supp	-1211
▁war	-1212
▁mang	-1213
▁ít	-1214
ren	-1215
▁kiểm	-1216
▁stud	-1217
io	-1218
az	-1219
▁khiến	-1220
0,	-1221
▁tớ	-1222
▁around	-1223
ular	-1224
▁things	-1225
▁hand	-1226
▁while	-1227
▁tham	-1228
ased	-1229
▁chang	-1230
ible	-1231
▁lan	-1232
ric	-1233
óm	-1234
▁never	-1235
▁friend	-1236
ittle	-1237
".	-1238
▁par	-1239
▁địa	-1240
▁nguyên	-1241
▁differ	-1242
▁cổ	-1243
▁mục	-1244
▁bác	-1245
▁eff	-1246
▁tranh	-1247
▁cây	-1248
▁mở	-1249
▁little	-1250
ject	-1251
ines	-1252
▁trang	-1253
gan	-1254
uring	-1255
▁bé	-1256
▁ed	-1257
▁gon	-1258
als	-1259
ave	-1260
▁end	-1261
▁own	-1262
ull	-1263
▁trò	-1264
ied	-1265
ities	-1266
ile	-1267
▁tinh	-1268
▁luôn	-1269
▁hum	-1270
ăm	-1271
▁vô	-1272
▁prot	-1273
oup	-1274
▁chí	-1275
ember	-1276
▁cảnh	-1277
▁thuộc	-1278
▁sl	-1279
▁mày	-1280
▁set	-1281
▁khí	-1282
▁put	-1283
▁hạn	-1284
ics	-1285
▁dist	-1286
▁kể	-1287
▁nhớ	-1288
▁sim	-1289
▁che	-1290
atch	-1291
ty	-1292
▁viết	-1293
▁vu	-1294
▁give	-1295
▁12	-1296
▁cal	-1297
▁duy	-1298
▁198	-1299
▁đông	-1300
▁tử	-1301
ince	-1302
▁ent	-1303
▁chẳng	-1304
▁xảy	-1305
▁fam	-1306
▁ok	-1307
▁place	-1308
▁fin	-1309
▁found	-1310
▁nor	-1311
▁still	-1312
▁col	-1313
▁mặc	-1314
▁cle	-1315
▁màu	-1316
▁num	-1317
▁gonna	-1318
▁bán	-1319
▁thư	-1320
ady	-1321
▁đạo	-1322
▁xuống	-1323
▁ass	-1324
▁sức	-1325
stem	-1326
▁great	-1327
▁thần	-1328
ầy	-1329
▁str	-1330
▁đáng	-1331
ash	-1332
lect	-1333
▁tối	-1334
▁khả	-1335
▁thủ	-1336
con	-1337
▁hướng	-1338
ven	-1339
▁tây	-1340
▁quân	-1341
▁minh	-1342
▁đủ	-1343
cy	-1344
▁tiến	-1345
▁gái	-1346
▁sou	-1347
▁kill	-1348
▁nghiệm	-1349
▁ins	-1350
▁dep	-1351
▁made	-1352
▁tích	-1353
▁mù	-1354
▁thử	-1355
llow	-1356
▁đội	-1357
bo	-1358
▁child	-1359
velop	-1360
▁cửa	-1361
▁danh	-1362
▁bar	-1363
▁tượng	-1364
eric	-1365
▁might	-1366
▁nghiên	-1367
ning	-1368
ier	-1369
▁phép	-1370
▁sure	-1371
▁three	-1372
uyết	-1373
▁phi	-1374
▁xin	-1375
der	-1376
▁trả	-1377
▁15	-1378
▁vệ	-1379
▁ngu	-1380
▁mus	-1381
iếm	-1382
▁system	-1383
▁tục	-1384
▁phim	-1385
▁ask	-1386
gr	-1387
▁last	-1388
its	-1389
▁bắc	-1390
▁yourself	-1391
▁thing	-1392
▁triệu	-1393
▁year	-1394
▁chiếc	-1395
▁loc	-1396
ón	-1397
▁lã	-1398
▁giết	-1399
▁cre	-1400
▁nằm	-1401
▁dễ	-1402
▁âm	-1403
▁char	-1404
▁nhóm	-1405
▁develop	-1406
▁av	-1407
▁phản	-1408
▁tuổi	-1409
land	-1410
▁same	-1411
man	-1412
▁open	-1413
▁thought	-1414
▁biểu	-1415
▁dài	-1416
▁real	-1417
▁trans	-1418
ron	-1419
▁home	-1420
▁mean	-1421
▁doing	-1422
▁nghệ	-1423
aw	-1424
ween	-1425
▁ant	-1426
▁talk	-1427
▁mắt	-1428
▁care	-1429
ool	-1430
ouse	-1431
augh	-1432
▁uống	-1433
tern	-1434
▁tổng	-1435
ứa	-1436
▁mô	-1437
▁oh	-1438
▁nghi	-1439
ner	-1440
▁between	-1441
▁cung	-1442
▁best	-1443
▁ví	-1444
▁cháu	-1445
▁intern	-1446
▁art	-1447
▁nhanh	-1448
ậm	-1449
▁old	-1450
▁luật	-1451
▁cộng	-1452
▁plan	-1453
▁show	-1454
▁nhạc	-1455
ẹp	-1456
▁name	-1457
▁đau	-1458
▁rõ	-1459
▁bre	-1460
by	-1461
▁each	-1462
alth	-1463
▁đời	-1464
▁cực	-1465
▁mod	-1466
▁conf	-1467
ix	-1468
cept	-1469
▁phố	-1470
▁sign	-1471
▁gener	-1472
▁phục	-1473
ild	-1474
▁trợ	-1475
▁resp	-1476
▁ref	-1477
▁different	-1478
▁đình	-1479
▁guy	-1480
▁ob	-1481
▁kiến	-1482
▁during	-1483
▁list	-1484
▁blo	-1485
▁lẽ	-1486
erg	-1487
ward	-1488
▁ổ	-1489
▁mức	-1490
ten	-1491
▁suy	-1492
▁love	-1493
▁run	-1494
êng	-1495
▁mua	-1496
▁pop	-1497
ps	-1498
▁197	-1499
▁lar	-1500
▁wo	-1501
▁cư	-1502
▁second	-1503
ềm	-1504
ho	-1505
ize	-1506
ness	-1507
ract	-1508
▁both	-1509
▁chương	-1510
uc	-1511
▁yếu	-1512
▁lead	-1513
▁sub	-1514
▁nhiệm	-1515
▁coll	-1516
0.	-1517
ik	-1518
ins	-1519
▁sở	-1520
▁tao	-1521
▁chống	-1522
ale	-1523
▁better	-1524
▁men	-1525
cc	-1526
iếu	-1527
ze	-1528
gg	-1529
▁đôi	-1530
▁ext	-1531
▁cụ	-1532
ures	-1533
ene	-1534
▁11	-1535
▁trái	-1536
day	-1537
nam	-1538
àu	-1539
ever	-1540
▁hộ	-1541
▁import	-1542
▁school	-1543
ms	-1544
oid	-1545
▁pub	-1546
▁chân	-1547
ically	-1548
vern	-1549
▁nổi	-1550
▁dành	-1551
ựa	-1552
the	-1553
▁pat	-1554
▁head	-1555
▁quay	-1556
▁bây	-1557
▁xã	-1558
▁thanh	-1559
▁bus	-1560
ution	-1561
▁away	-1562
rl	-1563
▁another	-1564
▁uni	-1565
ider	-1566
▁giao	-1567
▁vùng	-1568
▁kẻ	-1569
he	-1570
▁unt	-1571
ctor	-1572
▁cour	-1573
▁lot	-1574
▁treat	-1575
▁mat	-1576
▁bay	-1577
▁trưởng	-1578
▁sol	-1579
▁sw	-1580
▁đức	-1581
▁bọn	-1582
▁tuần	-1583
▁cor	-1584
ạp	-1585
ways	-1586
▁lỗi	-1587
ảm	-1588
▁lâu	-1589
▁ret	-1590
ôm	-1591
▁án	-1592
▁wa	-1593
ẫu	-1594
▁eng	-1595
▁effect	-1596
▁phủ	-1597
br	-1598
▁chỗ	-1599
▁đấu	-1600
▁americ	-1601
▁vừa	-1602
ters	-1603
▁def	-1604
▁mã	-1605
lish	-1606
▁hưởng	-1607
▁lưu	-1608
▁body	-1609
ork	-1610
▁govern	-1611
▁det	-1612
▁tránh	-1613
ern	-1614
yl	-1615
ident	-1616
▁viện	-1617
▁dạng	-1618
▁follow	-1619
",	-1620
▁called	-1621
▁es	-1622
ility	-1623
▁lịch	-1624
▁few	-1625
▁mối	-1626
▁mạng	-1627
ute	-1628
▁yeah	-1629
ton	-1630
▁gl	-1631
▁bàn	-1632
▁nhập	-1633
any	-1634
▁ngữ	-1635
cus	-1636
▁chịu	-1637
▁giác	-1638
▁sư	-1639
ments	-1640
▁until	-1641
▁turn	-1642
▁thái	-1643
▁khoa	-1644
▁women	-1645
▁since	-1646
▁tuyệt	-1647
arch	-1648
▁kind	-1649
▁chút	-1650
▁girl	-1651
ặng	-1652
▁sing	-1653
▁càng	-1654
▁fil	-1655
▁group	-1656
ital	-1657
oun	-1658
▁air	-1659
▁kích	-1660
▁ngôi	-1661
▁must	-1662
iness	-1663
▁pos	-1664
▁nhật	-1665
▁áp	-1666
▁lợi	-1667
▁trai	-1668
▁exper	-1669
▁nat	-1670
▁nguồn	-1671
▁dục	-1672
▁thi	-1673
ample	-1674
▁ngủ	-1675
▁human	-1676
▁prov	-1677
▁độc	-1678
ized	-1679
oney	-1680
▁food	-1681
ếp	-1682
▁big	-1683
▁quanh	-1684
ium	-1685
▁xúc	-1686
▁small	-1687
▁important	-1688
▁miss	-1689
▁ide	-1690
▁belie	-1691
▁stop	-1692
ươi	-1693
▁poss	-1694
▁using	-1695
▁hỗ	-1696
aughter	-1697
▁proble	-1698
▁kiện	-1699
▁sal	-1700
pr	-1701
▁eas	-1702
▁châu	-1703
▁health	-1704
▁family	-1705
▁wal	-1706
▁xử	-1707
▁xa	-1708
lease	-1709
▁always	-1710
▁trời	-1711
ional	-1712
▁,	-1713
▁chung	-1714
▁contro	-1715
▁ké	-1716
▁nội	-1717
▁number	-1718
form	-1719
▁cur	-1720
▁dire	-1721
iếng	-1722
▁gắng	-1723
▁house	-1724
6,	-1725
kes	-1726
▁thú	-1727
▁ngài	-1728
▁vẻ	-1729
▁đá	-1730
▁pain	-1731
▁dựng	-1732
wh	-1733
ĩnh	-1734
ts	-1735
▁diện	-1736
▁mark	-1737
▁night	-1738
▁vai	-1739
▁trạng	-1740
rib	-1741
▁phá	-1742
ision	-1743
ov	-1744
▁someone	-1745
ason	-1746
▁power	-1747
▁mill	-1748
▁happen	-1749
▁vòng	-1750
▁appro	-1751
▁cáo	-1752
air	-1753
▁ơn	-1754
1,	-1755
▁known	-1756
▁mr	-1757
4,	-1758
ime	-1759
▁har	-1760
▁17	-1761
▁kiếm	-1762
ism	-1763
▁ey	-1764
▁đóng	-1765
▁wee	-1766
▁actually	-1767
ỉnh	-1768
up	-1769
ão	-1770
ank	-1771
▁lạc	-1772
▁196	-1773
▁rộng	-1774
▁comple	-1775
▁phút	-1776
5,	-1777
▁mil	-1778
▁đàn	-1779
▁bóng	-1780
ately	-1781
▁chuyên	-1782
▁wind	-1783
iew	-1784
▁vo	-1785
▁tóc	-1786
ẵn	-1787
▁(2	-1788
▁top	-1789
▁example	-1790
▁hồi	-1791
▁okay	-1792
▁sit	-1793
▁once	-1794
▁stre	-1795
ral	-1796
▁val	-1797
▁luận	-1798
▁ghi	-1799
▁south	-1800
▁xây	-1801
▁prom	-1802
9,	-1803
▁chuẩn	-1804
ug	-1805
▁leg	-1806
▁đẹp	-1807
▁chia	-1808
▁move	-1809
▁quản	-1810
uyên	-1811
▁máu	-1812
▁kỷ	-1813
▁left	-1814
▁sợ	-1815
iting	-1816
▁without	-1817
ets	-1818
▁vui	-1819
▁fact	-1820
▁often	-1821
▁point	-1822
stand	-1823
ists	-1824
▁dầu	-1825
▁far	-1826
▁incre	-1827
▁riêng	-1828
▁cam	-1829
ẩy	-1830
▁anything	-1831
▁30	-1832
ific	-1833
vent	-1834
▁vũ	-1835
▁sẵn	-1836
▁quest	-1837
▁china	-1838
▁north	-1839
3,	-1840
▁hoà	-1841
▁kỹ	-1842
▁however	-1843
▁vận	-1844
▁tiết	-1845
▁vide	-1846
▁game	-1847
▁ste	-1848
ural	-1849
cl	-1850
▁dấu	-1851
▁fun	-1852
▁tech	-1853
▁states	-1854
body	-1855
cent	-1856
▁lòng	-1857
▁nhiễ	-1858
hn	-1859
▁face	-1860
8,	-1861
▁thúc	-1862
▁law	-1863
ark	-1864
ượt	-1865
▁est	-1866
▁city	-1867
▁consider	-1868
▁vọng	-1869
▁ge	-1870
▁hầu	-1871
▁aut	-1872
zy	-1873
ốn	-1874
▁áo	-1875
ense	-1876
2,	-1877
▁rest	-1878
▁khách	-1879
ữu	-1880
▁chạy	-1881
▁commun	-1882
▁var	-1883
▁less	-1884
▁stand	-1885
▁hữu	-1886
▁later	-1887
▁four	-1888
▁thoại	-1889
▁hạt	-1890
▁khoẻ	-1891
▁thiên	-1892
▁light	-1893
▁united	-1894
èo	-1895
▁hard	-1896
▁biển	-1897
ki	-1898
▁bước	-1899
▁beh	-1900
▁xét	-1901
▁thuyết	-1902
▁del	-1903
▁prof	-1904
▁cap	-1905
▁mấy	-1906
▁next	-1907
gether	-1908
iet	-1909
▁together	-1910
▁cử	-1911
led	-1912
▁organ	-1913
ese	-1914
▁hour	-1915
ages	-1916
▁mùa	-1917
▁common	-1918
ury	-1919
▁build	-1920
▁lệ	-1921
▁main	-1922
úi	-1923
▁tội	-1924
ister	-1925
▁word	-1926
▁against	-1927
ants	-1928
▁lớp	-1929
ta	-1930
▁dem	-1931
▁pri	-1932
▁lear	-1933
ana	-1934
▁lắm	-1935
▁buổi	-1936
▁interest	-1937
▁trực	-1938
7,	-1939
▁đô	-1940
▁kia	-1941
▁ang	-1942
ỏng	-1943
▁hôm	-1944
▁đoạn	-1945
ush	-1946
ane	-1947
ared	-1948
to	-1949
▁nhiệt	-1950
▁kid	-1951
▁month	-1952
me	-1953
▁change	-1954
▁du	-1955
,"	-1956
▁nền	-1957
▁việt	-1958
▁nhiễm	-1959
▁times	-1960
ases	-1961
▁vis	-1962
▁maybe	-1963
▁understand	-1964
▁enough	-1965
▁ký	-1966
ope	-1967
utes	-1968
▁đảm	-1969
▁dung	-1970
▁chúa	-1971
▁16	-1972
▁mom	-1973
▁mind	-1974
▁lang	-1975
▁tre	-1976
▁partic	-1977
▁dri	-1978
▁cân	-1979
▁const	-1980
▁mag	-1981
▁getting	-1982
ao	-1983
▁test	-1984
▁phạm	-1985
▁stay	-1986
▁hoạch	-1987
ủng	-1988
▁speci	-1989
▁west	-1990
ient	-1991
▁univers	-1992
▁194	-1993
com	-1994
▁toà	-1995
ology	-1996
▁government	-1997
ger	-1998
osed	-1999
▁195	-2000
▁bro	-2001
med	-2002
ats	-2003
▁side	-2004
▁doanh	-2005
▁ngoại	-2006
ected	-2007
▁hold	-2008
▁hát	-2009
▁mem	-2010
▁national	-2011
ỡng	-2012
▁cạnh	-2013
▁pot	-2014
▁inform	-2015
▁đứng	-2016
▁km	-2017
▁techn	-2018
els	-2019
âng	-2020
▁hist	-2021
▁grow	-2022
▁phổ	-2023
▁đầy	-2024
ains	-2025
ices	-2026
▁aff	-2027
▁gre	-2028
▁video	-2029
▁pass	-2030
ams	-2031
ames	-2032
▁viet	-2033
▁class	-2034
▁vir	-2035
▁within	-2036
ama	-2037
▁đứa	-2038
ues	-2039
▁adm	-2040
▁tiểu	-2041
▁hair	-2042
▁nghị	-2043
▁huy	-2044
my	-2045
▁process	-2046
▁mật	-2047
▁yes	-2048
▁chó	-2049
▁fore	-2050
▁father	-2051
▁hơi	-2052
▁100	-2053
▁god	-2054
▁level	-2055
▁(19	-2056
▁tàu	-2057
▁ngăn	-2058
ott	-2059
▁ly	-2060
▁appe	-2061
▁bào	-2062
▁skin	-2063
▁money	-2064
▁bức	-2065
▁loài	-2066
▁red	-2067
ertain	-2068
▁đạt	-2069
▁business	-2070
▁days	-2071
▁product	-2072
ird	-2073
▁john	-2074
uốt	-2075
▁done	-2076
rug	-2077
ín	-2078
▁cải	-2079
▁khăn	-2080
▁thẳng	-2081
▁leave	-2082
▁vietnam	-2083
ement	-2084
▁pa	-2085
▁cell	-2086
▁khá	-2087
▁đêm	-2088
ốt	-2089
▁hal	-2090
▁activ	-2091
▁chứa	-2092
▁sang	-2093
▁order	-2094
ont	-2095
▁soát	-2096
▁coi	-2097
▁occ	-2098
▁pur	-2099
▁tem	-2100
▁result	-2101
▁lãnh	-2102
▁live	-2103
xy	-2104
▁xo	-2105
▁told	-2106
▁state	-2107
oms	-2108
▁bi	-2109
▁contin	-2110
▁hà	-2111
ret	-2112
▁chấp	-2113
ka	-2114
ove	-2115
inal	-2116
▁kim	-2117
ma	-2118
▁came	-2119
▁song	-2120
▁support	-2121
▁term	-2122
▁everything	-2123
ny	-2124
ection	-2125
▁remember	-2126
ộn	-2127
▁able	-2128
ead	-2129
▁hôn	-2130
▁son	-2131
▁bad	-2132
▁sci	-2133
▁making	-2134
▁today	-2135
sh	-2136
▁country	-2137
▁include	-2138
▁children	-2139
-1	-2140
ata	-2141
▁sắp	-2142
▁control	-2143
▁nothing	-2144
▁hồ	-2145
▁gra	-2146
ries	-2147
▁blood	-2148
▁dữ	-2149
ably	-2150
▁kéo	-2151
▁tức	-2152
▁free	-2153
▁including	-2154
▁meet	-2155
▁sym	-2156
▁serv	-2157
▁trying	-2158
▁elect	-2159
▁design	-2160
▁ích	-2161
▁friends	-2162
▁cy	-2163
▁hoàng	-2164
tr	-2165
▁je	-2166
itive	-2167
▁thiếu	-2168
▁alb	-2169
▁polit	-2170
▁area	-2171
ined	-2172
▁pet	-2173
▁sắc	-2174
▁press	-2175
ison	-2176
conom	-2177
▁trông	-2178
▁looking	-2179
4.	-2180
gin	-2181
▁kê	-2182
▁trận	-2183
ake	-2184
▁vết	-2185
▁requ	-2186
▁bill	-2187
▁cập	-2188
ruct	-2189
ote	-2190
▁win	-2191
▁sever	-2192
▁public	-2193
ield	-2194
li	-2195
ặn	-2196
▁chắn	-2197
▁doctor	-2198
ãi	-2199
cle	-2200
▁đoán	-2201
ulation	-2202
▁bas	-2203
▁book	-2204
▁allow	-2205
imes	-2206
▁băng	-2207
▁based	-2208
▁relations	-2209
uss	-2210
▁having	-2211
mi	-2212
▁ter	-2213
▁rad	-2214
▁fre	-2215
▁sâu	-2216
aining	-2217
ửi	-2218
▁ngươi	-2219
que	-2220
▁read	-2221
ior	-2222
▁econom	-2223
▁chr	-2224
▁expl	-2225
une	-2226
iter	-2227
▁star	-2228
ention	-2229
▁cắt	-2230
▁hậu	-2231
▁môi	-2232
▁cause	-2233
▁hại	-2234
▁25	-2235
▁oth	-2236
▁13	-2237
▁ổn	-2238
▁adv	-2239
▁ris	-2240
▁break	-2241
▁mother	-2242
rict	-2243
▁speak	-2244
▁experi	-2245
ange	-2246
ature	-2247
▁case	-2248
▁sai	-2249
▁full	-2250
▁thậm	-2251
▁social	-2252
cer	-2253
ica	-2254
ained	-2255
ler	-2256
▁party	-2257
▁ấn	-2258
▁mas	-2259
▁else	-2260
▁others	-2261
▁hey	-2262
▁drug	-2263
▁ánh	-2264
▁five	-2265
▁dựa	-2266
▁believe	-2267
ently	-2268
▁đu	-2269
▁instead	-2270
▁đa	-2271
▁minutes	-2272
▁ru	-2273
▁mạch	-2274
▁xung	-2275
▁lựa	-2276
ley	-2277
▁đoàn	-2278
▁record	-2279
▁bang	-2280
▁bring	-2281
▁means	-2282
▁ngồi	-2283
line	-2284
▁dam	-2285
▁equ	-2286
▁tồn	-2287
▁quần	-2288
▁ju	-2289
ards	-2290
▁phù	-2291
▁thằng	-2292
▁king	-2293
▁took	-2294
▁ve	-2295
ling	-2296
▁chờ	-2297
▁món	-2298
▁watch	-2299
▁lá	-2300
▁cut	-2301
▁thấp	-2302
mer	-2303
▁đọc	-2304
▁wanted	-2305
▁avoid	-2306
▁bit	-2307
▁opp	-2308
▁please	-2309
▁cra	-2310
▁sun	-2311
▁cười	-2312
▁company	-2313
▁hiểm	-2314
▁boy	-2315
▁phong	-2316
▁thưởng	-2317
▁suc	-2318
▁redu	-2319
▁several	-2320
bers	-2321
▁ngôn	-2322
▁$	-2323
▁sho	-2324
▁tuyến	-2325
▁possible	-2326
▁tệ	-2327
▁sle	-2328
app	-2329
less	-2330
▁ap	-2331
ready	-2332
▁information	-2333
kh	-2334
▁sor	-2335
fer	-2336
▁sàng	-2337
▁become	-2338
▁rele	-2339
ken	-2340
▁already	-2341
▁music	-2342
▁eur	-2343
▁large	-2344
▁land	-2345
▁line	-2346
▁thưa	-2347
▁idea	-2348
cing	-2349
▁ni	-2350
▁cond	-2351
▁room	-2352
▁toán	-2353
▁trải	-2354
▁maj	-2355
▁seem	-2356
▁simp	-2357
▁heart	-2358
▁mid	-2359
▁tom	-2360
itch	-2361
▁trùng	-2362
apan	-2363
▁near	-2364
20	-2365
▁offic	-2366
▁conn	-2367
▁comput	-2368
▁bổ	-2369
▁went	-2370
ption	-2371
tiếng	-2372
▁bánh	-2373
ories	-2374
▁report	-2375
▁pay	-2376
sp	-2377
▁nhắc	-2378
▁oper	-2379
▁nhé	-2380
▁oil	-2381
▁kiểu	-2382
▁learn	-2383
▁university	-2384
ẩu	-2385
row	-2386
▁check	-2387
▁thiện	-2388
▁talking	-2389
▁bra	-2390
▁phys	-2391
ãn	-2392
▁ir	-2393
ides	-2394
▁black	-2395
▁close	-2396
▁caus	-2397
▁hả	-2398
ones	-2399
▁president	-2400
▁âu	-2401
▁lắng	-2402
▁young	-2403
▁direct	-2404
▁căn	-2405
▁hot	-2406
▁khai	-2407
▁progr	-2408
let	-2409
ife	-2410
arent	-2411
▁past	-2412
▁sạch	-2413
▁giản	-2414
▁não	-2415
▁problem	-2416
▁nhẹ	-2417
ither	-2418
▁coming	-2419
▁ann	-2420
▁hear	-2421
▁album	-2422
▁thụ	-2423
▁million	-2424
▁er	-2425
side	-2426
▁hạ	-2427
▁nối	-2428
ee	-2429
▁working	-2430
ói	-2431
gen	-2432
▁lab	-2433
ba	-2434
▁fu	-2435
▁meth	-2436
ara	-2437
▁14	-2438
▁death	-2439
▁thất	-2440
▁rối	-2441
▁mong	-2442
▁bầu	-2443
▁asso	-2444
▁seen	-2445
go	-2446
ised	-2447
▁langu	-2448
▁international	-2449
att	-2450
▁american	-2451
▁dị	-2452
▁swe	-2453
▁woman	-2454
rop	-2455
rent	-2456
▁week	-2457
▁gửi	-2458
▁japan	-2459
▁50	-2460
▁ràng	-2461
uyện	-2462
▁clean	-2463
▁xuyên	-2464
▁trừ	-2465
▁clear	-2466
▁whole	-2467
▁buộc	-2468
▁type	-2469
▁ii	-2470
▁tả	-2471
▁ele	-2472
▁dòng	-2473
▁afric	-2474
▁perform	-2475
▁short	-2476
▁relationship	-2477
▁kì	-2478
ending	-2479
ering	-2480
▁hours	-2481
▁became	-2482
5.	-2483
mber	-2484
fic	-2485
por	-2486
ator	-2487
▁typ	-2488
▁thắng	-2489
▁general	-2490
▁gm	-2491
odes	-2492
way	-2493
2.	-2494
▁mẫu	-2495
▁tai	-2496
▁tấn	-2497
▁conc	-2498
▁cult	-2499
▁suốt	-2500
▁vợ	-2501
ency	-2502
▁mal	-2503
▁cánh	-2504
ization	-2505
ớm	-2506
▁least	-2507
▁giấy	-2508
▁quen	-2509
search	-2510
laughter	-2511
▁cuốn	-2512
▁major	-2513
▁cop	-2514
▁medic	-2515
▁listen	-2516
ino	-2517
▁job	-2518
ired	-2519
▁emp	-2520
▁gốc	-2521
▁along	-2522
▁nghiêm	-2523
▁mic	-2524
▁germ	-2525
ots	-2526
▁trao	-2527
ein	-2528
ried	-2529
▁luyện	-2530
▁associ	-2531
▁lai	-2532
▁dead	-2533
▁stat	-2534
▁neg	-2535
▁taking	-2536
ria	-2537
▁ben	-2538
▁tri	-2539
▁drink	-2540
▁early	-2541
▁chàng	-2542
▁present	-2543
1.	-2544
▁non	-2545
▁east	-2546
▁profess	-2547
3.	-2548
▁nóng	-2549
erc	-2550
▁dây	-2551
ences	-2552
▁sometimes	-2553
▁team	-2554
▁khoản	-2555
▁sleep	-2556
▁return	-2557
▁research	-2558
▁nhu	-2559
▁born	-2560
▁xếp	-2561
▁ô	-2562
son	-2563
▁1,	-2564
▁chữ	-2565
▁hyd	-2566
▁lim	-2567
▁local	-2568
▁khô	-2569
▁low	-2570
▁trì	-2571
▁vời	-2572
▁rece	-2573
gn	-2574
ượu	-2575
inist	-2576
▁cat	-2577
▁tạp	-2578
▁story	-2579
omer	-2580
▁net	-2581
▁xấu	-2582
▁half	-2583
▁manag	-2584
▁iss	-2585
▁sil	-2586
▁web	-2587
ination	-2588
9.	-2589
▁si	-2590
ưng	-2591
▁nu	-2592
▁đảo	-2593
▁focus	-2594
▁orig	-2595
▁prob	-2596
▁rượu	-2597
▁mèo	-2598
▁trắng	-2599
▁course	-2600
▁tôn	-2601
ưu	-2602
▁sound	-2603
hy	-2604
ode	-2605
▁cost	-2606
▁đẩy	-2607
▁dương	-2608
▁193	-2609
▁mái	-2610
õi	-2611
▁+	-2612
▁ước	-2613
8.	-2614
no	-2615
▁sex	-2616
▁cấu	-2617
▁rev	-2618
▁white	-2619
▁sir	-2620
▁giám	-2621
▁vill	-2622
▁invest	-2623
7.	-2624
aut	-2625
sel	-2626
▁film	-2627
▁click	-2628
atic	-2629
▁đài	-2630
▁deal	-2631
▁saw	-2632
▁khối	-2633
▁port	-2634
▁started	-2635
6.	-2636
▁đỏ	-2637
▁foot	-2638
ended	-2639
▁special	-2640
▁uh	-2641
▁quý	-2642
▁earth	-2643
▁dev	-2644
▁lat	-2645
▁tỉnh	-2646
▁thoát	-2647
▁accord	-2648
▁treatment	-2649
▁div	-2650
▁though	-2651
ipp	-2652
ụng	-2653
▁dog	-2654
▁tỷ	-2655
▁sorry	-2656
▁tuyên	-2657
▁strong	-2658
ada	-2659
ann	-2660
ying	-2661
▁mass	-2662
▁nhờ	-2663
▁guys	-2664
▁nặng	-2665
▁trách	-2666
▁market	-2667
▁usually	-2668
▁ur	-2669
▁kính	-2670
▁sơ	-2671
▁phiên	-2672
▁norm	-2673
ox	-2674
par	-2675
fort	-2676
de	-2677
cks	-2678
▁buồn	-2679
▁york	-2680
▁comb	-2681
▁following	-2682
▁vượt	-2683
▁1.	-2684
▁eat	-2685
▁scre	-2686
omb	-2687
▁tù	-2688
▁pract	-2689
▁certain	-2690
▁vàng	-2691
▁hút	-2692
ouch	-2693
▁rời	-2694
itions	-2695
▁due	-2696
▁ce	-2697
▁đen	-2698
▁pap	-2699
▁trụ	-2700
▁phil	-2701
▁super	-2702
▁nạn	-2703
▁phê	-2704
eth	-2705
▁chăm	-2706
▁phot	-2707
▁teach	-2708
ót	-2709
ted	-2710
unch	-2711
▁sớm	-2712
▁yet	-2713
▁súng	-2714
▁dan	-2715
▁hạng	-2716
▁tuỳ	-2717
cially	-2718
▁sân	-2719
▁đỡ	-2720
▁invol	-2721
iod	-2722
▁ago	-2723
▁fig	-2724
ọt	-2725
▁hur	-2726
▁fight	-2727
▁thinking	-2728
▁baby	-2729
▁cover	-2730
▁store	-2731
▁cơn	-2732
▁six	-2733
▁hiệp	-2734
▁nghỉ	-2735
▁dra	-2736
▁kháng	-2737
▁step	-2738
▁đảng	-2739
▁poland	-2740
ality	-2741
▁club	-2742
▁situ	-2743
▁thảo	-2744
▁trúc	-2745
▁chỉnh	-2746
ich	-2747
▁mot	-2748
▁success	-2749
▁huỷ	-2750
▁pret	-2751
▁sent	-2752
▁xanh	-2753
ump	-2754
vir	-2755
▁thịt	-2756
▁wrong	-2757
▁district	-2758
cin	-2759
▁question	-2760
ided	-2761
▁lạnh	-2762
▁desc	-2763
▁space	-2764
erv	-2765
▁cận	-2766
▁dry	-2767
▁matter	-2768
xim	-2769
amin	-2770
▁bắn	-2771
▁đổ	-2772
▁camp	-2773
▁wait	-2774
▁complete	-2775
▁cir	-2776
▁thuận	-2777
ax	-2778
▁dạy	-2779
▁dàng	-2780
sy	-2781
ergy	-2782
ured	-2783
▁chào	-2784
▁according	-2785
▁mess	-2786
▁begin	-2787
sw	-2788
▁bí	-2789
inese	-2790
▁either	-2791
▁giai	-2792
▁=	-2793
▁hell	-2794
▁town	-2795
▁proper	-2796
ew	-2797
áy	-2798
▁anim	-2799
jo	-2800
▁buy	-2801
▁san	-2802
ential	-2803
▁rửa	-2804
▁đợi	-2805
▁ngắn	-2806
▁create	-2807
▁gã	-2808
▁brain	-2809
▁gmina	-2810
▁inside	-2811
enn	-2812
▁post	-2813
▁reach	-2814
▁months	-2815
▁khẩu	-2816
ẹn	-2817
anna	-2818
▁niệm	-2819
▁period	-2820
▁single	-2821
▁tit	-2822
▁percent	-2823
▁loạn	-2824
▁quên	-2825
ca	-2826
▁fut	-2827
inistr	-2828
▁tải	-2829
ether	-2830
▁series	-2831
ered	-2832
▁bốn	-2833
▁bữa	-2834
gar	-2835
▁fur	-2836
▁sum	-2837
▁đem	-2838
▁current	-2839
ĩa	-2840
▁mũ	-2841
ances	-2842
ives	-2843
▁fall	-2844
▁probably	-2845
za	-2846
idence	-2847
▁dom	-2848
▁cong	-2849
▁thai	-2850
▁walk	-2851
ety	-2852
hor	-2853
raph	-2854
?"	-2855
▁hon	-2856
▁hands	-2857
▁educ	-2858
▁ident	-2859
▁makes	-2860
▁ep	-2861
▁europe	-2862
▁program	-2863
▁likely	-2864
▁computer	-2865
zc	-2866
ock	-2867
▁lễ	-2868
ilar	-2869
▁hấp	-2870
▁chinese	-2871
▁addition	-2872
▁sóc	-2873
▁mắc	-2874
▁pie	-2875
▁tốc	-2876
▁administr	-2877
aps	-2878
ony	-2879
▁account	-2880
▁dou	-2881
▁dise	-2882
▁countries	-2883
▁bại	-2884
▁chồng	-2885
▁creat	-2886
▁stu	-2887
▁lệnh	-2888
▁quick	-2889
aces	-2890
▁màn	-2891
▁event	-2892
▁central	-2893
▁history	-2894
▁spr	-2895
▁self	-2896
▁thập	-2897
▁chiều	-2898
ano	-2899
▁bal	-2900
icult	-2901
▁căng	-2902
▁pick	-2903
estern	-2904
▁development	-2905
bb	-2906
▁dre	-2907
▁infl	-2908
▁prin	-2909
▁tv	-2910
▁đăng	-2911
▁impro	-2912
af	-2913
▁24	-2914
▁age	-2915
▁ill	-2916
▁data	-2917
ów	-2918
▁bảng	-2919
▁jack	-2920
▁phúc	-2921
▁compet	-2922
▁saying	-2923
ball	-2924
▁glo	-2925
▁tele	-2926
▁giành	-2927
èn	-2928
ico	-2929
▁pal	-2930
▁sam	-2931
▁ngược	-2932
▁0	-2933
▁mor	-2934
▁khám	-2935
▁soon	-2936
▁rights	-2937
▁century	-2938
ụp	-2939
ape	-2940
▁thơ	-2941
▁coun	-2942
▁energy	-2943
▁outside	-2944
▁prevent	-2945
▁thận	-2946
▁chảy	-2947
▁given	-2948
pecially	-2949
▁alm	-2950
▁eyes	-2951
▁risk	-2952
▁sympt	-2953
▁reason	-2954
▁dad	-2955
▁tan	-2956
ived	-2957
lished	-2958
▁squ	-2959
▁dưỡng	-2960
dy	-2961
ngth	-2962
▁thở	-2963
▁object	-2964
where	-2965
▁hạnh	-2966
▁vict	-2967
▁ax	-2968
▁tắc	-2969
▁phone	-2970
▁future	-2971
▁everyone	-2972
▁among	-2973
▁difficult	-2974
▁đe	-2975
▁hải	-2976
▁làng	-2977
▁project	-2978
▁internet	-2979
▁front	-2980
▁khoá	-2981
▁view	-2982
▁killed	-2983
era	-2984
▁vầ	-2985
eria	-2986
iệng	-2987
▁die	-2988
▁đột	-2989
▁sour	-2990
▁phóng	-2991
▁arg	-2992
▁tín	-2993
vious	-2994
▁miệng	-2995
▁vương	-2996
▁chuyến	-2997
▁amount	-2998
▁sửa	-2999
▁mời	-3000
▁ngân	-3001
▁đích	-3002
▁alone	-3003
▁trust	-3004
ood	-3005
▁deep	-3006
▁khởi	-3007
▁particular	-3008
lex	-3009
,000	-3010
pect	-3011
▁jan	-3012
▁nửa	-3013
ients	-3014
rit	-3015
▁lửa	-3016
aring	-3017
▁parent	-3018
▁select	-3019
ko	-3020
▁answ	-3021
▁trad	-3022
loy	-3023
work	-3024
▁pan	-3025
▁chem	-3026
▁nhấp	-3027
▁rich	-3028
▁tiện	-3029
selves	-3030
ude	-3031
▁key	-3032
▁mềm	-3033
▁vol	-3034
▁mult	-3035
cover	-3036
▁windows	-3037
bal	-3038
▁nuôi	-3039
▁needs	-3040
▁especially	-3041
▁thank	-3042
▁biên	-3043
▁soci	-3044
ivid	-3045
▁đào	-3046
▁rather	-3047
óp	-3048
▁40	-3049
▁hi	-3050
▁oct	-3051
▁vers	-3052
▁language	-3053
▁tổn	-3054
▁fire	-3055
▁charact	-3056
of	-3057
▁bur	-3058
▁cast	-3059
▁nice	-3060
▁stress	-3061
▁bed	-3062
▁niên	-3063
▁thuỷ	-3064
▁dần	-3065
▁inh	-3066
cum	-3067
ians	-3068
▁bott	-3069
▁safe	-3070
▁repres	-3071
▁whether	-3072
òi	-3073
▁mại	-3074
▁nga	-3075
ental	-3076
dle	-3077
etic	-3078
▁eye	-3079
▁tot	-3080
▁tầm	-3081
la	-3082
▁191	-3083
ified	-3084
▁touch	-3085
ùa	-3086
▁á	-3087
▁tụ	-3088
▁lành	-3089
▁study	-3090
▁mai	-3091
▁dest	-3092
▁late	-3093
▁nông	-3094
▁viêm	-3095
▁khủng	-3096
ob	-3097
ges	-3098
▁192	-3099
▁tĩnh	-3100
▁beaut	-3101
▁political	-3102
▁card	-3103
▁soft	-3104
▁text	-3105
▁released	-3106
▁lạ	-3107
ga	-3108
▁sẻ	-3109
▁tái	-3110
▁hope	-3111
▁exact	-3112
▁christ	-3113
▁natural	-3114
▁similar	-3115
▁lost	-3116
▁individ	-3117
▁2.	-3118
▁rom	-3119
▁lĩnh	-3120
▁grand	-3121
▁march	-3122
▁experience	-3123
▁thừa	-3124
▁wife	-3125
▁happened	-3126
▁21	-3127
▁morn	-3128
▁secret	-3129
ứt	-3130
viron	-3131
▁russ	-3132
ey	-3133
▁khắc	-3134
▁obs	-3135
▁meas	-3136
ela	-3137
▁voiv	-3138
oud	-3139
▁đế	-3140
▁says	-3141
▁breat	-3142
▁ngành	-3143
▁van	-3144
▁sông	-3145
▁environ	-3146
▁dõi	-3147
▁chữa	-3148
▁western	-3149
▁ngờ	-3150
urity	-3151
odeship	-3152
▁cà	-3153
▁ung	-3154
▁acid	-3155
▁medical	-3156
▁voivodeship	-3157
▁field	-3158
▁nhiêu	-3159
ham	-3160
ming	-3161
port	-3162
▁nỗi	-3163
▁chặn	-3164
aly	-3165
▁dig	-3166
▁hit	-3167
▁avail	-3168
▁abs	-3169
▁leav	-3170
▁symptoms	-3171
ky	-3172
▁sung	-3173
▁cường	-3174
lin	-3175
▁khổ	-3176
▁exerc	-3177
itary	-3178
▁colle	-3179
▁morning	-3180
▁bày	-3181
▁đốc	-3182
anian	-3183
lling	-3184
▁fail	-3185
▁games	-3186
▁chạm	-3187
▁works	-3188
cha	-3189
bert	-3190
▁hộp	-3191
▁vâng	-3192
▁syria	-3193
▁tar	-3194
▁village	-3195
▁aug	-3196
▁rob	-3197
▁attack	-3198
▁building	-3199
▁individual	-3200
▁box	-3201
▁jud	-3202
▁sóng	-3203
▁fav	-3204
▁tộc	-3205
▁xong	-3206
▁°	-3207
▁hydro	-3208
▁flo	-3209
▁wall	-3210
▁behav	-3211
▁đám	-3212
▁brother	-3213
ateg	-3214
▁phó	-3215
▁dừng	-3216
ograph	-3217
▁third	-3218
▁nha	-3219
urs	-3220
▁fa	-3221
▁chóng	-3222
▁access	-3223
▁population	-3224
▁&	-3225
rodu	-3226
▁mac	-3227
▁prim	-3228
▁true	-3229
▁protein	-3230
ec	-3231
▁hoạ	-3232
▁hang	-3233
▁heard	-3234
▁virus	-3235
▁method	-3236
▁effects	-3237
▁arm	-3238
▁police	-3239
ớt	-3240
ogn	-3241
ross	-3242
▁gun	-3243
▁comes	-3244
▁mater	-3245
▁positive	-3246
▁cầm	-3247
▁gar	-3248
▁geor	-3249
▁contact	-3250
▁protect	-3251
▁bè	-3252
▁almost	-3253
den	-3254
oint	-3255
▁lao	-3256
▁emot	-3257
▁linh	-3258
▁miễn	-3259
though	-3260
▁phán	-3261
▁mad	-3262
▁anyone	-3263
▁further	-3264
▁exc	-3265
▁author	-3266
ugh	-3267
▁mùi	-3268
▁đĩa	-3269
▁sold	-3270
▁happy	-3271
mon	-3272
▁nhấn	-3273
▁plant	-3274
da	-3275
▁núi	-3276
▁knew	-3277
acy	-3278
▁ngừng	-3279
▁xương	-3280
▁security	-3281
ially	-3282
▁repl	-3283
▁living	-3284
▁although	-3285
ney	-3286
▁sổ	-3287
▁los	-3288
▁sáu	-3289
▁thăm	-3290
▁problems	-3291
ầng	-3292
ished	-3293
▁taken	-3294
▁sn	-3295
born	-3296
ials	-3297
▁news	-3298
▁wants	-3299
▁longer	-3300
ored	-3301
▁khuẩn	-3302
▁ready	-3303
▁behind	-3304
▁capital	-3305
▁position	-3306
ala	-3307
▁thao	-3308
▁appear	-3309
▁discover	-3310
read	-3311
▁vit	-3312
▁imag	-3313
▁mach	-3314
▁park	-3315
▁lower	-3316
▁opt	-3317
thern	-3318
▁suất	-3319
▁available	-3320
▁lũ	-3321
▁lộ	-3322
▁kem	-3323
▁túi	-3324
▁champ	-3325
▁pu	-3326
▁ẩn	-3327
▁cook	-3328
▁jour	-3329
▁sett	-3330
▁looks	-3331
ression	-3332
▁environment	-3333
ros	-3334
▁cục	-3335
▁sat	-3336
pped	-3337
▁góc	-3338
▁hẹn	-3339
▁trấn	-3340
▁asked	-3341
▁serious	-3342
▁ach	-3343
▁ten	-3344
▁indust	-3345
▁toward	-3346
ilt	-3347
▁lông	-3348
▁began	-3349
▁sense	-3350
▁khuy	-3351
bon	-3352
▁mơ	-3353
aced	-3354
▁hor	-3355
ggest	-3356
▁ways	-3357
▁model	-3358
▁pretty	-3359
ấc	-3360
aim	-3361
▁sept	-3362
▁chiếm	-3363
▁member	-3364
▁myself	-3365
itor	-3366
▁mur	-3367
▁rút	-3368
▁dark	-3369
▁yên	-3370
▁across	-3371
▁season	-3372
▁suggest	-3373
▁tắm	-3374
▁react	-3375
iy	-3376
▁sus	-3377
amine	-3378
asing	-3379
▁gave	-3380
▁represent	-3381
▁tỏ	-3382
ware	-3383
▁tầng	-3384
▁court	-3385
▁recogn	-3386
01	-3387
alle	-3388
gest	-3389
▁bud	-3390
▁bạc	-3391
▁pull	-3392
▁huyết	-3393
ole	-3394
▁kil	-3395
▁won	-3396
ively	-3397
▁frank	-3398
▁quảng	-3399
▁write	-3400
▁august	-3401
▁weight	-3402
▁respons	-3403
anda	-3404
▁slow	-3405
▁feeling	-3406
▁fine	-3407
▁loạt	-3408
▁role	-3409
▁ground	-3410
▁tận	-3411
▁color	-3412
▁refer	-3413
▁dai	-3414
▁don	-3415
▁gold	-3416
▁hứng	-3417
▁phối	-3418
▁chance	-3419
▁entire	-3420
ober	-3421
▁sea	-3422
▁vua	-3423
▁died	-3424
▁increase	-3425
▁cool	-3426
▁priv	-3427
▁cases	-3428
▁uỷ	-3429
▁pen	-3430
▁file	-3431
▁moment	-3432
orts	-3433
▁già	-3434
anger	-3435
▁burn	-3436
▁suff	-3437
▁chuột	-3438
cul	-3439
verse	-3440
va	-3441
lor	-3442
ume	-3443
▁oxy	-3444
▁khắp	-3445
▁răng	-3446
▁temper	-3447
▁cứng	-3448
▁necess	-3449
ival	-3450
▁deb	-3451
▁mũi	-3452
▁office	-3453
uth	-3454
▁vẽ	-3455
▁flu	-3456
▁daughter	-3457
book	-3458
▁ống	-3459
▁easy	-3460
▁kịch	-3461
▁ừ	-3462
▁ủng	-3463
▁tịch	-3464
▁điên	-3465
▁đuổi	-3466
olution	-3467
▁2,	-3468
▁bột	-3469
▁nhỉ	-3470
▁hung	-3471
▁thiệu	-3472
▁accept	-3473
▁service	-3474
▁dậy	-3475
▁determ	-3476
iếp	-3477
ands	-3478
▁bir	-3479
▁siêu	-3480
▁lives	-3481
▁attention	-3482
▁que	-3483
▁heav	-3484
▁wond	-3485
▁bạo	-3486
▁pict	-3487
'.	-3488
dom	-3489
▁bene	-3490
▁cold	-3491
▁fish	-3492
50	-3493
ius	-3494
sych	-3495
▁fat	-3496
▁trại	-3497
lly	-3498
ned	-3499
▁rock	-3500
▁military	-3501
▁ton	-3502
▁june	-3503
▁thoả	-3504
▁words	-3505
▁parents	-3506
èm	-3507
ills	-3508
▁chậm	-3509
▁remove	-3510
su	-3511
▁ức	-3512
▁dav	-3513
▁save	-3514
▁worked	-3515
▁products	-3516
▁cit	-3517
▁fem	-3518
▁tấm	-3519
▁nhằm	-3520
bi	-3521
▁convers	-3522
▁october	-3523
▁september	-3524
cu	-3525
for	-3526
yle	-3527
▁cup	-3528
▁mart	-3529
▁phẫu	-3530
▁situation	-3531
▁q	-3532
▁lay	-3533
▁môn	-3534
▁crit	-3535
▁nàng	-3536
▁choose	-3537
face	-3538
aster	-3539
▁phận	-3540
▁award	-3541
▁weeks	-3542
▁personal	-3543
▁hề	-3544
▁hus	-3545
▁ice	-3546
▁thẩm	-3547
▁popular	-3548
ague	-3549
ches	-3550
▁coup	-3551
▁tour	-3552
▁areas	-3553
▁capt	-3554
▁miền	-3555
▁quang	-3556
▁tường	-3557
ught	-3558
▁đáp	-3559
▁2011	-3560
▁địch	-3561
▁chiếu	-3562
▁specific	-3563
▁aud	-3564
▁polish	-3565
ological	-3566
bur	-3567
▁aust	-3568
medi	-3569
▁giây	-3570
▁online	-3571
▁disease	-3572
omm	-3573
▁cốc	-3574
▁gắn	-3575
▁tur	-3576
▁nhảy	-3577
▁deg	-3578
▁rul	-3579
▁tắt	-3580
▁respect	-3581
▁hồng	-3582
▁tend	-3583
▁middle	-3584
ises	-3585
▁education	-3586
▁bề	-3587
▁chụp	-3588
▁cells	-3589
▁pomer	-3590
ịp	-3591
ids	-3592
▁mer	-3593
▁america	-3594
▁technology	-3595
men	-3596
▁nổ	-3597
▁fund	-3598
▁questions	-3599
iety	-3600
▁sữa	-3601
ii	-3602
oph	-3603
load	-3604
▁2000	-3605
▁grad	-3606
zil	-3607
▁né	-3608
▁góp	-3609
▁apply	-3610
▁lỗ	-3611
▁ấm	-3612
▁claim	-3613
▁negative	-3614
aged	-3615
rench	-3616
▁phức	-3617
▁ther	-3618
▁điển	-3619
band	-3620
▁giận	-3621
▁wars	-3622
▁psych	-3623
ability	-3624
▁simply	-3625
▁partner	-3626
bit	-3627
▁normal	-3628
ify	-3629
▁gets	-3630
▁trứng	-3631
▁drive	-3632
▁approxim	-3633
ex	-3634
arr	-3635
▁mir	-3636
▁table	-3637
▁struct	-3638
▁thí	-3639
ising	-3640
▁kids	-3641
▁kore	-3642
▁force	-3643
▁ul	-3644
▁fel	-3645
▁thờ	-3646
▁brit	-3647
▁cross	-3648
▁exist	-3649
.,	-3650
col	-3651
▁green	-3652
▁quite	-3653
▁thoải	-3654
▁instit	-3655
▁lái	-3656
▁host	-3657
▁physical	-3658
ero	-3659
ged	-3660
iding	-3661
▁estab	-3662
▁command	-3663
▁science	-3664
nal	-3665
ols	-3666
val	-3667
▁bật	-3668
▁2012	-3669
▁gone	-3670
▁economic	-3671
▁pomeranian	-3672
pper	-3673
▁rơi	-3674
▁corn	-3675
▁feet	-3676
▁page	-3677
▁extra	-3678
▁hương	-3679
▁center	-3680
▁exactly	-3681
ued	-3682
▁os	-3683
▁tờ	-3684
izing	-3685
▁chim	-3686
▁init	-3687
▁sens	-3688
▁travel	-3689
▁provide	-3690
▁developed	-3691
gi	-3692
▁ki	-3693
▁mix	-3694
▁fran	-3695
▁nhắn	-3696
▁prop	-3697
▁river	-3698
▁character	-3699
▁22	-3700
cười	-3701
▁apr	-3702
▁paper	-3703
▁scient	-3704
▁lí	-3705
▁led	-3706
▁sen	-3707
▁located	-3708
▁enc	-3709
▁ham	-3710
▁2014	-3711
▁stra	-3712
▁favor	-3713
▁ẩm	-3714
▁media	-3715
▁polic	-3716
▁former	-3717
ato	-3718
▁fac	-3719
▁lược	-3720
▁brazil	-3721
▁island	-3722
ram	-3723
▁szc	-3724
▁giàu	-3725
▁above	-3726
▁stuff	-3727
▁hài	-3728
▁hỗn	-3729
▁khảo	-3730
▁trăm	-3731
▁warm	-3732
itting	-3733
ườn	-3734
full	-3735
▁share	-3736
▁english	-3737
▁nỗ	-3738
uary	-3739
▁thả	-3740
itten	-3741
▁door	-3742
ission	-3743
▁action	-3744
▁couple	-3745
▁screen	-3746
osh	-3747
imate	-3748
▁2010	-3749
▁liệt	-3750
▁tor	-3751
▁arch	-3752
▁release	-3753
ef	-3754
ula	-3755
▁eth	-3756
▁imm	-3757
▁lau	-3758
▁lầm	-3759
▁fast	-3760
▁muối	-3761
▁niềm	-3762
artment	-3763
▁german	-3764
▁married	-3765
▁members	-3766
endo	-3767
▁binh	-3768
▁cancer	-3769
▁healthy	-3770
▁signific	-3771
ago	-3772
▁blue	-3773
▁khiển	-3774
mp	-3775
▁ol	-3776
▁ess	-3777
▁anti	-3778
▁dece	-3779
▁draw	-3780
▁prison	-3781
▁playing	-3782
cri	-3783
▁3.	-3784
rest	-3785
sinh	-3786
▁mel	-3787
▁mừng	-3788
▁thánh	-3789
ror	-3790
▁mist	-3791
▁needed	-3792
do	-3793
ief	-3794
▁60	-3795
▁giỏi	-3796
▁send	-3797
▁viol	-3798
▁becom	-3799
▁higher	-3800
▁reduce	-3801
▁held	-3802
▁email	-3803
▁wanna	-3804
▁canada	-3805
head	-3806
ogle	-3807
ples	-3808
reme	-3809
▁feed	-3810
▁july	-3811
▁stri	-3812
▁mount	-3813
▁immedi	-3814
ades	-3815
iful	-3816
▁hosp	-3817
▁trốn	-3818
▁april	-3819
▁trồng	-3820
▁search	-3821
ban	-3822
unt	-3823
eter	-3824
▁quỹ	-3825
▁biện	-3826
▁guess	-3827
▁szcze	-3828
▁society	-3829
▁washing	-3830
▁communic	-3831
▁pressure	-3832
cuss	-3833
▁lối	-3834
▁ổng	-3835
▁link	-3836
▁nâng	-3837
▁apple	-3838
▁answer	-3839
▁engine	-3840
▁mẽ	-3841
agon	-3842
atory	-3843
ua	-3844
istic	-3845
▁rừng	-3846
iot	-3847
▁tỉ	-3848
▁tán	-3849
▁bụng	-3850
▁tradition	-3851
umb	-3852
▁hứa	-3853
fully	-3854
▁2015	-3855
▁band	-3856
▁loss	-3857
▁pack	-3858
▁africa	-3859
cil	-3860
▁concern	-3861
outh	-3862
▁lục	-3863
▁mát	-3864
▁running	-3865
ha	-3866
▁nig	-3867
▁mười	-3868
▁growth	-3869
▁levels	-3870
hol	-3871
▁emb	-3872
▁diệt	-3873
▁huống	-3874
▁connect	-3875
▁chặt	-3876
▁fill	-3877
▁webs	-3878
▁improve	-3879
▁thượng	-3880
ida	-3881
fact	-3882
idge	-3883
▁civ	-3884
▁lin	-3885
▁tru	-3886
▁completely	-3887
▁thổ	-3888
▁thầy	-3889
▁employ	-3890
▁figure	-3891
▁planet	-3892
zz	-3893
▁thù	-3894
▁ball	-3895
▁chối	-3896
▁enter	-3897
ondon	-3898
▁sand	-3899
▁trầm	-3900
▁thách	-3901
▁address	-3902
ips	-3903
iệc	-3904
▁nắm	-3905
▁tạm	-3906
▁various	-3907
▁0.	-3908
▁achie	-3909
▁gotta	-3910
▁takes	-3911
▁beautiful	-3912
▁approximately	-3913
▁ả	-3914
eral	-3915
▁den	-3916
▁vốn	-3917
▁tướng	-3918
▁feelings	-3919
arm	-3920
▁perf	-3921
▁surv	-3922
atever	-3923
▁serie	-3924
▁studies	-3925
▁production	-3926
sequ	-3927
alleng	-3928
▁girls	-3929
▁compan	-3930
ẳn	-3931
over	-3932
▁road	-3933
vision	-3934
▁daily	-3935
▁street	-3936
▁2017	-3937
▁lose	-3938
▁spend	-3939
uted	-3940
orrow	-3941
▁axit	-3942
▁tách	-3943
▁total	-3944
▁county	-3945
▁expect	-3946
▁google	-3947
▁changes	-3948
mar	-3949
ration	-3950
▁london	-3951
▁created	-3952
▁whatever	-3953
ựng	-3954
▁mãi	-3955
ortun	-3956
▁army	-3957
▁giấc	-3958
▁paul	-3959
▁thước	-3960
▁modern	-3961
▁significant	-3962
▁fed	-3963
▁hẳn	-3964
▁sốt	-3965
▁2016	-3966
▁nghề	-3967
▁offer	-3968
▁january	-3969
▁challeng	-3970
▁opportun	-3971
▁community	-3972
▁cust	-3973
▁comfort	-3974
erve	-3975
▁ber	-3976
▁giày	-3977
▁influ	-3978
▁simple	-3979
ping	-3980
▁dro	-3981
▁dối	-3982
▁hurt	-3983
▁ngại	-3984
▁size	-3985
▁discuss	-3986
▁practice	-3987
haps	-3988
▁lẫn	-3989
▁mary	-3990
▁final	-3991
▁khuyến	-3992
▁james	-3993
▁liter	-3994
▁miếng	-3995
itz	-3996
▁bom	-3997
▁cẩn	-3998
▁nove	-3999
▁named	-4000
▁writing	-4001
▁ơi	-4002
▁mov	-4003
▁quận	-4004
▁knows	-4005
▁brought	-4006
▁husband	-4007
▁systems	-4008
▁trà	-4009
▁bank	-4010
▁ngón	-4011
▁value	-4012
intendo	-4013
▁french	-4014
▁contain	-4015
▁received	-4016
▁ran	-4017
▁ver	-4018
▁date	-4019
▁enjo	-4020
▁lưng	-4021
▁built	-4022
▁giọng	-4023
▁introdu	-4024
▁leaders	-4025
▁regular	-4026
▁gấp	-4027
ribed	-4028
▁phiếu	-4029
▁cry	-4030
▁giãn	-4031
▁occur	-4032
▁recomm	-4033
▁calif	-4034
▁kilomet	-4035
▁quickly	-4036
▁minister	-4037
osis	-4038
ornia	-4039
▁birth	-4040
▁stick	-4041
▁đương	-4042
▁chemical	-4043
▁mg	-4044
▁hàn	-4045
▁separ	-4046
▁november	-4047
▁doạ	-4048
▁lọc	-4049
▁trade	-4050
▁danger	-4051
▁region	-4052
▁clos	-4053
▁prep	-4054
▁wish	-4055
▁trưng	-4056
rom	-4057
▁din	-4058
▁đốt	-4059
▁thuê	-4060
▁tiêm	-4061
utions	-4062
▁foreign	-4063
▁december	-4064
▁condition	-4065
▁ưu	-4066
osph	-4067
▁ninh	-4068
▁trou	-4069
▁democ	-4070
▁applic	-4071
▁global	-4072
▁itself	-4073
▁exercise	-4074
▁function	-4075
ộm	-4076
vere	-4077
▁flow	-4078
▁manu	-4079
lement	-4080
▁consum	-4081
▁multip	-4082
▁vitamin	-4083
▁behavior	-4084
▁california	-4085
▁considered	-4086
astic	-4087
▁tròn	-4088
ensive	-4089
▁shall	-4090
▁moving	-4091
▁perhaps	-4092
▁ạ	-4093
▁rap	-4094
▁ones	-4095
▁poor	-4096
▁promot	-4097
▁related	-4098
▁nintendo	-4099
▁students	-4100
▁dày	-4101
▁alex	-4102
▁liều	-4103
ita	-4104
▁code	-4105
▁quái	-4106
▁subject	-4107
uk	-4108
▁vỡ	-4109
more	-4110
▁college	-4111
ple	-4112
▁mê	-4113
order	-4114
▁hiển	-4115
▁sant	-4116
▁regional	-4117
che	-4118
rate	-4119
▁2013	-4120
ilities	-4121
fl	-4122
uyền	-4123
▁fru	-4124
▁goes	-4125
▁heat	-4126
▁ngựa	-4127
atures	-4128
▁civil	-4129
▁truth	-4130
bre	-4131
▁3,	-4132
rain	-4133
▁hom	-4134
▁tow	-4135
▁cháy	-4136
▁fear	-4137
▁quán	-4138
▁peace	-4139
▁radio	-4140
▁issues	-4141
airs	-4142
▁hen	-4143
▁worth	-4144
ili	-4145
▁xạ	-4146
cked	-4147
▁der	-4148
▁docum	-4149
▁services	-4150
gs	-4151
▁rub	-4152
▁(201	-4153
▁chur	-4154
▁themselves	-4155
▁esc	-4156
▁fing	-4157
▁shot	-4158
▁thải	-4159
▁upon	-4160
▁wide	-4161
▁giving	-4162
▁minute	-4163
▁species	-4164
▁ép	-4165
empt	-4166
ites	-4167
▁vac	-4168
▁bact	-4169
▁piece	-4170
▁surface	-4171
▁cm	-4172
▁um	-4173
▁approach	-4174
▁continue	-4175
▁tiệc	-4176
▁notice	-4177
▁source	-4178
▁window	-4179
▁patients	-4180
▁administrative	-4181
ari	-4182
▁23	-4183
▁ec	-4184
▁bat	-4185
inary	-4186
▁mouth	-4187
▁sister	-4188
▁therap	-4189
▁(3	-4190
▁2018	-4191
▁rate	-4192
▁wear	-4193
▁announ	-4194
▁training	-4195
epend	-4196
▁express	-4197
oo	-4198
ãy	-4199
ura	-4200
▁ut	-4201
ania	-4202
▁mex	-4203
▁rau	-4204
ators	-4205
▁cloth	-4206
▁smell	-4207
▁japanese	-4208
▁somebody	-4209
set	-4210
▁dy	-4211
▁sót	-4212
▁trữ	-4213
▁2004	-4214
ibility	-4215
▁spread	-4216
▁african	-4217
▁foods	-4218
▁27	-4219
▁syn	-4220
▁đòi	-4221
▁title	-4222
▁effective	-4223
▁professional	-4224
bor	-4225
▁ga	-4226
▁bia	-4227
▁tẩy	-4228
▁forg	-4229
▁parts	-4230
▁nguyện	-4231
▁activity	-4232
vid	-4233
icle	-4234
▁diet	-4235
▁origin	-4236
▁evidence	-4237
ỡi	-4238
ceed	-4239
▁cản	-4240
▁fly	-4241
▁wash	-4242
▁subst	-4243
▁himself	-4244
▁hospital	-4245
ủi	-4246
akes	-4247
▁pin	-4248
▁ros	-4249
▁khuyên	-4250
▁football	-4251
▁involved	-4252
▁strength	-4253
▁26	-4254
room	-4255
ucle	-4256
▁hàm	-4257
▁2007	-4258
iction	-4259
▁trống	-4260
▁thuyền	-4261
▁conversation	-4262
▁ong	-4263
▁disc	-4264
▁magn	-4265
▁frequ	-4266
▁paris	-4267
ners	-4268
▁2008	-4269
▁đựng	-4270
▁tried	-4271
bru	-4272
fri	-4273
▁cự	-4274
▁vỏ	-4275
▁nut	-4276
▁tax	-4277
▁indic	-4278
▁print	-4279
▁worry	-4280
▁results	-4281
resh	-4282
▁đập	-4283
phone	-4284
▁supposed	-4285
▁published	-4286
▁0,	-4287
▁et	-4288
raid	-4289
▁thẻ	-4290
▁amaz	-4291
▁lỏng	-4292
▁sort	-4293
ruction	-4294
▁py	-4295
▁cám	-4296
▁nút	-4297
▁seven	-4298
▁uk	-4299
rian	-4300
▁cài	-4301
▁dính	-4302
▁path	-4303
▁repe	-4304
▁track	-4305
▁active	-4306
▁previous	-4307
▁necessary	-4308
lled	-4309
▁ble	-4310
▁họp	-4311
▁ted	-4312
gress	-4313
friend	-4314
▁asking	-4315
▁target	-4316
▁threat	-4317
unk	-4318
ũng	-4319
▁80	-4320
▁gan	-4321
▁mine	-4322
▁ngực	-4323
▁moved	-4324
ems	-4325
oon	-4326
▁od	-4327
▁jim	-4328
▁match	-4329
▁seems	-4330
▁thous	-4331
▁afraid	-4332
▁đèn	-4333
▁poly	-4334
▁đỉnh	-4335
▁eating	-4336
ya	-4337
▁iv	-4338
ding	-4339
▁béo	-4340
▁bảy	-4341
▁inj	-4342
▁tiềm	-4343
▁image	-4344
▁culture	-4345
▁install	-4346
▁[	-4347
▁cú	-4348
▁tí	-4349
chel	-4350
come	-4351
▁cas	-4352
▁dar	-4353
▁lie	-4354
▁táo	-4355
ledge	-4356
oster	-4357
▁broad	-4358
▁david	-4359
▁micha	-4360
▁phỏng	-4361
▁journal	-4362
▁network	-4363
ring	-4364
▁gas	-4365
▁pow	-4366
▁original	-4367
▁television	-4368
sa	-4369
ola	-4370
ped	-4371
iver	-4372
▁kém	-4373
▁ngạc	-4374
▁dream	-4375
▁changed	-4376
▁szczecin	-4377
▁mụ	-4378
▁ens	-4379
▁tas	-4380
▁khuôn	-4381
▁shoot	-4382
▁require	-4383
▁kar	-4384
▁rắc	-4385
▁version	-4386
▁reported	-4387
▁temperature	-4388
▁cờ	-4389
▁sud	-4390
▁hiến	-4391
▁alive	-4392
▁sweet	-4393
▁independ	-4394
▁particip	-4395
ij	-4396
ini	-4397
▁lặp	-4398
▁doll	-4399
▁thăng	-4400
▁caused	-4401
ìa	-4402
pir	-4403
eles	-4404
▁pha	-4405
không	-4406
▁alco	-4407
▁george	-4408
wa	-4409
oke	-4410
▁bờ	-4411
▁sợi	-4412
▁2009	-4413
▁spir	-4414
▁tree	-4415
bruary	-4416
▁visit	-4417
▁master	-4418
▁attempt	-4419
▁management	-4420
▁lady	-4421
▁camera	-4422
▁finally	-4423
▁website	-4424
▁association	-4425
gy	-4426
▁ồ	-4427
▁khứ	-4428
▁agre	-4429
▁lính	-4430
▁chủng	-4431
▁triều	-4432
ướp	-4433
oper	-4434
▁kêu	-4435
▁ple	-4436
▁types	-4437
▁bottom	-4438
▁nature	-4439
và	-4440
▁28	-4441
▁202	-4442
▁2015,	-4443
▁enjoy	-4444
▁relig	-4445
▁church	-4446
▁interact	-4447
▁produced	-4448
car	-4449
▁gió	-4450
▁lou	-4451
▁sul	-4452
attle	-4453
▁defin	-4454
▁micro	-4455
▁france	-4456
▁league	-4457
ami	-4458
yal	-4459
play	-4460
▁tồi	-4461
▁huấn	-4462
▁chile	-4463
▁nướng	-4464
▁choice	-4465
▁companies	-4466
hood	-4467
▁sar	-4468
▁base	-4469
▁fort	-4470
▁math	-4471
▁vườn	-4472
▁champions	-4473
▁associated	-4474
ires	-4475
▁mos	-4476
▁nav	-4477
▁nấm	-4478
arily	-4479
▁hall	-4480
▁emerg	-4481
▁thiểu	-4482
▁wonder	-4483
▁meeting	-4484
▁february	-4485
▁activities	-4486
vi	-4487
ớp	-4488
▁fair	-4489
▁eight	-4490
▁lương	-4491
▁tonight	-4492
▁generally	-4493
bu	-4494
▁ox	-4495
.000	-4496
▁inn	-4497
▁mét	-4498
ounds	-4499
▁gent	-4500
▁career	-4501
rad	-4502
▁fix	-4503
▁sin	-4504
▁drop	-4505
▁dường	-4506
▁glass	-4507
▁khích	-4508
▁maint	-4509
▁events	-4510
▁served	-4511
ification	-4512
▁na	-4513
▁vải	-4514
▁disp	-4515
▁rout	-4516
▁tàng	-4517
▁wood	-4518
▁trích	-4519
▁voice	-4520
▁michael	-4521
▁potential	-4522
▁mì	-4523
ened	-4524
usion	-4525
▁hoang	-4526
▁neigh	-4527
▁murder	-4528
▁alcohol	-4529
▁telling	-4530
6)	-4531
cell	-4532
▁sexual	-4533
▁washington	-4534
emy	-4535
tôi	-4536
▁xoá	-4537
itude	-4538
▁altern	-4539
▁forget	-4540
▁throughout	-4541
ena	-4542
iam	-4543
iff	-4544
▁log	-4545
board	-4546
▁bath	-4547
▁block	-4548
▁numbers	-4549
zu	-4550
▁hè	-4551
▁ast	-4552
▁weak	-4553
▁groups	-4554
▁conditions	-4555
bles	-4556
▁lâm	-4557
▁đùa	-4558
itter	-4559
▁lies	-4560
▁luck	-4561
▁covid	-4562
▁played	-4563
▁resour	-4564
▁billion	-4565
▁complex	-4566
▁strateg	-4567
▁everybody	-4568
àm	-4569
-19	-4570
ani	-4571
asons	-4572
▁exec	-4573
▁tảng	-4574
▁nucle	-4575
▁depend	-4576
▁destro	-4577
▁thoughts	-4578
▁hãi	-4579
▁mech	-4580
▁austral	-4581
agn	-4582
▁săn	-4583
ndred	-4584
▁chín	-4585
▁ngon	-4586
▁pred	-4587
▁corre	-4588
▁giường	-4589
▁summer	-4590
▁appoint	-4591
▁happens	-4592
▁private	-4593
▁written	-4594
amm	-4595
▁90	-4596
▁xâm	-4597
▁(200	-4598
▁cưới	-4599
▁benef	-4600
▁affect	-4601
▁contrib	-4602
▁hundred	-4603
▁immediately	-4604
▁nấu	-4605
▁sod	-4606
▁site	-4607
verage	-4608
ùi	-4609
oles	-4610
▁lưới	-4611
▁sánh	-4612
▁histor	-4613
▁meaning	-4614
▁perfect	-4615
ía	-4616
ops	-4617
▁tá	-4618
▁ghế	-4619
▁bran	-4620
▁exam	-4621
▁note	-4622
▁impact	-4623
▁collect	-4624
▁infection	-4625
▁ah	-4626
ails	-4627
onse	-4628
▁tàn	-4629
itted	-4630
-2	-4631
▁rập	-4632
▁thang	-4633
▁british	-4634
▁decided	-4635
ray	-4636
ivity	-4637
ronic	-4638
▁2014,	-4639
▁brand	-4640
▁drugs	-4641
▁stage	-4642
▁corpor	-4643
▁truyện	-4644
▁forward	-4645
▁movement	-4646
eds	-4647
like	-4648
▁wel	-4649
light	-4650
rated	-4651
▁beat	-4652
▁prefer	-4653
▁manufact	-4654
▁tomorrow	-4655
▁typically	-4656
sc	-4657
▁sắt	-4658
▁trộn	-4659
ension	-4660
▁india	-4661
▁union	-4662
▁forces	-4663
▁places	-4664
ett	-4665
ker	-4666
▁xô	-4667
▁500	-4668
▁egg	-4669
▁sad	-4670
▁đạn	-4671
▁goal	-4672
itness	-4673
▁chair	-4674
▁except	-4675
▁facebook	-4676
hyd	-4677
▁mộ	-4678
ibly	-4679
▁dược	-4680
▁phạt	-4681
▁board	-4682
▁imagine	-4683
▁("	-4684
used	-4685
▁cấm	-4686
▁tap	-4687
▁đậu	-4688
erman	-4689
istry	-4690
pping	-4691
▁ngốc	-4692
▁catch	-4693
▁degree	-4694
▁plants	-4695
▁straight	-4696
',	-4697
wood	-4698
▁hảo	-4699
▁ing	-4700
▁2006	-4701
▁bird	-4702
▁khái	-4703
▁mảnh	-4704
▁viễn	-4705
▁2017,	-4706
▁terms	-4707
▁colomb	-4708
▁animals	-4709
▁material	-4710
▁cỡ	-4711
▁bor	-4712
ender	-4713
▁hùng	-4714
▁carbon	-4715
▁ability	-4716
▁extreme	-4717
▁division	-4718
▁increased	-4719
▁bò	-4720
▁cai	-4721
▁sơn	-4722
▁trip	-4723
▁tặng	-4724
▁chuỗi	-4725
▁ngang	-4726
▁range	-4727
▁spent	-4728
▁worse	-4729
lymp	-4730
▁gam	-4731
aling	-4732
▁hiếm	-4733
▁remo	-4734
▁shows	-4735
▁solution	-4736
30	-4737
cious	-4738
▁flor	-4739
▁ngừa	-4740
▁thus	-4741
▁brown	-4742
▁fresh	-4743
▁peter	-4744
▁pregn	-4745
▁wrote	-4746
▁launch	-4747
▁official	-4748
▁beginning	-4749
enty	-4750
roid	-4751
▁kênh	-4752
▁goals	-4753
▁surpr	-4754
▁larger	-4755
▁square	-4756
▁warsaw	-4757
▁response	-4758
▁ác	-4759
ancy	-4760
hold	-4761
▁acad	-4762
▁kiss	-4763
▁phiền	-4764
▁growing	-4765
▁trouble	-4766
▁director	-4767
▁gợi	-4768
ening	-4769
▁chấm	-4770
▁chấn	-4771
▁horm	-4772
▁legal	-4773
▁olymp	-4774
▁relax	-4775
▁tuyển	-4776
▁greater	-4777
▁towards	-4778
▁location	-4779
▁organization	-4780
ech	-4781
oul	-4782
arian	-4783
iment	-4784
▁anal	-4785
▁causes	-4786
▁seeing	-4787
một	-4788
vin	-4789
▁2012,	-4790
▁intell	-4791
▁mob	-4792
▁sếp	-4793
ining	-4794
▁neur	-4795
▁purp	-4796
▁option	-4797
▁kilometres	-4798
oft	-4799
▁nợ	-4800
berg	-4801
onst	-4802
▁bão	-4803
▁bông	-4804
▁thói	-4805
▁weap	-4806
▁freed	-4807
▁round	-4808
▁sales	-4809
▁player	-4810
▁message	-4811
▁nigeria	-4812
▁station	-4813
▁discovered	-4814
view	-4815
▁hoả	-4816
▁arri	-4817
▁2016,	-4818
▁ideas	-4819
▁sugar	-4820
▁gentle	-4821
5)	-4822
aff	-4823
▁bow	-4824
▁jes	-4825
▁đón	-4826
istan	-4827
▁asia	-4828
▁gard	-4829
▁carry	-4830
▁software	-4831
wor	-4832
▁190	-4833
▁hyp	-4834
▁giam	-4835
▁thuế	-4836
▁prior	-4837
▁purch	-4838
▁theory	-4839
▁machine	-4840
▁produce	-4841
▁increasing	-4842
▁interesting	-4843
▁cỏ	-4844
▁kẹ	-4845
▁las	-4846
▁tea	-4847
▁chép	-4848
▁stars	-4849
▁mexico	-4850
▁turned	-4851
▁leaving	-4852
▁eventually	-4853
irt	-4854
▁fle	-4855
ublic	-4856
▁sick	-4857
iation	-4858
▁finan	-4859
▁assist	-4860
▁awards	-4861
▁female	-4862
▁difference	-4863
▁cột	-4864
▁kèm	-4865
▁desp	-4866
▁patient	-4867
▁philipp	-4868
▁investig	-4869
▁standard	-4870
▁described	-4871
ńs	-4872
ướt	-4873
▁gỡ	-4874
▁ip	-4875
▁đệ	-4876
▁duyệt	-4877
10	-4878
ule	-4879
▁4.	-4880
▁ôi	-4881
▁micros	-4882
8)	-4883
ụi	-4884
▁ray	-4885
▁department	-4886
cis	-4887
ona	-4888
▁ko	-4889
▁bẩn	-4890
▁mis	-4891
▁felt	-4892
▁ghét	-4893
▁nhịp	-4894
▁phổi	-4895
▁rule	-4896
▁sell	-4897
▁ship	-4898
▁trào	-4899
▁crazy	-4900
▁hoảng	-4901
▁policy	-4902
▁unless	-4903
▁download	-4904
▁starting	-4905
▁29	-4906
imin	-4907
ores	-4908
0,000	-4909
▁jobs	-4910
▁móng	-4911
▁ngàn	-4912
▁rules	-4913
▁easier	-4914
▁concept	-4915
▁picture	-4916
burg	-4917
aries	-4918
▁carl	-4919
▁cướp	-4920
▁shut	-4921
▁vene	-4922
istics	-4923
▁names	-4924
▁easily	-4925
▁deliver	-4926
▁decision	-4927
▁mc	-4928
ador	-4929
▁cựu	-4930
▁dinh	-4931
▁inhib	-4932
▁seconds	-4933
▁designed	-4934
chi	-4935
ees	-4936
cles	-4937
▁bãi	-4938
▁đói	-4939
▁cưng	-4940
▁thảm	-4941
▁điệu	-4942
▁mechan	-4943
▁distrib	-4944
▁directly	-4945
▁announced	-4946
ậc	-4947
▁anx	-4948
▁hào	-4949
▁helps	-4950
▁looked	-4951
▁interested	-4952
▁particularly	-4953
ube	-4954
▁(4	-4955
▁rãi	-4956
▁nắng	-4957
▁quyển	-4958
▁shown	-4959
eg	-4960
key	-4961
▁vĩ	-4962
▁kal	-4963
▁ngc	-4964
▁rid	-4965
▁accom	-4966
▁aware	-4967
▁dress	-4968
▁liber	-4969
▁style	-4970
▁train	-4971
▁nobody	-4972
▁learning	-4973
▁determine	-4974
▁mụn	-4975
▁saf	-4976
▁bell	-4977
▁onto	-4978
▁soil	-4979
▁below	-4980
▁dance	-4981
▁speed	-4982
▁switch	-4983
▁quality	-4984
▁waiting	-4985
▁medication	-4986
3)	-4987
ev	-4988
▁ảo	-4989
▁ven	-4990
▁clin	-4991
▁đẳng	-4992
▁review	-4993
▁concent	-4994
▁republic	-4995
rum	-4996
▁bơ	-4997
duct	-4998
▁jew	-4999
▁mắn	-5000
▁rác	-5001
▁sky	-5002
▁nghèo	-5003
▁stories	-5004
nes	-5005
▁mãn	-5006
▁tha	-5007
aging	-5008
▁boys	-5009
▁coff	-5010
▁earl	-5011
▁adult	-5012
▁smart	-5013
▁princi	-5014
▁recept	-5015
▁resist	-5016
▁relative	-5017
ux	-5018
éo	-5019
▁70	-5020
▁sem	-5021
ience	-5022
▁reve	-5023
▁price	-5024
▁arrest	-5025
▁muscle	-5026
▁nit	-5027
▁tụi	-5028
▁đằng	-5029
▁commer	-5030
▁destroy	-5031
ji	-5032
oria	-5033
▁ara	-5034
▁bậc	-5035
▁books	-5036
▁novel	-5037
▁disapp	-5038
rap	-5039
▁sứ	-5040
ging	-5041
▁cặp	-5042
▁huh	-5043
▁đeo	-5044
cient	-5045
▁cred	-5046
▁floor	-5047
▁throw	-5048
itation	-5049
▁dinner	-5050
▁severe	-5051
vert	-5052
▁gab	-5053
▁ngũ	-5054
▁tước	-5055
▁wild	-5056
▁xứng	-5057
▁guard	-5058
▁honey	-5059
▁yours	-5060
▁damage	-5061
▁anymore	-5062
▁measure	-5063
▁respond	-5064
▁knowledge	-5065
▁.	-5066
cies	-5067
ille	-5068
wise	-5069
▁hồn	-5070
▁ram	-5071
▁ital	-5072
others	-5073
▁domin	-5074
▁loved	-5075
▁constant	-5076
▁included	-5077
▁transfer	-5078
▁opportunity	-5079
▁traditional	-5080
ado	-5081
▁ug	-5082
▁ám	-5083
well	-5084
▁bớt	-5085
▁dna	-5086
▁fif	-5087
▁ult	-5088
▁chai	-5089
▁thanks	-5090
▁northern	-5091
▁4,	-5092
▁gal	-5093
rogen	-5094
▁vong	-5095
▁2018,	-5096
▁labor	-5097
▁double	-5098
▁humans	-5099
▁industry	-5100
▁×	-5101
cia	-5102
▁gỗ	-5103
▁bơi	-5104
▁mọc	-5105
▁ném	-5106
▁ord	-5107
▁libr	-5108
▁issue	-5109
▁queen	-5110
▁finish	-5111
▁european	-5112
▁performance	-5113
úa	-5114
rol	-5115
▁ak	-5116
▁cãi	-5117
iling	-5118
▁appl	-5119
▁stru	-5120
▁stock	-5121
▁victim	-5122
▁leading	-5123
you	-5124
ford	-5125
▁kín	-5126
enced	-5127
▁plat	-5128
▁quar	-5129
ctions	-5130
▁chief	-5131
▁veget	-5132
60	-5133
off	-5134
▁cd	-5135
▁hổ	-5136
viet	-5137
▁lão	-5138
▁quà	-5139
erson	-5140
▁hero	-5141
▁muse	-5142
▁surg	-5143
▁basic	-5144
▁document	-5145
5%	-5146
pa	-5147
▁*	-5148
▁lẻ	-5149
▁tốn	-5150
aking	-5151
▁menu	-5152
▁vững	-5153
▁2011,	-5154
▁charl	-5155
▁chừng	-5156
▁animal	-5157
▁keeping	-5158
▁comfortable	-5159
1)	-5160
awa	-5161
▁gà	-5162
olic	-5163
tery	-5164
▁hít	-5165
▁ken	-5166
▁lord	-5167
▁salt	-5168
▁trig	-5169
▁confir	-5170
ean	-5171
▁dao	-5172
▁rủi	-5173
itect	-5174
▁fold	-5175
▁phen	-5176
▁push	-5177
▁spot	-5178
▁meant	-5179
▁oppos	-5180
▁average	-5181
▁constit	-5182
▁options	-5183
ặm	-5184
lebr	-5185
▁kìa	-5186
▁giấu	-5187
▁hers	-5188
▁nhàng	-5189
▁council	-5190
iel	-5191
▁hư	-5192
▁2005	-5193
▁hỏng	-5194
▁surr	-5195
▁chann	-5196
▁nhánh	-5197
▁sched	-5198
▁signs	-5199
▁regard	-5200
▁currently	-5201
ald	-5202
onia	-5203
▁ngư	-5204
cular	-5205
▁consist	-5206
▁31	-5207
ests	-5208
▁amb	-5209
ander	-5210
▁dish	-5211
▁mont	-5212
▁ring	-5213
▁giảng	-5214
▁recent	-5215
▁allowed	-5216
▁multiple	-5217
cast	-5218
▁bag	-5219
▁bụi	-5220
▁lack	-5221
▁nhóc	-5222
▁agent	-5223
▁techni	-5224
▁feature	-5225
▁largest	-5226
ift	-5227
uty	-5228
▁dọn	-5229
▁khớp	-5230
▁thác	-5231
▁remind	-5232
▁variety	-5233
▁witness	-5234
▁professor	-5235
▁beg	-5236
▁mut	-5237
▁nic	-5238
▁scr	-5239
▁trú	-5240
▁chart	-5241
▁coast	-5242
▁gives	-5243
▁memory	-5244
▁kingdom	-5245
▁standing	-5246
▁championship	-5247
2)	-5248
ez	-5249
ịt	-5250
reg	-5251
▁bắp	-5252
▁bull	-5253
▁phái	-5254
▁shar	-5255
▁2013,	-5256
▁movie	-5257
▁twice	-5258
▁breath	-5259
▁celebr	-5260
▁decide	-5261
▁russia	-5262
▁germany	-5263
▁russian	-5264
▁powerful	-5265
▁progress	-5266
bl	-5267
▁lừa	-5268
▁mạc	-5269
▁rat	-5270
▁tam	-5271
▁enzy	-5272
▁jose	-5273
▁tiếc	-5274
▁korea	-5275
▁forest	-5276
▁clothes	-5277
▁digital	-5278
▁nations	-5279
▁architect	-5280
▁established	-5281
80	-5282
▁ư	-5283
ãng	-5284
▁ib	-5285
▁bey	-5286
▁bối	-5287
▁rot	-5288
▁lãng	-5289
▁rare	-5290
▁tiss	-5291
▁2010,	-5292
▁antib	-5293
▁citiz	-5294
▁khổng	-5295
▁leaves	-5296
▁slight	-5297
▁venezu	-5298
rial	-5299
▁dia	-5300
▁dám	-5301
▁hun	-5302
▁nom	-5303
▁bạch	-5304
▁ahead	-5305
▁latin	-5306
▁belong	-5307
▁obvious	-5308
▁dangerous	-5309
ils	-5310
▁mưa	-5311
▁ương	-5312
▁compl	-5313
▁gương	-5314
▁points	-5315
▁despite	-5316
▁structure	-5317
ito	-5318
appl	-5319
▁dán	-5320
▁ell	-5321
▁vinh	-5322
▁confl	-5323
▁forms	-5324
▁heavy	-5325
▁khung	-5326
▁colombia	-5327
▁entertain	-5328
tt	-5329
pro	-5330
▁ze	-5331
▁oce	-5332
ables	-5333
▁boss	-5334
▁cath	-5335
▁moon	-5336
▁ngọn	-5337
▁ngọt	-5338
▁nhãn	-5339
▁economy	-5340
▁francis	-5341
201	-5342
▁ath	-5343
▁nôn	-5344
▁treo	-5345
▁tươi	-5346
applause	-5347
▁freedom	-5348
▁vietnamese	-5349
hib	-5350
itis	-5351
▁tun	-5352
ament	-5353
atives	-5354
▁bacteria	-5355
▁congress	-5356
4)	-5357
und	-5358
▁hò	-5359
▁lad	-5360
▁thua	-5361
▁mention	-5362
▁distance	-5363
▁resources	-5364
bc	-5365
rel	-5366
▁tô	-5367
rael	-5368
▁nas	-5369
▁sna	-5370
anced	-5371
▁1990	-5372
▁nồng	-5373
▁tang	-5374
▁điệp	-5375
▁lived	-5376
▁whose	-5377
▁flight	-5378
▁followed	-5379
▁surround	-5380
ira	-5381
mit	-5382
win	-5383
▁via	-5384
ground	-5385
▁allows	-5386
▁letter	-5387
▁pattern	-5388
500	-5389
oma	-5390
▁dạ	-5391
▁lồ	-5392
aste	-5393
▁wil	-5394
▁iron	-5395
▁nine	-5396
▁coffee	-5397
▁cooper	-5398
▁attract	-5399
bt	-5400
oe	-5401
cel	-5402
pes	-5403
rid	-5404
▁189	-5405
▁tro	-5406
▁yog	-5407
azine	-5408
▁thoa	-5409
▁added	-5410
▁actions	-5411
▁features	-5412
▁fab	-5413
▁tám	-5414
▁shop	-5415
▁xoay	-5416
▁gradu	-5417
▁device	-5418
")	-5419
ien	-5420
old	-5421
put	-5422
▁tủ	-5423
illa	-5424
▁chả	-5425
▁iii	-5426
▁mệnh	-5427
▁miles	-5428
▁robot	-5429
▁developing	-5430
oh	-5431
▁gy	-5432
▁xà	-5433
▁jul	-5434
ulate	-5435
"?	-5436
ja	-5437
ốm	-5438
cra	-5439
▁300	-5440
▁túc	-5441
▁cand	-5442
▁sulf	-5443
▁moist	-5444
▁encour	-5445
▁visual	-5446
▁learned	-5447
▁includes	-5448
kie	-5449
▁bận	-5450
▁dọc	-5451
▁fell	-5452
▁gián	-5453
▁lặng	-5454
▁rain	-5455
▁tick	-5456
▁shape	-5457
▁trăng	-5458
▁beyond	-5459
▁sitting	-5460
▁chà	-5461
▁nar	-5462
othing	-5463
▁scale	-5464
▁commonly	-5465
▁administration	-5466
ds	-5467
▁ml	-5468
iers	-5469
▁dim	-5470
▁gói	-5471
▁alph	-5472
▁nhạy	-5473
▁poll	-5474
▁qual	-5475
▁castle	-5476
▁museum	-5477
▁showed	-5478
▁sounds	-5479
▁achieve	-5480
▁conflict	-5481
bin	-5482
▁rod	-5483
odies	-5484
▁2019	-5485
▁gall	-5486
▁gift	-5487
▁stan	-5488
▁honest	-5489
▁specif	-5490
▁content	-5491
▁ky	-5492
▁tuý	-5493
▁màng	-5494
▁explain	-5495
▁smaller	-5496
▁contract	-5497
▁happening	-5498
yer	-5499
▁fi	-5500
▁úc	-5501
rupt	-5502
ties	-5503
▁mực	-5504
▁seek	-5505
▁uses	-5506
▁paint	-5507
▁ensure	-5508
▁recently	-5509
▁va	-5510
back	-5511
▁aim	-5512
▁cru	-5513
▁wed	-5514
▁chúc	-5515
▁gree	-5516
▁khóc	-5517
▁trục	-5518
▁israel	-5519
▁actress	-5520
▁anybody	-5521
▁walking	-5522
▁microsoft	-5523
▁responsible	-5524
what	-5525
▁...	-5526
▁lượt	-5527
▁đống	-5528
▁thiệt	-5529
▁soviet	-5530
ộp	-5531
ima	-5532
▁lây	-5533
▁defe	-5534
icient	-5535
▁anyway	-5536
▁battle	-5537
▁sudden	-5538
▁conduct	-5539
▁section	-5540
▁teacher	-5541
▁revolution	-5542
can	-5543
ked	-5544
now	-5545
ław	-5546
▁cất	-5547
▁thợ	-5548
▁argent	-5549
▁limited	-5550
▁reasons	-5551
▁finished	-5552
ụt	-5553
aur	-5554
box	-5555
▁5,	-5556
▁hol	-5557
▁pun	-5558
▁join	-5559
▁khấu	-5560
▁2009,	-5561
▁autom	-5562
▁honor	-5563
▁minim	-5564
▁rapid	-5565
▁shoes	-5566
▁descri	-5567
▁alternative	-5568
▁bes	-5569
▁mệt	-5570
▁phím	-5571
ography	-5572
▁corner	-5573
▁mission	-5574
▁therapy	-5575
▁instance	-5576
▁successful	-5577
vey	-5578
▁$1	-5579
▁hô	-5580
aign	-5581
esis	-5582
▁dos	-5583
▁lic	-5584
▁sàn	-5585
▁harm	-5586
german	-5587
▁ancient	-5588
▁replace	-5589
7)	-5590
ẫy	-5591
pri	-5592
zen	-5593
▁kg	-5594
▁fal	-5595
▁lip	-5596
eless	-5597
▁cổng	-5598
▁nhầm	-5599
▁tuân	-5600
▁occup	-5601
▁plans	-5602
▁nation	-5603
▁robert	-5604
▁earlier	-5605
▁founded	-5606
▁primary	-5607
▁favorite	-5608
▁depending	-5609
▁financial	-5610
ek	-5611
avir	-5612
iced	-5613
ogen	-5614
▁lam	-5615
▁tox	-5616
▁(199	-5617
▁chán	-5618
▁decre	-5619
▁thiệp	-5620
▁breast	-5621
▁length	-5622
▁counter	-5623
▁holding	-5624
▁recover	-5625
▁returned	-5626
▁lò	-5627
▁calm	-5628
▁trộm	-5629
▁older	-5630
▁nearly	-5631
▁captain	-5632
▁william	-5633
▁speaking	-5634
9)	-5635
bel	-5636
▁bếp	-5637
▁nap	-5638
▁sav	-5639
▁adop	-5640
▁male	-5641
▁rise	-5642
▁stom	-5643
▁universe	-5644
▁interview	-5645
▁therefore	-5646
rast	-5647
▁bob	-5648
▁cro	-5649
▁tex	-5650
▁1980	-5651
▁2003	-5652
▁buôn	-5653
▁decl	-5654
▁hong	-5655
▁nhựa	-5656
▁2019,	-5657
▁funny	-5658
▁excess	-5659
▁consequ	-5660
▁nuclear	-5661
▁changing	-5662
▁drinking	-5663
ipe	-5664
▁(5	-5665
▁188	-5666
▁fit	-5667
▁lif	-5668
▁vân	-5669
▁chos	-5670
▁categ	-5671
▁committ	-5672
▁display	-5673
▁purpose	-5674
▁reality	-5675
▁wearing	-5676
▁contains	-5677
▁400	-5678
▁ign	-5679
▁kat	-5680
eding	-5681
ously	-5682
▁bond	-5683
▁chua	-5684
▁opin	-5685
▁phấn	-5686
▁rome	-5687
isions	-5688
▁chlor	-5689
▁feels	-5690
▁royal	-5691
▁winter	-5692
▁calling	-5693
▁records	-5694
▁campaign	-5695
▁required	-5696
▁kr	-5697
▁nở	-5698
▁gri	-5699
▁sạn	-5700
▁đua	-5701
▁cris	-5702
▁diss	-5703
▁jump	-5704
▁neck	-5705
▁ster	-5706
▁grant	-5707
▁student	-5708
▁australia	-5709
▁interests	-5710
oli	-5711
▁adj	-5712
▁hầm	-5713
▁lee	-5714
▁henry	-5715
▁spirit	-5716
▁yellow	-5717
▁province	-5718
▁understanding	-5719
25	-5720
cop	-5721
aled	-5722
▁tia	-5723
▁meat	-5724
▁bound	-5725
▁convent	-5726
▁willing	-5727
zo	-5728
omy	-5729
ques	-5730
▁farm	-5731
▁unit	-5732
isters	-5733
▁2007,	-5734
▁calci	-5735
▁skills	-5736
▁fighting	-5737
▁reaction	-5738
▁southern	-5739
iro	-5740
▁5.	-5741
cine	-5742
▁cụm	-5743
▁glad	-5744
▁khán	-5745
▁load	-5746
▁2006,	-5747
▁colon	-5748
▁items	-5749
▁occas	-5750
▁custom	-5751
▁territ	-5752
▁eastern	-5753
▁realize	-5754
▁setting	-5755
▁emotions	-5756
▁somewhere	-5757
si	-5758
inc	-5759
olf	-5760
inct	-5761
reci	-5762
▁arr	-5763
▁dứt	-5764
▁leo	-5765
antic	-5766
apore	-5767
ician	-5768
▁trần	-5769
▁hyper	-5770
▁spect	-5771
▁cities	-5772
▁detect	-5773
▁studied	-5774
▁becoming	-5775
▁languages	-5776
ora	-5777
▁45	-5778
▁mm	-5779
▁pil	-5780
estic	-5781
▁canh	-5782
▁giặt	-5783
▁harv	-5784
▁khẳng	-5785
▁lines	-5786
▁nghiện	-5787
▁transl	-5788
▁reading	-5789
▁singapore	-5790
▁combination	-5791
aka	-5792
emb	-5793
racy	-5794
▁exch	-5795
▁liqu	-5796
▁paid	-5797
▁fruit	-5798
▁liver	-5799
▁bright	-5800
▁button	-5801
▁correct	-5802
▁killing	-5803
▁essential	-5804
11	-5805
én	-5806
bing	-5807
ooth	-5808
▁pas	-5809
▁acet	-5810
▁nhẫn	-5811
▁nhắm	-5812
▁mental	-5813
▁amazing	-5814
▁stomach	-5815
40	-5816
apt	-5817
pre	-5818
ione	-5819
▁usd	-5820
▁xịt	-5821
riage	-5822
▁kept	-5823
▁diagn	-5824
▁caught	-5825
▁becomes	-5826
▁england	-5827
▁brothers	-5828
▁intellig	-5829
▁individuals	-5830
aire	-5831
▁bri	-5832
▁whe	-5833
▁arms	-5834
▁bỏng	-5835
▁cuba	-5836
▁huge	-5837
▁chick	-5838
▁laugh	-5839
▁terri	-5840
▁critic	-5841
edy	-5842
ette	-5843
lock	-5844
▁bon	-5845
eness	-5846
▁arab	-5847
▁fest	-5848
▁hill	-5849
▁hoại	-5850
▁milk	-5851
▁mole	-5852
▁none	-5853
▁thùng	-5854
▁repeat	-5855
▁construction	-5856
isa	-5857
▁48	-5858
iana	-5859
▁liền	-5860
▁upper	-5861
▁slowly	-5862
▁organiz	-5863
▁partners	-5864
▁commercial	-5865
▁entertainment	-5866
ias	-5867
isl	-5868
rus	-5869
▁ash	-5870
▁cos	-5871
▁cốt	-5872
▁kit	-5873
wards	-5874
▁dáng	-5875
▁rand	-5876
▁roll	-5877
▁ruột	-5878
▁2008,	-5879
▁minor	-5880
▁acting	-5881
▁joined	-5882
▁generation	-5883
gu	-5884
òm	-5885
▁mỏ	-5886
▁xơ	-5887
emic	-5888
▁bám	-5889
olute	-5890
▁arts	-5891
▁flat	-5892
▁hide	-5893
▁muộn	-5894
▁nose	-5895
▁thom	-5896
▁huyện	-5897
▁solar	-5898
▁artist	-5899
▁highly	-5900
▁pieces	-5901
▁breathing	-5902
▁continued	-5903
▁alt	-5904
▁dặm	-5905
▁gối	-5906
▁kra	-5907
▁lạp	-5908
icles	-5909
▁acqu	-5910
▁epis	-5911
▁gala	-5912
▁khía	-5913
▁mike	-5914
▁gather	-5915
▁inject	-5916
▁supply	-5917
▁charles	-5918
▁complic	-5919
▁workers	-5920
▁additional	-5921
abor	-5922
▁bát	-5923
▁jer	-5924
▁manh	-5925
▁seat	-5926
▁susp	-5927
▁ghana	-5928
▁nhuận	-5929
▁stone	-5930
▁confer	-5931
▁prince	-5932
▁unlike	-5933
▁opening	-5934
▁plastic	-5935
▁philippines	-5936
bar	-5937
▁6,	-5938
▁6.	-5939
▁dĩ	-5940
mark	-5941
▁cởi	-5942
▁tật	-5943
▁und	-5944
erved	-5945
ilies	-5946
tered	-5947
▁chẩn	-5948
▁hãng	-5949
▁lots	-5950
▁sport	-5951
▁bridge	-5952
▁infect	-5953
▁taught	-5954
▁separate	-5955
▁relationships	-5956
có	-5957
rat	-5958
▁mỡ	-5959
▁ry	-5960
cker	-5961
▁bồn	-5962
▁cát	-5963
▁dịu	-5964
▁rắn	-5965
▁prem	-5966
▁swim	-5967
▁virt	-5968
▁calls	-5969
▁crime	-5970
▁quant	-5971
▁speech	-5972
▁angeles	-5973
▁justice	-5974
▁watching	-5975
▁emotional	-5976
▁commission	-5977
lib	-5978
oto	-5979
▁dâm	-5980
▁ren	-5981
▁tân	-5982
▁chải	-5983
▁hate	-5984
ements	-5985
▁solid	-5986
▁remain	-5987
▁appreci	-5988
▁continu	-5989
▁objects	-5990
▁putting	-5991
▁connected	-5992
ví	-5993
ớn	-5994
▁35	-5995
▁7,	-5996
▁7.	-5997
▁kí	-5998
emat	-5999
▁dial	-6000
▁xinh	-6001
▁2004.	-6002
▁pleas	-6003
▁article	-6004
▁affected	-6005
▁transport	-6006
gl	-6007
how	-6008
▁obt	-6009
▁ướt	-6010
iving	-6011
▁copy	-6012
▁cort	-6013
▁stim	-6014
▁asean	-6015
▁cream	-6016
▁saved	-6017
▁height	-6018
entially	-6019
▁promise	-6020
▁appropri	-6021
▁performed	-6022
▁medications	-6023
▁rh	-6024
▁map	-6025
▁max	-6026
▁cens	-6027
▁jane	-6028
▁thìa	-6029
▁absor	-6030
▁faster	-6031
▁formed	-6032
▁safety	-6033
▁climate	-6034
▁dollars	-6035
▁missing	-6036
▁cultural	-6037
▁authorities	-6038
bed	-6039
bet	-6040
rew	-6041
rig	-6042
▁vú	-6043
▁vas	-6044
▁blow	-6045
▁soul	-6046
▁subs	-6047
▁trạm	-6048
▁user	-6049
▁chest	-6050
▁quiet	-6051
▁teeth	-6052
▁hormone	-6053
▁sources	-6054
▁absolute	-6055
▁challenge	-6056
▁venezuela	-6057
ulf	-6058
tube	-6059
ysis	-6060
▁fan	-6061
▁mộc	-6062
craft	-6063
ented	-6064
▁blog	-6065
▁core	-6066
▁giáp	-6067
▁hous	-6068
▁apart	-6069
▁fully	-6070
▁irrit	-6071
▁effort	-6072
▁mobile	-6073
▁strugg	-6074
▁presence	-6075
▁influence	-6076
aya	-6077
mes	-6078
iyah	-6079
word	-6080
▁lem	-6081
▁quỷ	-6082
▁spl	-6083
▁conv	-6084
▁desk	-6085
▁firm	-6086
▁gram	-6087
▁khẩn	-6088
▁lung	-6089
▁sust	-6090
▁ocean	-6091
▁smith	-6092
▁border	-6093
▁iphone	-6094
▁photos	-6095
▁committee	-6096
▁depression	-6097
%.	-6098
người	-6099
▁damn	-6100
▁tung	-6101
▁estim	-6102
▁harry	-6103
▁maria	-6104
▁pharm	-6105
▁thick	-6106
▁thạch	-6107
▁uncle	-6108
▁demand	-6109
▁leader	-6110
▁placed	-6111
▁officer	-6112
▁receive	-6113
▁surgery	-6114
▁establish	-6115
▁transform	-6116
bol	-6117
▁kỉ	-6118
ales	-6119
alin	-6120
izer	-6121
▁mrs	-6122
▁cart	-6123
▁ngầm	-6124
▁thuỵ	-6125
▁till	-6126
▁coron	-6127
▁flash	-6128
▁phase	-6129
▁spray	-6130
▁trees	-6131
▁turns	-6132
▁tuyết	-6133
eration	-6134
▁calcul	-6135
▁garden	-6136
▁handle	-6137
▁status	-6138
▁youtube	-6139
▁instruct	-6140
vỗ	-6141
ùm	-6142
met	-6143
ota	-6144
▁mồ	-6145
▁vé	-6146
iano	-6147
▁mig	-6148
▁rào	-6149
▁inse	-6150
▁span	-6151
▁sưng	-6152
▁tháp	-6153
▁synth	-6154
▁units	-6155
▁values	-6156
▁causing	-6157
▁medicine	-6158
▁slightly	-6159
▁recognize	-6160
▁foundation	-6161
wan	-6162
▁ms	-6163
▁ale	-6164
▁cóc	-6165
▁ion	-6166
▁1960	-6167
▁arth	-6168
▁bomb	-6169
▁gene	-6170
▁mons	-6171
▁peru	-6172
▁stup	-6173
▁jesus	-6174
▁maintain	-6175
▁property	-6176
▁competition	-6177
-0	-6178
rine	-6179
ulin	-6180
▁gro	-6181
▁gọn	-6182
▁tóm	-6183
▁chậu	-6184
▁iran	-6185
▁race	-6186
▁scar	-6187
▁staff	-6188
▁compon	-6189
▁opened	-6190
▁sports	-6191
▁creating	-6192
▁identify	-6193
▁atm	-6194
▁cậy	-6195
▁1970	-6196
▁expos	-6197
▁android	-6198
▁florida	-6199
▁families	-6200
▁programs	-6201
▁recommend	-6202
▁religious	-6203
yn	-6204
▁1/	-6205
aper	-6206
▁10,	-6207
▁fer	-6208
▁đạp	-6209
stein	-6210
▁bure	-6211
▁icon	-6212
▁neut	-6213
▁prec	-6214
▁assum	-6215
▁metal	-6216
▁trick	-6217
▁italian	-6218
▁welcome	-6219
▁ourselves	-6220
▁thousands	-6221
fs	-6222
inn	-6223
▁nô	-6224
aine	-6225
▁186	-6226
▁dãy	-6227
▁les	-6228
▁lát	-6229
itely	-6230
right	-6231
▁agric	-6232
▁khoan	-6233
▁triết	-6234
▁explor	-6235
▁electric	-6236
▁neighbor	-6237
▁princess	-6238
▁protection	-6239
▁independent	-6240
▁communication	-6241
ae	-6242
fa	-6243
▁8,	-6244
cket	-6245
▁bội	-6246
▁calo	-6247
▁loan	-6248
▁sher	-6249
▁trượt	-6250
▁broken	-6251
▁bureau	-6252
▁expand	-6253
▁useful	-6254
▁anxiety	-6255
▁helping	-6256
▁materials	-6257
▁otherwise	-6258
19	-6259
ris	-6260
otic	-6261
▁bọc	-6262
▁côn	-6263
▁agree	-6264
▁bodies	-6265
▁bottle	-6266
▁appears	-6267
▁careful	-6268
▁accident	-6269
ema	-6270
ila	-6271
ican	-6272
ingu	-6273
▁bền	-6274
▁vot	-6275
▁khen	-6276
▁perm	-6277
▁notes	-6278
▁tissue	-6279
▁muscles	-6280
▁examples	-6281
▁scientific	-6282
▁recommended	-6283
hi	-6284
ios	-6285
▁xi	-6286
▁jun	-6287
▁khúc	-6288
▁suit	-6289
▁whom	-6290
▁adapt	-6291
▁charge	-6292
▁joseph	-6293
▁stupid	-6294
▁covered	-6295
▁finding	-6296
▁reached	-6297
▁agricult	-6298
di	-6299
egr	-6300
▁38	-6301
irty	-6302
izes	-6303
▁cot	-6304
▁mạn	-6305
▁nik	-6306
ested	-6307
▁laws	-6308
▁lưỡi	-6309
▁vent	-6310
urally	-6311
▁label	-6312
▁limit	-6313
▁studio	-6314
▁channel	-6315
▁consult	-6316
▁defense	-6317
▁clothing	-6318
▁possibly	-6319
po	-6320
▁bá	-6321
▁fant	-6322
▁zero	-6323
▁tight	-6324
▁tools	-6325
▁reform	-6326
▁signed	-6327
▁singer	-6328
▁unique	-6329
▁citizens	-6330
!"	-6331
ợt	-6332
net	-6333
aria	-6334
time	-6335
▁hôi	-6336
▁uns	-6337
ergic	-6338
oking	-6339
owski	-6340
▁legs	-6341
▁sara	-6342
▁spok	-6343
▁alpha	-6344
▁khiêu	-6345
▁plane	-6346
▁serve	-6347
▁trial	-6348
▁wound	-6349
▁images	-6350
▁korean	-6351
▁oxygen	-6352
▁philos	-6353
▁federal	-6354
▁anywhere	-6355
▁planning	-6356
ns	-6357
ków	-6358
▁ts	-6359
aked	-6360
rier	-6361
▁ire	-6362
▁đếm	-6363
uries	-6364
▁diam	-6365
▁kick	-6366
▁mood	-6367
▁ross	-6368
ulated	-6369
▁carol	-6370
▁joint	-6371
▁enzyme	-6372
▁famous	-6373
▁imposs	-6374
▁demonst	-6375
▁removed	-6376
cut	-6377
uel	-6378
▁bê	-6379
arab	-6380
isms	-6381
ston	-6382
wide	-6383
▁atl	-6384
▁fol	-6385
▁hiv	-6386
▁kos	-6387
▁doct	-6388
▁nick	-6389
▁pupp	-6390
▁trôi	-6391
▁xích	-6392
▁brush	-6393
▁upset	-6394
▁indian	-6395
▁ingred	-6396
▁raised	-6397
▁efforts	-6398
▁failure	-6399
▁spending	-6400
▁direction	-6401
cho	-6402
▁haw	-6403
▁chìa	-6404
▁kiệm	-6405
▁lift	-6406
▁exhib	-6407
▁prime	-6408
▁roman	-6409
▁thoảng	-6410
▁predict	-6411
▁approved	-6412
▁christian	-6413
▁properties	-6414
.'	-6415
ýt	-6416
ext	-6417
▁mỏi	-6418
▁pul	-6419
▁grew	-6420
▁rice	-6421
▁shap	-6422
idents	-6423
▁angry	-6424
▁horse	-6425
▁users	-6426
▁execut	-6427
▁motion	-6428
▁schools	-6429
▁audience	-6430
▁marriage	-6431
▁emergency	-6432
-3	-6433
▁′	-6434
▁lắp	-6435
▁sel	-6436
trong	-6437
▁fash	-6438
▁ghép	-6439
▁lồng	-6440
▁mand	-6441
▁mixt	-6442
▁sequ	-6443
▁berlin	-6444
▁closed	-6445
▁incred	-6446
ulations	-6447
▁charlie	-6448
▁herself	-6449
▁secretary	-6450
▁environmental	-6451
▁ś	-6452
ượn	-6453
ỗng	-6454
▁32	-6455
▁az	-6456
▁bó	-6457
▁xứ	-6458
oses	-6459
▁bol	-6460
▁mes	-6461
▁quê	-6462
ratic	-6463
▁cere	-6464
▁impl	-6465
▁thor	-6466
theast	-6467
▁sides	-6468
▁tests	-6469
▁waste	-6470
▁finger	-6471
▁forgot	-6472
▁factors	-6473
▁weather	-6474
▁compared	-6475
ủa	-6476
aki	-6477
cbs	-6478
hen	-6479
rog	-6480
▁nạp	-6481
▁wet	-6482
▁cape	-6483
▁kiên	-6484
▁shin	-6485
▁thắt	-6486
▁cycle	-6487
▁aspect	-6488
▁proced	-6489
▁methods	-6490
▁reflect	-6491
▁appeared	-6492
▁connection	-6493
▁introduced	-6494
.)	-6495
▁etc	-6496
▁joe	-6497
▁phu	-6498
oxide	-6499
▁kong	-6500
▁scott	-6501
▁steps	-6502
▁bigger	-6503
▁compos	-6504
▁galaxy	-6505
▁helped	-6506
▁virgin	-6507
▁applied	-6508
▁clearly	-6509
▁richard	-6510
▁believed	-6511
▁ministry	-6512
▁prepared	-6513
▁argentina	-6514
▁institute	-6515
▁appearance	-6516
▁impossible	-6517
kn	-6518
enza	-6519
▁ira	-6520
▁móc	-6521
▁vin	-6522
force	-6523
▁cham	-6524
▁hằng	-6525
▁khốn	-6526
▁cloud	-6527
▁khoai	-6528
▁photo	-6529
ionally	-6530
▁manage	-6531
▁balance	-6532
▁details	-6533
▁manager	-6534
▁showing	-6535
▁treated	-6536
▁twitter	-6537
▁critical	-6538
▁recorded	-6539
▁operating	-6540
asy	-6541
▁uy	-6542
được	-6543
▁187	-6544
▁bul	-6545
▁khử	-6546
▁sha	-6547
▁đâm	-6548
▁2001	-6549
▁chap	-6550
▁drag	-6551
▁lock	-6552
▁ride	-6553
▁metab	-6554
▁nghìn	-6555
▁numer	-6556
osphere	-6557
▁closer	-6558
▁mostly	-6559
▁spring	-6560
▁stores	-6561
▁fashion	-6562
▁overall	-6563
▁violence	-6564
ùn	-6565
lim	-6566
▁9,	-6567
▁bọ	-6568
▁vở	-6569
roph	-6570
▁rum	-6571
iable	-6572
▁rank	-6573
▁soap	-6574
▁thám	-6575
▁wake	-6576
▁actor	-6577
▁chanh	-6578
▁hotel	-6579
▁judge	-6580
▁louis	-6581
▁prize	-6582
▁songs	-6583
ologist	-6584
▁passed	-6585
▁evening	-6586
▁pictures	-6587
▁confidence	-6588
▁application	-6589
▁appropriate	-6590
ni	-6591
cal	-6592
gia	-6593
rey	-6594
▁mờ	-6595
▁rễ	-6596
▁bôi	-6597
▁lig	-6598
▁lôi	-6599
▁ped	-6600
▁voc	-6601
field	-6602
▁bron	-6603
▁hole	-6604
▁task	-6605
▁tháo	-6606
▁tràn	-6607
▁files	-6608
▁kinds	-6609
▁magic	-6610
▁newsp	-6611
▁vision	-6612
▁writer	-6613
▁players	-6614
▁stopped	-6615
▁subsequ	-6616
▁exchange	-6617
▁sleeping	-6618
ye	-6619
owo	-6620
▁võ	-6621
gypt	-6622
▁mỏng	-6623
▁tool	-6624
▁trib	-6625
▁fault	-6626
▁greatest	-6627
▁platform	-6628
▁investment	-6629
▁leadership	-6630
vd	-6631
bes	-6632
pan	-6633
tic	-6634
▁tê	-6635
ache	-6636
hoặc	-6637
▁hòn	-6638
▁thỏ	-6639
▁bear	-6640
▁beij	-6641
▁cars	-6642
▁snow	-6643
▁raise	-6644
▁rough	-6645
▁losing	-6646
▁starts	-6647
▁remains	-6648
▁strange	-6649
urt	-6650
vis	-6651
iled	-6652
▁mah	-6653
▁bind	-6654
▁cats	-6655
▁clim	-6656
▁crim	-6657
▁nerv	-6658
ession	-6659
▁fever	-6660
▁habit	-6661
▁motor	-6662
▁scene	-6663
▁reject	-6664
▁disappe	-6665
▁expected	-6666
▁mountain	-6667
▁industrial	-6668
▁originally	-6669
▁kĩ	-6670
▁nè	-6671
itar	-6672
▁matt	-6673
▁pair	-6674
▁root	-6675
▁tông	-6676
▁vess	-6677
▁imper	-6678
▁thuần	-6679
▁thỉnh	-6680
▁tooth	-6681
ologies	-6682
▁commit	-6683
▁failed	-6684
▁prompt	-6685
▁biggest	-6686
▁library	-6687
▁settings	-6688
▁democracy	-6689
);	-6690
▁ôm	-6691
olar	-6692
▁dàn	-6693
▁gãy	-6694
▁upd	-6695
ument	-6696
▁bone	-6697
▁chôn	-6698
▁crow	-6699
▁jean	-6700
porary	-6701
▁egypt	-6702
▁taste	-6703
▁texas	-6704
▁escape	-6705
▁observ	-6706
▁highest	-6707
▁prescri	-6708
▁clinical	-6709
▁magazine	-6710
▁vegetables	-6711
lla	-6712
▁kam	-6713
▁pig	-6714
▁por	-6715
acing	-6716
▁flav	-6717
▁ngơi	-6718
avirus	-6719
ensity	-6720
▁crush	-6721
▁faith	-6722
▁maxim	-6723
▁integr	-6724
▁liquid	-6725
▁chronic	-6726
▁nervous	-6727
▁trigger	-6728
▁politics	-6729
▁agreement	-6730
▁certainly	-6731
▁applications	-6732
▁constitution	-6733
ran	-6734
aren	-6735
▁dạo	-6736
▁kẹt	-6737
▁kịp	-6738
▁lộn	-6739
▁ngã	-6740
▁nêu	-6741
▁ron	-6742
▁som	-6743
▁toả	-6744
▁xưa	-6745
icide	-6746
▁adam	-6747
▁clar	-6748
▁merc	-6749
▁ngẫu	-6750
▁reci	-6751
▁ended	-6752
▁italy	-6753
▁towel	-6754
▁bought	-6755
▁income	-6756
▁accompl	-6757
▁mixture	-6758
▁prepare	-6759
▁weapons	-6760
▁festival	-6761
▁americans	-6762
▁appointed	-6763
▁completed	-6764
▁conference	-6765
▁situations	-6766
▁specifically	-6767
):	-6768
ợn	-6769
kin	-6770
▁dã	-6771
ault	-6772
ends	-6773
▁gel	-6774
cific	-6775
▁chìm	-6776
▁khát	-6777
▁marg	-6778
▁phun	-6779
▁poet	-6780
▁vang	-6781
▁ward	-6782
ushing	-6783
▁defined	-6784
▁restaur	-6785
▁allowing	-6786
▁disorder	-6787
▁governor	-6788
▁internal	-6789
▁relatively	-6790
▁−	-6791
alu	-6792
dam	-6793
zcz	-6794
▁bể	-6795
▁đàm	-6796
▁đồn	-6797
▁beta	-6798
▁dogs	-6799
▁elev	-6800
▁gain	-6801
▁mươi	-6802
▁pill	-6803
▁scot	-6804
▁2016.	-6805
▁storm	-6806
▁attach	-6807
▁cotton	-6808
▁antibiot	-6809
▁referred	-6810
▁frequently	-6811
oy	-6812
eed	-6813
iat	-6814
▁(6	-6815
▁bab	-6816
▁hid	-6817
▁đai	-6818
▁lucky	-6819
▁saint	-6820
▁terror	-6821
▁beijing	-6822
▁driving	-6823
▁elements	-6824
▁statistics	-6825
▁corporation	-6826
dp	-6827
iti	-6828
rin	-6829
war	-6830
▁dò	-6831
char	-6832
cont	-6833
ogue	-6834
▁fox	-6835
▁1999	-6836
▁mông	-6837
▁rose	-6838
▁adding	-6839
▁cooking	-6840
▁indones	-6841
▁knowing	-6842
▁mathemat	-6843
▁naturally	-6844
▁±	-6845
200	-6846
kyo	-6847
lam	-6848
new	-6849
una	-6850
ghan	-6851
▁gay	-6852
▁tựa	-6853
lands	-6854
▁bùng	-6855
▁mail	-6856
▁thin	-6857
▁wave	-6858
inated	-6859
▁broke	-6860
▁proud	-6861
▁steve	-6862
comfort	-6863
▁beauty	-6864
▁plenty	-6865
▁spanish	-6866
▁succeed	-6867
▁apparent	-6868
▁officials	-6869
ằn	-6870
▁'.	-6871
aves	-6872
resp	-6873
▁(18	-6874
▁ali	-6875
▁bút	-6876
▁đớn	-6877
abeth	-6878
▁anth	-6879
▁edge	-6880
▁inch	-6881
▁tong	-6882
▁yoga	-6883
ighter	-6884
▁costs	-6885
▁shift	-6886
iveness	-6887
▁advant	-6888
▁fingers	-6889
▁requires	-6890
▁restrict	-6891
▁boyfriend	-6892
15	-6893
cr	-6894
gor	-6895
vant	-6896
▁len	-6897
▁mạo	-6898
▁tần	-6899
▁unc	-6900
▁chic	-6901
▁giấm	-6902
▁mild	-6903
▁pray	-6904
▁analy	-6905
▁lying	-6906
▁branch	-6907
▁fabric	-6908
▁factor	-6909
▁fourth	-6910
▁injury	-6911
atically	-6912
▁mistake	-6913
▁purchase	-6914
▁extremely	-6915
▁previously	-6916
70	-6917
uz	-6918
iaz	-6919
mas	-6920
top	-6921
ella	-6922
lete	-6923
▁183	-6924
▁cắn	-6925
▁fbi	-6926
▁nho	-6927
▁đồi	-6928
iance	-6929
▁prol	-6930
▁beach	-6931
▁juice	-6932
▁astron	-6933
▁census	-6934
▁jackson	-6935
▁monitor	-6936
▁calories	-6937
▁domestic	-6938
▁strategy	-6939
ffe	-6940
pet	-6941
cher	-6942
iles	-6943
▁185	-6944
▁gly	-6945
▁oli	-6946
▁sáp	-6947
▁barb	-6948
▁dipl	-6949
▁empt	-6950
▁pier	-6951
▁rồng	-6952
▁shad	-6953
▁soda	-6954
▁xuân	-6955
▁đuôi	-6956
▁capac	-6957
▁chris	-6958
▁dying	-6959
▁initi	-6960
▁marsh	-6961
▁claims	-6962
▁credit	-6963
▁medium	-6964
▁ngưỡng	-6965
▁ukrain	-6966
▁majority	-6967
▁pregnant	-6968
▁engineering	-6969
mo	-6970
ici	-6971
▁xỉ	-6972
seng	-6973
▁aid	-6974
▁cow	-6975
▁lạm	-6976
▁tum	-6977
idine	-6978
ville	-6979
▁ends	-6980
▁wine	-6981
▁equip	-6982
▁negot	-6983
▁circle	-6984
▁smooth	-6985
▁publish	-6986
▁criminal	-6987
▁election	-6988
▁provided	-6989
▁thousand	-6990
▁communist	-6991
▁literature	-6992
▁instructions	-6993
han	-6994
▁au	-6995
athy	-6996
rees	-6997
▁dear	-6998
▁eggs	-6999
▁grab	-7000
encies	-7001
▁bread	-7002
▁goods	-7003
▁tokyo	-7004
▁agency	-7005
▁elimin	-7006
▁rachel	-7007
▁thomas	-7008
▁listening	-7009
▁ł	-7010
but	-7011
gas	-7012
oty	-7013
uch	-7014
▁xả	-7015
rant	-7016
ript	-7017
ster	-7018
▁lãm	-7019
▁nah	-7020
▁nâu	-7021
▁ost	-7022
icity	-7023
▁2002	-7024
▁cash	-7025
▁cuộn	-7026
▁flag	-7027
▁giật	-7028
▁asian	-7029
▁crisis	-7030
▁excuse	-7031
▁stated	-7032
osterone	-7033
▁helpful	-7034
▁bringing	-7035
▁schedule	-7036
dr	-7037
ww	-7038
iva	-7039
▁uý	-7040
rome	-7041
▁nét	-7042
▁phe	-7043
▁veh	-7044
icated	-7045
▁equal	-7046
▁frame	-7047
▁layer	-7048
▁lưỡng	-7049
▁parli	-7050
▁sarah	-7051
▁stret	-7052
▁circum	-7053
▁legisl	-7054
▁martin	-7055
▁models	-7056
▁advance	-7057
▁benefit	-7058
▁worried	-7059
12	-7060
nếu	-7061
pal	-7062
▁bồ	-7063
clus	-7064
▁11,	-7065
▁12,	-7066
▁cồn	-7067
▁pad	-7068
▁tel	-7069
cking	-7070
▁plus	-7071
▁vice	-7072
▁tough	-7073
▁traff	-7074
▁worst	-7075
pective	-7076
▁butter	-7077
▁gently	-7078
▁senior	-7079
▁silver	-7080
▁conscious	-7081
▁wonderful	-7082
icy	-7083
uma	-7084
▁ái	-7085
ager	-7086
bour	-7087
iday	-7088
onic	-7089
▁cạo	-7090
▁thề	-7091
▁trễ	-7092
▁fred	-7093
▁tall	-7094
▁thro	-7095
▁vary	-7096
▁2014.	-7097
▁2018.	-7098
▁cương	-7099
▁plate	-7100
▁oliver	-7101
▁analysis	-7102
▁properly	-7103
▁confirmed	-7104
▁organizations	-7105
ẫm	-7106
ava	-7107
các	-7108
och	-7109
oll	-7110
rem	-7111
see	-7112
▁rẻ	-7113
west	-7114
▁10.	-7115
▁bru	-7116
▁jam	-7117
▁vul	-7118
▁chốt	-7119
▁fool	-7120
▁jama	-7121
▁mars	-7122
▁ngâm	-7123
▁ngục	-7124
▁teen	-7125
▁vĩnh	-7126
▁motiv	-7127
▁phẳng	-7128
▁trừng	-7129
▁wealth	-7130
▁opinion	-7131
▁pacific	-7132
▁parties	-7133
▁diseases	-7134
▁hundreds	-7135
▁infections	-7136
▁parliament	-7137
▁36	-7138
▁ht	-7139
rich	-7140
▁cắm	-7141
▁joy	-7142
▁thô	-7143
▁đáo	-7144
rison	-7145
▁dũng	-7146
▁tank	-7147
▁chain	-7148
▁smile	-7149
▁adjust	-7150
▁candid	-7151
▁academy	-7152
▁chicago	-7153
▁reports	-7154
▁electron	-7155
▁millions	-7156
▁password	-7157
▁carefully	-7158
▁characters	-7159
▁scientists	-7160
90	-7161
xi	-7162
như	-7163
▁ji	-7164
▁lô	-7165
atin	-7166
ream	-7167
▁cin	-7168
▁đáy	-7169
athan	-7170
rical	-7171
▁bowl	-7172
▁stad	-7173
▁synd	-7174
▁doubt	-7175
▁idlib	-7176
▁prost	-7177
▁stuck	-7178
▁trump	-7179
▁walls	-7180
▁assign	-7181
▁attend	-7182
▁compar	-7183
▁occurs	-7184
▁talked	-7185
▁totally	-7186
▁attended	-7187
▁equipment	-7188
▁definitely	-7189
▁responsibility	-7190
xin	-7191
▁dì	-7192
▁cắp	-7193
▁dur	-7194
▁naz	-7195
▁sup	-7196
illed	-7197
known	-7198
water	-7199
▁thổi	-7200
▁seeds	-7201
▁dragon	-7202
▁empire	-7203
▁forever	-7204
▁turning	-7205
▁suddenly	-7206
▁statement	-7207
cs	-7208
wr	-7209
:00	-7210
aud	-7211
owa	-7212
▁bồi	-7213
▁nhở	-7214
▁sụp	-7215
iliar	-7216
▁bong	-7217
▁pháo	-7218
▁stor	-7219
arabic	-7220
▁2004,	-7221
▁2013.	-7222
▁aspir	-7223
▁keeps	-7224
▁tells	-7225
▁assemb	-7226
▁element	-7227
▁flowers	-7228
▁survive	-7229
▁identity	-7230
▁secondary	-7231
▁containing	-7232
azz	-7233
nie	-7234
ras	-7235
enna	-7236
▁gội	-7237
▁toa	-7238
▁tím	-7239
▁xoa	-7240
▁leads	-7241
▁ngoan	-7242
▁vuông	-7243
▁weird	-7244
▁colors	-7245
▁forced	-7246
▁powers	-7247
▁conserv	-7248
▁initial	-7249
▁ireland	-7250
▁islands	-7251
▁suppose	-7252
▁bleeding	-7253
▁collabor	-7254
▁distract	-7255
▁marketing	-7256
▁absolutely	-7257
đi	-7258
▁(7	-7259
▁óc	-7260
▁ốc	-7261
iant	-7262
roll	-7263
▁eld	-7264
inger	-7265
▁gang	-7266
▁joey	-7267
▁nhạt	-7268
▁pros	-7269
▁thơm	-7270
▁trưa	-7271
▁wire	-7272
ifying	-7273
▁2017.	-7274
▁grown	-7275
▁solve	-7276
▁instrum	-7277
▁concerns	-7278
▁expensive	-7279
▁formation	-7280
▁worldwide	-7281
▁collection	-7282
bia	-7283
▁dut	-7284
▁fda	-7285
▁làn	-7286
▁sưu	-7287
▁yam	-7288
▁đền	-7289
▁evil	-7290
▁luân	-7291
▁meal	-7292
▁nang	-7293
▁thèm	-7294
ternal	-7295
▁accur	-7296
▁linux	-7297
▁prote	-7298
▁theat	-7299
lection	-7300
▁advice	-7301
▁context	-7302
▁focused	-7303
▁neither	-7304
▁hydrogen	-7305
▁indonesia	-7306
▁intelligence	-7307
rim	-7308
▁hd	-7309
▁pi	-7310
▁mau	-7311
▁tat	-7312
▁usb	-7313
▁boat	-7314
▁grav	-7315
orders	-7316
▁ngoái	-7317
▁relie	-7318
▁cheese	-7319
▁perman	-7320
▁prepar	-7321
▁affairs	-7322
▁managed	-7323
▁steroid	-7324
▁benefits	-7325
▁normally	-7326
▁coronavirus	-7327
esh	-7328
rie	-7329
▁sỹ	-7330
▁xí	-7331
orial	-7332
▁1994	-7333
▁scen	-7334
▁shel	-7335
▁soạn	-7336
▁đụng	-7337
▁incor	-7338
▁ultim	-7339
▁youth	-7340
▁dreams	-7341
▁khoảnh	-7342
▁widely	-7343
▁degrees	-7344
▁distinct	-7345
▁realized	-7346
▁concerned	-7347
▁confident	-7348
▁gentlemen	-7349
▁democratic	-7350
▁experiences	-7351
py	-7352
▁8.	-7353
▁bả	-7354
▁eu	-7355
▁gõ	-7356
▁ka	-7357
▁ny	-7358
esth	-7359
here	-7360
ophy	-7361
with	-7362
▁bẫy	-7363
▁hir	-7364
▁jon	-7365
▁lõi	-7366
▁pra	-7367
▁rou	-7368
▁unh	-7369
▁(198	-7370
▁insp	-7371
▁isol	-7372
▁lake	-7373
▁ngứa	-7374
▁rail	-7375
▁brief	-7376
▁inner	-7377
▁khiếp	-7378
▁nhuộm	-7379
▁lawyer	-7380
▁methyl	-7381
▁powder	-7382
▁spoken	-7383
▁doctors	-7384
cz	-7385
bra	-7386
har	-7387
lon	-7388
ori	-7389
▁tạ	-7390
down	-7391
onin	-7392
▁fro	-7393
▁hưu	-7394
▁mòn	-7395
▁nhĩ	-7396
▁súc	-7397
0.000	-7398
icate	-7399
▁iraq	-7400
▁ranh	-7401
▁2001,	-7402
▁2015.	-7403
▁daddy	-7404
▁dynam	-7405
▁arthur	-7406
▁behavi	-7407
▁khuyết	-7408
▁lights	-7409
▁orange	-7410
▁invited	-7411
▁routine	-7412
▁compound	-7413
▁whenever	-7414
▁computers	-7415
▁destroyed	-7416
▁background	-7417
▁girlfriend	-7418
pu	-7419
wo	-7420
nic	-7421
unes	-7422
▁han	-7423
▁lót	-7424
▁pom	-7425
▁sed	-7426
▁sôi	-7427
▁toy	-7428
▁busy	-7429
▁ngợi	-7430
▁rein	-7431
▁spin	-7432
encing	-7433
▁sharp	-7434
▁afghan	-7435
▁guitar	-7436
▁staying	-7437
▁sustain	-7438
▁wedding	-7439
▁exposure	-7440
▁terrible	-7441
▁basically	-7442
▁settlement	-7443
45	-7444
ẹo	-7445
▁α	-7446
uts	-7447
asty	-7448
▁ded	-7449
▁fib	-7450
▁mây	-7451
▁orb	-7452
▁đới	-7453
aming	-7454
▁cert	-7455
▁2010.	-7456
▁basis	-7457
▁crown	-7458
▁films	-7459
▁huyền	-7460
▁nearby	-7461
▁orders	-7462
▁reward	-7463
▁scared	-7464
▁thinks	-7465
▁trương	-7466
▁decades	-7467
▁hearing	-7468
▁reduced	-7469
▁request	-7470
▁solutions	-7471
▁suffering	-7472
▁controlled	-7473
ket	-7474
▁9.	-7475
illy	-7476
▁nộp	-7477
▁unf	-7478
inity	-7479
những	-7480
▁acts	-7481
▁clay	-7482
▁củng	-7483
▁dust	-7484
▁họng	-7485
ressed	-7486
urance	-7487
▁coord	-7488
▁enemy	-7489
▁fluid	-7490
▁innov	-7491
▁chosen	-7492
▁metres	-7493
▁orient	-7494
▁metabol	-7495
▁scratch	-7496
▁receptor	-7497
▁replaced	-7498
▁francisco	-7499
▁seriously	-7500
cm	-7501
oz	-7502
ss	-7503
").	-7504
lig	-7505
osa	-7506
pat	-7507
▁lê	-7508
iest	-7509
▁enh	-7510
▁hat	-7511
▁nát	-7512
▁nén	-7513
▁đậm	-7514
▁đắt	-7515
chúng	-7516
terol	-7517
▁bare	-7518
▁gate	-7519
▁khói	-7520
▁lapt	-7521
▁ngập	-7522
▁penn	-7523
▁pure	-7524
▁quét	-7525
▁vine	-7526
▁barry	-7527
▁kitch	-7528
▁opera	-7529
▁plays	-7530
▁sight	-7531
▁truly	-7532
▁begins	-7533
▁detail	-7534
▁awarded	-7535
▁insulin	-7536
▁selling	-7537
▁executive	-7538
▁historical	-7539
▁‘	-7540
lyn	-7541
▁nạ	-7542
▁om	-7543
uses	-7544
▁fis	-7545
▁hối	-7546
▁mưu	-7547
▁nốt	-7548
▁wid	-7549
▁2020	-7550
▁oral	-7551
▁rang	-7552
▁zone	-7553
▁2012.	-7554
▁drops	-7555
▁piano	-7556
▁roots	-7557
▁suppl	-7558
▁therm	-7559
▁folder	-7560
▁mainly	-7561
▁shared	-7562
▁volume	-7563
▁devices	-7564
▁elected	-7565
▁proceed	-7566
▁testing	-7567
▁capacity	-7568
▁appreciate	-7569
17	-7570
ễu	-7571
▁(#	-7572
▁rw	-7573
▁yu	-7574
elle	-7575
enos	-7576
teen	-7577
▁amy	-7578
▁hẹp	-7579
▁kin	-7580
▁kir	-7581
▁nin	-7582
▁1998	-7583
▁eliz	-7584
▁hước	-7585
fortun	-7586
▁birds	-7587
▁evalu	-7588
▁marry	-7589
▁afford	-7590
▁edward	-7591
▁fruits	-7592
▁poison	-7593
▁shower	-7594
▁journey	-7595
▁teaching	-7596
▁implement	-7597
▁obviously	-7598
▁operation	-7599
▁primarily	-7600
▁architecture	-7601
33	-7602
ịn	-7603
asm	-7604
ika	-7605
aret	-7606
iago	-7607
icon	-7608
andon	-7609
▁lệch	-7610
▁ment	-7611
▁thấm	-7612
▁tiny	-7613
▁zeal	-7614
▁logic	-7615
▁prove	-7616
▁teams	-7617
▁tired	-7618
amental	-7619
▁fields	-7620
▁filled	-7621
▁illust	-7622
▁khoáng	-7623
▁nguyễn	-7624
▁palace	-7625
▁phosph	-7626
▁signal	-7627
▁edition	-7628
▁formula	-7629
▁trained	-7630
▁winning	-7631
▁accounts	-7632
▁cleaning	-7633
▁numerous	-7634
▁projects	-7635
▁supported	-7636
ym	-7637
cow	-7638
ums	-7639
wal	-7640
▁".	-7641
▁lỡ	-7642
▁mỉ	-7643
▁ot	-7644
erto	-7645
▁chở	-7646
▁lấp	-7647
▁sắm	-7648
erate	-7649
iters	-7650
▁1950	-7651
▁budd	-7652
▁pool	-7653
▁tống	-7654
▁vote	-7655
▁2020,	-7656
▁graph	-7657
▁loose	-7658
respond	-7659
▁native	-7660
▁secure	-7661
▁throat	-7662
▁cutting	-7663
▁episode	-7664
▁letting	-7665
▁victims	-7666
▁provides	-7667
▁pregnancy	-7668
▁promotion	-7669
▁distribution	-7670
▁investigation	-7671
umn	-7672
....	-7673
mond	-7674
pass	-7675
rick	-7676
▁ari	-7677
▁wik	-7678
ennis	-7679
night	-7680
▁turk	-7681
▁anger	-7682
▁empty	-7683
▁screw	-7684
▁shell	-7685
▁sites	-7686
▁thịnh	-7687
▁annual	-7688
▁flying	-7689
▁malays	-7690
▁mirror	-7691
▁nghịch	-7692
▁potato	-7693
▁uganda	-7694
▁amounts	-7695
▁kitchen	-7696
▁matters	-7697
▁offered	-7698
▁creative	-7699
▁santiago	-7700
▁buildings	-7701
▁increases	-7702
▁operations	-7703
vo	-7704
aks	-7705
fen	-7706
nat	-7707
tle	-7708
unte	-7709
▁20,	-7710
▁bón	-7711
▁ceo	-7712
▁chợ	-7713
▁cou	-7714
▁ghé	-7715
▁lật	-7716
▁mol	-7717
▁mun	-7718
▁vội	-7719
inent	-7720
place	-7721
▁anna	-7722
▁indu	-7723
▁likes	-7724
▁satis	-7725
▁adults	-7726
▁advent	-7727
▁negoti	-7728
▁nguyệt	-7729
▁unable	-7730
▁victor	-7731
▁arrived	-7732
▁authority	-7733
▁estimated	-7734
▁mountains	-7735
▁remaining	-7736
▁correspond	-7737
▁perspective	-7738
▁consequences	-7739
hu	-7740
lu	-7741
dia	-7742
equ	-7743
ski	-7744
▁mò	-7745
edia	-7746
grad	-7747
▁dvd	-7748
▁khỉ	-7749
▁von	-7750
▁wat	-7751
ching	-7752
▁1989	-7753
▁1993	-7754
▁benz	-7755
▁hook	-7756
▁khôi	-7757
▁kiềm	-7758
▁tony	-7759
iments	-7760
▁hello	-7761
▁maría	-7762
▁nerve	-7763
▁withd	-7764
▁fellow	-7765
▁artists	-7766
▁dealing	-7767
▁planned	-7768
▁promote	-7769
▁remained	-7770
▁selected	-7771
▁studying	-7772
don	-7773
▁75	-7774
▁rũ	-7775
ashi	-7776
gers	-7777
icip	-7778
part	-7779
▁anc	-7780
▁bot	-7781
▁cay	-7782
▁lùi	-7783
▁phô	-7784
▁kiệt	-7785
▁mort	-7786
▁cabin	-7787
▁carib	-7788
station	-7789
▁buying	-7790
▁insect	-7791
▁sodium	-7792
▁twenty	-7793
▁weapon	-7794
▁contrast	-7795
▁unfortun	-7796
▁container	-7797
▁afghanistan	-7798
▁ingredients	-7799
hr	-7800
nik	-7801
▁ct	-7802
aker	-7803
▁16,	-7804
▁jac	-7805
▁keo	-7806
▁vây	-7807
▁vắc	-7808
lines	-7809
lying	-7810
▁thôn	-7811
▁camer	-7812
▁illeg	-7813
▁paste	-7814
▁advert	-7815
▁citrus	-7816
▁editor	-7817
▁script	-7818
culation	-7819
▁abandon	-7820
▁burning	-7821
▁involve	-7822
▁nghiêng	-7823
▁profile	-7824
▁volunte	-7825
▁arrested	-7826
▁directed	-7827
▁painting	-7828
▁decisions	-7829
▁technique	-7830
▁experiment	-7831
▁photograph	-7832
▁techniques	-7833
▁governments	-7834
99	-7835
▁#	-7836
bby	-7837
ova	-7838
ưởi	-7839
▁ku	-7840
oman	-7841
▁jar	-7842
▁rio	-7843
▁vay	-7844
erves	-7845
▁chăn	-7846
▁phật	-7847
▁sate	-7848
▁scan	-7849
▁seed	-7850
active	-7851
▁owned	-7852
▁deputy	-7853
▁golden	-7854
▁invent	-7855
▁nguyen	-7856
▁besides	-7857
▁capable	-7858
▁chicken	-7859
▁closely	-7860
▁comment	-7861
▁confron	-7862
▁breaking	-7863
▁champion	-7864
▁infected	-7865
▁launched	-7866
▁measures	-7867
▁apartment	-7868
▁functions	-7869
ũi	-7870
leg	-7871
nia	-7872
ocy	-7873
tha	-7874
tra	-7875
▁34	-7876
▁nụ	-7877
▁ưa	-7878
acle	-7879
idel	-7880
inse	-7881
umin	-7882
▁cáp	-7883
▁pok	-7884
▁bern	-7885
▁dose	-7886
▁frag	-7887
▁giọt	-7888
▁sund	-7889
▁fried	-7890
▁mixed	-7891
▁siles	-7892
▁formal	-7893
▁airport	-7894
▁entered	-7895
▁johnson	-7896
▁passion	-7897
▁sisters	-7898
▁advantage	-7899
▁happiness	-7900
gie	-7901
▁ow	-7902
▁pc	-7903
▁tị	-7904
cope	-7905
▁mồi	-7906
▁vel	-7907
olved	-7908
▁mask	-7909
▁blind	-7910
▁ngưng	-7911
▁owner	-7912
▁smoke	-7913
▁actual	-7914
▁agents	-7915
▁baking	-7916
▁choles	-7917
▁diplom	-7918
▁prices	-7919
▁transm	-7920
▁chances	-7921
▁equation	-7922
▁familiar	-7923
▁opposite	-7924
▁soldiers	-7925
▁stronger	-7926
▁commander	-7927
▁evolution	-7928
▁initially	-7929
▁cholesterol	-7930
▁il	-7931
▁lt	-7932
emia	-7933
▁dắt	-7934
▁giê	-7935
▁hop	-7936
house	-7937
▁gạch	-7938
▁roof	-7939
▁thấu	-7940
icious	-7941
▁2003,	-7942
▁catal	-7943
▁faces	-7944
▁thiền	-7945
▁thuẫn	-7946
▁killer	-7947
▁falling	-7948
▁entirely	-7949
▁involves	-7950
▁resistance	-7951
▁represented	-7952
hov	-7953
lan	-7954
pol	-7955
▁pd	-7956
fast	-7957
▁12.	-7958
▁18,	-7959
▁19,	-7960
▁ack	-7961
▁dat	-7962
▁khe	-7963
▁mit	-7964
▁vặt	-7965
cause	-7966
▁bàng	-7967
▁guns	-7968
▁hano	-7969
▁sets	-7970
▁tape	-7971
▁emper	-7972
▁tasks	-7973
lements	-7974
▁indeed	-7975
▁paying	-7976
▁sector	-7977
▁valley	-7978
▁contest	-7979
▁letters	-7980
▁organic	-7981
▁suspect	-7982
▁unknown	-7983
▁elizabeth	-7984
▁providing	-7985
▁ultimately	-7986
▁fundamental	-7987
lv	-7988
nel	-7989
nge	-7990
ario	-7991
cers	-7992
gged	-7993
mann	-7994
olve	-7995
orph	-7996
▁lag	-7997
▁lợn	-7998
▁phú	-7999
▁rib	-8000
▁tak	-8001
▁đệm	-8002
aches	-8003
adian	-8004
erial	-8005
ester	-8006
▁biał	-8007
▁cảng	-8008
▁diệu	-8009
▁myth	-8010
▁rabb	-8011
▁2011.	-8012
▁knock	-8013
▁optim	-8014
▁route	-8015
▁teles	-8016
▁thoái	-8017
▁earned	-8018
▁immune	-8019
▁enterpr	-8020
▁advanced	-8021
▁messages	-8022
▁victoria	-8023
32	-8024
75	-8025
oni	-8026
▁lọ	-8027
hist	-8028
road	-8029
▁blu	-8030
▁cạn	-8031
▁kẹo	-8032
▁row	-8033
▁đam	-8034
▁đan	-8035
▁fert	-8036
▁hoan	-8037
▁khơi	-8038
ounter	-8039
stairs	-8040
▁cards	-8041
▁cưỡng	-8042
▁obama	-8043
▁squad	-8044
▁combat	-8045
▁expert	-8046
▁knight	-8047
▁dropped	-8048
▁musical	-8049
▁olympics	-8050
▁communities	-8051
▁technologies	-8052
16	-8053
48	-8054
tv	-8055
iec	-8056
aint	-8057
▁bog	-8058
▁kur	-8059
▁luc	-8060
▁sét	-8061
▁crew	-8062
▁foll	-8063
▁lean	-8064
▁maur	-8065
▁mode	-8066
▁pour	-8067
▁flood	-8068
▁homes	-8069
▁jimmy	-8070
▁medal	-8071
▁satur	-8072
istered	-8073
▁budget	-8074
▁remote	-8075
▁syrian	-8076
▁tables	-8077
▁trials	-8078
▁jamaica	-8079
▁vinegar	-8080
▁patterns	-8081
▁broadcast	-8082
▁newspaper	-8083
▁regularly	-8084
▁effectively	-8085
▁opportunities	-8086
wi	-8087
die	-8088
gal	-8089
osp	-8090
▁pm	-8091
▁vl	-8092
agen	-8093
quar	-8094
sole	-8095
uten	-8096
▁14,	-8097
▁150	-8098
▁bóp	-8099
▁dop	-8100
▁gdp	-8101
▁hab	-8102
▁nắp	-8103
▁pak	-8104
▁wii	-8105
▁xen	-8106
▁xóm	-8107
▁đắn	-8108
rates	-8109
▁1000	-8110
▁alle	-8111
▁clus	-8112
▁khôn	-8113
▁tưới	-8114
▁billy	-8115
▁greek	-8116
▁marie	-8117
▁noted	-8118
▁simpl	-8119
▁spain	-8120
▁toler	-8121
▁urban	-8122
▁facing	-8123
▁ladies	-8124
▁seemed	-8125
▁tested	-8126
▁regions	-8127
▁sharing	-8128
▁visible	-8129
▁zealand	-8130
▁catholic	-8131
▁observed	-8132
▁pleasure	-8133
▁organized	-8134
▁transition	-8135
▁cooperation	-8136
▁institutions	-8137
és	-8138
iko	-8139
▁64	-8140
▁ov	-8141
▁đà	-8142
kins	-8143
this	-8144
▁cel	-8145
▁dải	-8146
▁gol	-8147
▁hâm	-8148
▁mốc	-8149
orter	-8150
▁dram	-8151
▁sale	-8152
▁2005,	-8153
▁drama	-8154
▁fract	-8155
▁lunch	-8156
▁nhúng	-8157
▁quãng	-8158
▁assess	-8159
▁conver	-8160
▁harder	-8161
▁carried	-8162
▁counsel	-8163
▁genetic	-8164
▁quarter	-8165
▁serving	-8166
▁smoking	-8167
▁stadium	-8168
▁theater	-8169
▁category	-8170
▁machines	-8171
▁chemicals	-8172
▁southeast	-8173
▁witnesses	-8174
▁challenges	-8175
▁increasingly	-8176
iol	-8177
▁bì	-8178
▁rã	-8179
fall	-8180
ński	-8181
▁fas	-8182
▁sốc	-8183
annah	-8184
inate	-8185
works	-8186
▁1997	-8187
▁chat	-8188
▁kông	-8189
▁lind	-8190
▁pink	-8191
▁quit	-8192
▁soph	-8193
▁trop	-8194
▁điền	-8195
▁giáng	-8196
▁laser	-8197
▁wheel	-8198
iciency	-8199
▁acknow	-8200
▁monica	-8201
▁answers	-8202
▁emperor	-8203
▁hanging	-8204
▁illness	-8205
▁birthday	-8206
▁combined	-8207
▁recording	-8208
ẹt	-8209
▁zo	-8210
wind	-8211
▁bốc	-8212
▁chẽ	-8213
▁kon	-8214
▁nảy	-8215
▁váy	-8216
itors	-8217
point	-8218
▁jeff	-8219
▁logo	-8220
▁orch	-8221
▁phơi	-8222
▁rick	-8223
▁tone	-8224
▁2019.	-8225
▁meals	-8226
▁quyến	-8227
▁rates	-8228
▁contem	-8229
▁gender	-8230
▁puerto	-8231
▁satell	-8232
▁videos	-8233
▁massive	-8234
▁olympic	-8235
▁typical	-8236
▁younger	-8237
▁describe	-8238
▁policies	-8239
▁promoted	-8240
▁suggests	-8241
▁syndrome	-8242
▁versions	-8243
▁alexander	-8244
▁encourage	-8245
▁exercises	-8246
▁mentioned	-8247
aga	-8248
uls	-8249
uri	-8250
▁ds	-8251
▁ốm	-8252
▁pho	-8253
▁1996	-8254
▁	-8255
n	-8256
t	-8257
h	-8258
i	-8259
e	-8260
a	-8261
o	-8262
c	-8263
r	-8264
s	-8265
g	-8266
l	-8267
u	-8268
m	-8269
d	-8270
y	-8271
p	-8272
.	-8273
b	-8274
v	-8275
đ	-8276
,	-8277
à	-8278
k	-8279
f	-8280
w	-8281
ư	-8282
á	-8283
ô	-8284
ó	-8285
ế	-8286
ạ	-8287
ộ	-8288
ả	-8289
'	-8290
ấ	-8291
ố	-8292
ê	-8293
ệ	-8294
ớ	-8295
ể	-8296
ờ	-8297
x	-8298
-	-8299
ì	-8300
ủ	-8301
â	-8302
1	-8303
q	-8304
ợ	-8305
ề	-8306
ậ	-8307
0	-8308
ú	-8309
ơ	-8310
?	-8311
ầ	-8312
ã	-8313
í	-8314
ở	-8315
ọ	-8316
ự	-8317
ữ	-8318
ứ	-8319
ị	-8320
2	-8321
ă	-8322
"	-8323
ắ	-8324
j	-8325
ụ	-8326
(	-8327
ồ	-8328
)	-8329
ặ	-8330
9	-8331
ẽ	-8332
z	-8333
ừ	-8334
ổ	-8335
ù	-8336
ò	-8337
ằ	-8338
ử	-8339
5	-8340
3	-8341
ỏ	-8342
ĩ	-8343
4	-8344
8	-8345
ũ	-8346
ỉ	-8347
6	-8348
é	-8349
ý	-8350
7	-8351
!	-8352
:	-8353
ỗ	-8354
ẩ	-8355
ẫ	-8356
ẻ	-8357
ễ	-8358
ẹ	-8359
;	-8360
ỳ	-8361
/	-8362
ẳ	-8363
ỹ	-8364
ỷ	-8365
è	-8366
ỡ	-8367
–	-8368
õ	-8369
%	-8370
ẵ	-8371
ł	-8372
$	-8373
+	-8374
=	-8375
&	-8376
ō	-8377
°	-8378
ỵ	-8379
ń	-8380
ś	-8381
]	-8382
[	-8383
*	-8384
ę	-8385
ñ	-8386
#	-8387
×	-8388
́	-8389
}	-8390
ü	-8391
′	-8392
ö	-8393
α	-8394
ż	-8395
−	-8396
ŏ	-8397
ą	-8398
ا	-8399
̣	-8400
ā	-8401
±	-8402
ي	-8403
ū	-8404
‘	-8405
а	-8406
β	-8407
ل	-8408
ç	-8409
̀	-8410
ر	-8411
и	-8412
ə	-8413
\	-8414
ä	-8415
~	-8416
ن	-8417
`	-8418
م	-8419
→	-8420
е	-8421
●	-8422
μ	-8423
с	-8424
š	-8425
ب	-8426
|	-8427
ˈ	-8428
>	-8429
н	-8430
о	-8431
•	-8432
⁄	-8433
^	-8434
ː	-8435
ɪ	-8436
̉	-8437
к	-8438
̃	-8439
р	-8440
ة	-8441
č	-8442
ć	-8443
л	-8444
و	-8445
ー	-8446
π	-8447
د	-8448
ï	-8449
в	-8450
т	-8451
ë	-8452
γ	-8453
ī	-8454
ε	-8455
·	-8456
⌘	-8457
ع	-8458
ð	-8459
ρ	-8460
£	-8461
ź	-8462
∗	-8463
τ	-8464
δ	-8465
ت	-8466
イ	-8467
س	-8468
ف	-8469
_	-8470
ø	-8471
å	-8472
æ	-8473
λ	-8474
м	-8475
ο	-8476
ج	-8477
ラ	-8478
€	-8479
σ	-8480
д	-8481
ß	-8482
ē	-8483
ح	-8484
ン	-8485
ν	-8486
的	-8487
î	-8488
ɑ	-8489
ش	-8490
ア	-8491
ق	-8492
<	-8493
ч	-8494
⊞	-8495
☉	-8496
の	-8497
大	-8498
ě	-8499
ž	-8500
κ	-8501
ه	-8502
ı	-8503
й	-8504
י	-8505
학	-8506
®	-8507
ŭ	-8508
п	-8509
ş	-8510
ǃ	-8511
ǎ	-8512
ι	-8513
ς	-8514
ы	-8515
я	-8516
전	-8517
ʊ	-8518
ά	-8519
у	-8520
ь	-8521
⇧	-8522
ス	-8523
ト	-8524
교	-8525
@	-8526
θ	-8527
б	-8528
ɛ	-8529
ˀ	-8530
г	-8531
경	-8532
ز	-8533
ṭ	-8534
・	-8535
人	-8536
사	-8537
ك	-8538
ḥ	-8539
†	-8540
フ	-8541
ル	-8542
氏	-8543
성	-8544
ב	-8545
أ	-8546
⋅	-8547
中	-8548
天	-8549
日	-8550
最	-8551
生	-8552
문	-8553
÷	-8554
ɔ	-8555
ɡ	-8556
η	-8557
φ	-8558
א	-8559
ו	-8560
ص	-8561
ん	-8562
之	-8563
佳	-8564
小	-8565
û	-8566
ř	-8567
∈	-8568
し	-8569
ク	-8570
レ	-8571
ロ	-8572
会	-8573
家	-8574
文	-8575
§	-8576
ǐ	-8577
ω	-8578
х	-8579
ط	-8580
्	-8581
‐	-8582
⌥	-8583
ド	-8584
子	-8585
田	-8586
飯	-8587
고	-8588
¥	-8589
«	-8590
»	-8591
ʻ	-8592
خ	-8593
ม	-8594
≥	-8595
지	-8596
ʒ	-8597
ύ	-8598
з	-8599
ш	-8600
ל	-8601
ṣ	-8602
⋮	-8603
る	-8604
ッ	-8605
ブ	-8606
リ	-8607
上	-8608
五	-8609
山	-8610
爱	-8611
王	-8612
ŋ	-8613
ő	-8614
̇	-8615
χ	-8616
ע	-8617
う	-8618
カ	-8619
ム	-8620
我	-8621
本	-8622
社	-8623
대	-8624
동	-8625
ǒ	-8626
ʃ	-8627
ʔ	-8628
έ	-8629
ξ	-8630
ָ	-8631
ی	-8632
と	-8633
な	-8634
ィ	-8635
シ	-8636
タ	-8637
ュ	-8638
原	-8639
国	-8640
太	-8641
忠	-8642
東	-8643
演	-8644
神	-8645
長	-8646
기	-8647
부	-8648
장	-8649
©	-8650
ζ	-8651
ц	-8652
ִ	-8653
ד	-8654
ש	-8655
৳	-8656
≠	-8657
ウ	-8658
ダ	-8659
テ	-8660
デ	-8661
ネ	-8662
三	-8663
化	-8664
宝	-8665
式	-8666
愛	-8667
明	-8668
春	-8669
株	-8670
街	-8671
道	-8672
개	-8673
찌	-8674
þ	-8675
ğ	-8676
ș	-8677
ț	-8678
ʌ	-8679
υ	-8680
ж	-8681
ф	-8682
і	-8683
ְ	-8684
ר	-8685
ת	-8686
र	-8687
व	-8688
น	-8689
ი	-8690
რ	-8691
ṃ	-8692
ῖ	-8693
⏎	-8694
ら	-8695
エ	-8696
ゲ	-8697
ゴ	-8698
ジ	-8699
一	-8700
八	-8701
力	-8702
员	-8703
女	-8704
情	-8705
新	-8706
方	-8707
极	-8708
江	-8709
瀬	-8710
男	-8711
科	-8712
藤	-8713
超	-8714
青	-8715
鬼	-8716
ɒ	-8717
˧	-8718
˩	-8719
ί	-8720
ό	-8721
ּ	-8722
מ	-8723
ס	-8724
ّ	-8725
म	-8726
า	-8727
ḍ	-8728
←	-8729
■	-8730
い	-8731
た	-8732
ち	-8733
キ	-8734
ギ	-8735
バ	-8736
不	-8737
东	-8738
佐	-8739
光	-8740
友	-8741
在	-8742
川	-8743
平	-8744
御	-8745
技	-8746
民	-8747
港	-8748
皇	-8749
者	-8750
術	-8751
野	-8752
院	-8753
面	-8754
香	-8755
수	-8756
원	-8757
타	-8758
{	-8759
¡	-8760
ħ	-8761
ň	-8762
ų	-8763
ɨ	-8764
ˌ	-8765
˥	-8766
ַ	-8767
ה	-8768
ק	-8769
ض	-8770
غ	-8771
क	-8772
न	-8773
ा	-8774
າ	-8775
ე	-8776
ს	-8777
ẓ	-8778
√	-8779
⊕	-8780
○	-8781
☰	-8782
♯	-8783
⟨	-8784
⟩	-8785
か	-8786
に	-8787
ォ	-8788
オ	-8789
コ	-8790
ノ	-8791
プ	-8792
ユ	-8793
主	-8794
出	-8795
单	-8796
古	-8797
可	-8798
和	-8799
四	-8800
坂	-8801
城	-8802
夏	-8803
外	-8804
学	-8805
将	-8806
彦	-8807
影	-8808
所	-8809
政	-8810
會	-8811
月	-8812
未	-8813
李	-8814
村	-8815
横	-8816
欧	-8817
歌	-8818
法	-8819
津	-8820
海	-8821
源	-8822
灵	-8823
电	-8824
目	-8825
福	-8826
究	-8827
空	-8828
立	-8829
精	-8830
紫	-8831
統	-8832
絵	-8833
華	-8834
見	-8835
视	-8836
言	-8837
马	-8838
나	-8839
보	-8840
시	-8841
연	-8842
저	-8843
정	-8844
𒀭	-8845
œ	-8846
˦	-8847
Υ	-8848
э	-8849
त	-8850
ั	-8851
∞	-8852
⊙	-8853
♪	-8854
♭	-8855
お	-8856
が	-8857
き	-8858
さ	-8859
だ	-8860
グ	-8861
ゼ	-8862
世	-8863
争	-8864
仮	-8865
先	-8866
全	-8867
十	-8868
南	-8869
司	-8870
吉	-8871
名	-8872
宮	-8873
州	-8874
常	-8875
想	-8876
朱	-8877
梦	-8878
次	-8879
武	-8880
水	-8881
洋	-8882
片	-8883
物	-8884
石	-8885
親	-8886
赤	-8887
起	-8888
近	-8889
金	-8890
钟	-8891
가	-8892
냐	-8893
화	-8894
¿	-8895
ľ	-8896
ŝ	-8897
ŧ	-8898
ǀ	-8899
ǔ	-8900
ǝ	-8901
ȍ	-8902
ʋ	-8903
ʿ	-8904
̍	-8905
̤	-8906
ή	-8907
ё	-8908
ׁ	-8909
ט	-8910
ء	-8911
َ	-8912
ल	-8913
ी	-8914
े	-8915
র	-8916
া	-8917
ਗ	-8918
ਰ	-8919
พ	-8920
ย	-8921
ิ	-8922
่	-8923
ນ	-8924
ຫ	-8925
န	-8926
ယ	-8927
ა	-8928
მ	-8929
ᵻ	-8930
ḿ	-8931
ṁ	-8932
ṛ	-8933
ẋ	-8934
ἐ	-8935
ἰ	-8936
ὰ	-8937
ῶ	-8938
∣	-8939
∩	-8940
≈	-8941
≢	-8942
⊂	-8943
⊗	-8944
┻	-8945
╯	-8946
☃	-8947
☆	-8948
け	-8949
こ	-8950
ご	-8951
そ	-8952
つ	-8953
ぶ	-8954
も	-8955
り	-8956
ヌ	-8957
パ	-8958
マ	-8959
ミ	-8960
メ	-8961
丸	-8962
乐	-8963
九	-8964
代	-8965
们	-8966
众	-8967
使	-8968
信	-8969
像	-8970
元	-8971
公	-8972
创	-8973
制	-8974
剧	-8975
功	-8976
华	-8977
博	-8978
后	-8979
向	-8980
喜	-8981
塞	-8982
士	-8983
央	-8984
好	-8985
姫	-8986
娘	-8987
字	-8988
安	-8989
宫	-8990
导	-8991
寿	-8992
少	-8993
帝	-8994
年	-8995
度	-8996
廠	-8997
张	-8998
恋	-8999
摄	-9000
斗	-9001
星	-9002
晚	-9003
朝	-9004
根	-9005
機	-9006
欢	-9007
母	-9008
河	-9009
油	-9010
派	-9011
浜	-9012
灣	-9013
火	-9014
狗	-9015
猫	-9016
监	-9017
秀	-9018
秘	-9019
米	-9020
级	-9021
纪	-9022
纸	-9023
美	-9024
脑	-9025
至	-9026
臺	-9027
草	-9028
行	-9029
西	-9030
观	-9031
说	-9032
贝	-9033
身	-9034
边	-9035
都	-9036
里	-9037
重	-9038
长	-9039
阳	-9040
限	-9041
須	-9042
颂	-9043
风	-9044
飩	-9045
餛	-9046
광	-9047
군	-9048
는	-9049
니	-9050
령	-9051
로	-9052
마	-9053
범	-9054
법	-9055
비	-9056
스	-9057
아	-9058
에	-9059
여	-9060
우	-9061
은	-9062
의	-9063
이	-9064
인	-9065
자	-9066
젓	-9067
제	-9068
추	-9069
카	-9070
호	-9071
𒆳	-9072
𒌷	-9073
ė	-9074
ǁ	-9075
ɣ	-9076
ʼ	-9077
˨	-9078
̋	-9079
̏	-9080
ψ	-9081
ю	-9082
ח	-9083
ן	-9084
נ	-9085
צ	-9086
إ	-9087
ى	-9088
ُ	-9089
द	-9090
ष	-9091
स	-9092
จ	-9093
ธ	-9094
ร	-9095
ว	-9096
ี	-9097
የ	-9098
ἀ	-9099
―	-9100
„	-9101
‰	-9102
⁝	-9103
∅	-9104
♠	-9105
く	-9106
ば	-9107
ほ	-9108
ま	-9109
サ	-9110
チ	-9111
ニ	-9112
ビ	-9113
ボ	-9114
京	-9115
你	-9116
党	-9117
内	-9118
切	-9119
千	-9120
命	-9121
商	-9122
土	-9123
圣	-9124
地	-9125
宁	-9126
尚	-9127
巴	-9128
広	-9129
役	-9130
成	-9131
戦	-9132
教	-9133
曲	-9134
柳	-9135
桐	-9136
死	-9137
殿	-9138
泰	-9139
浦	-9140
深	-9141
清	-9142
温	-9143
澄	-9144
球	-9145
白	-9146
磐	-9147
突	-9148
第	-9149
紺	-9150
胎	-9151
能	-9152
若	-9153
英	-9154
荘	-9155
菅	-9156
語	-9157
賞	-9158
赛	-9159
路	-9160
郵	-9161
闇	-9162
际	-9163
隆	-9164
集	-9165
魔	-9166
龍	-9167
龙	-9168
그	-9169
네	-9170
다	-9171
발	-9172
어	-9173
언	-9174
쳐	-9175
트	-9176
하	-9177
M	-9178
T	-9179
¢	-9180
¶	-9181
ĕ	-9182
ĝ	-9183
ţ	-9184
ƒ	-9185
ǧ	-9186
ȁ	-9187
ɕ	-9188
ɜ	-9189
ɢ	-9190
ɵ	-9191
ʉ	-9192
ʾ	-9193
̊	-9194
͂	-9195
ώ	-9196
щ	-9197
җ	-9198
֑	-9199
֔	-9200
֖	-9201
ֱ	-9202
ֶ	-9203
ֹ	-9204
ך	-9205
כ	-9206
ם	-9207
ץ	-9208
ث	-9209
ذ	-9210
ظ	-9211
ِ	-9212
ڠ	-9213
ܟ	-9214
ܡ	-9215
ܪ	-9216
ܬ	-9217
ं	-9218
ख	-9219
ग	-9220
ब	-9221
य	-9222
़	-9223
ु	-9224
ই	-9225
ঠ	-9226
ম	-9227
ਥ	-9228
ੁ	-9229
ੂ	-9230
੍	-9231
ੰ	-9232
இ	-9233
உ	-9234
ட	-9235
ன	-9236
ய	-9237
ை	-9238
்	-9239
ก	-9240
ถ	-9241
ล	-9242
ส	-9243
อ	-9244
ู	-9245
เ	-9246
ไ	-9247
์	-9248
ํ	-9249
ງ	-9250
ທ	-9251
ບ	-9252
ມ	-9253
ວ	-9254
ສ	-9255
ະ	-9256
ິ	-9257
ຼ	-9258
້	-9259
ໍ	-9260
စ	-9261
မ	-9262
ံ	-9263
း	-9264
်	-9265
ွ	-9266
ვ	-9267
თ	-9268
ლ	-9269
ნ	-9270
ო	-9271
პ	-9272
ტ	-9273
ქ	-9274
ማ	-9275
ር	-9276
ት	-9277
ነ	-9278
ያ	-9279
ፍ	-9280
ḇ	-9281
ḗ	-9282
ḫ	-9283
ṅ	-9284
ẟ	-9285
ἔ	-9286
ὶ	-9287
ῥ	-9288
‭	-9289
↓	-9290
↹	-9291
⇀	-9292
⇩	-9293
∏	-9294
∑	-9295
∓	-9296
∥	-9297
≡	-9298
≤	-9299
⋯	-9300
━	-9301
□	-9302
☁	-9303
★	-9304
⚙	-9305
✓	-9306
ⱬ	-9307
《	-9308
》	-9309
ぐ	-9310
ざ	-9311
じ	-9312
す	-9313
て	-9314
ど	-9315
は	-9316
ぼ	-9317
ぽ	-9318
み	-9319
む	-9320
め	-9321
わ	-9322
を	-9323
ケ	-9324
ザ	-9325
ツ	-9326
ナ	-9327
ハ	-9328
ヒ	-9329
モ	-9330
ョ	-9331
ヴ	-9332
下	-9333
专	-9334
乗	-9335
予	-9336
事	-9337
云	-9338
井	-9339
亚	-9340
亜	-9341
亮	-9342
仁	-9343
仇	-9344
仏	-9345
仔	-9346
令	-9347
任	-9348
伊	-9349
伏	-9350
伐	-9351
优	-9352
传	-9353
伤	-9354
伪	-9355
伴	-9356
位	-9357
体	-9358
佗	-9359
例	-9360
便	-9361
修	-9362
傳	-9363
兄	-9364
兒	-9365
內	-9366
关	-9367
再	-9368
写	-9369
军	-9370
凶	-9371
分	-9372
刊	-9373
列	-9374
初	-9375
利	-9376
到	-9377
前	-9378
創	-9379
劫	-9380
势	-9381
北	-9382
匪	-9383
医	-9384
半	-9385
县	-9386
史	-9387
号	-9388
君	-9389
吟	-9390
吳	-9391
吹	-9392
器	-9393
回	-9394
圍	-9395
園	-9396
圖	-9397
场	-9398
坊	-9399
執	-9400
墾	-9401
壬	-9402
壺	-9403
多	-9404
夫	-9405
夺	-9406
奋	-9407
妇	-9408
妹	-9409
姐	-9410
姑	-9411
姓	-9412
娇	-9413
孙	-9414
宇	-9415
守	-9416
宗	-9417
宸	-9418
密	-9419
察	-9420
对	-9421
尔	-9422
尘	-9423
尾	-9424
岛	-9425
島	-9426
差	-9427
布	-9428
希	-9429
師	-9430
幡	-9431
幸	-9432
幻	-9433
庁	-9434
建	-9435
开	-9436
弟	-9437
弦	-9438
強	-9439
录	-9440
形	-9441
彬	-9442
彰	-9443
律	-9444
德	-9445
忆	-9446
忍	-9447
快	-9448
怒	-9449
思	-9450
悲	-9451
感	-9452
懌	-9453
戍	-9454
戰	-9455
扉	-9456
手	-9457
打	-9458
抹	-9459
捉	-9460
捷	-9461
推	-9462
摺	-9463
改	-9464
敌	-9465
斎	-9466
无	-9467
早	-9468
时	-9469
易	-9470
映	-9471
晓	-9472
書	-9473
有	-9474
服	-9475
朔	-9476
木	-9477
末	-9478
杀	-9479
条	-9480
来	-9481
杨	-9482
杯	-9483
松	-9484
林	-9485
果	-9486
枝	-9487
标	-9488
栗	-9489
样	-9490
格	-9491
桓	-9492
梁	-9493
梨	-9494
椒	-9495
榜	-9496
榮	-9497
構	-9498
橫	-9499
止	-9500
歸	-9501
殊	-9502
毒	-9503
汁	-9504
汗	-9505
汪	-9506
沈	-9507
沙	-9508
沢	-9509
治	-9510
泛	-9511
洞	-9512
洲	-9513
流	-9514
浅	-9515
浮	-9516
浸	-9517
淸	-9518
滨	-9519
滩	-9520
漢	-9521
濠	-9522
濱	-9523
灯	-9524
為	-9525
炼	-9526
烈	-9527
烟	-9528
焉	-9529
牍	-9530
牘	-9531
牡	-9532
特	-9533
狐	-9534
独	-9535
狱	-9536
狼	-9537
猎	-9538
猛	-9539
理	-9540
琊	-9541
琴	-9542
瑗	-9543
瑞	-9544
瑯	-9545
画	-9546
異	-9547
登	-9548
盗	-9549
直	-9550
眼	-9551
督	-9552
知	-9553
码	-9554
研	-9555
破	-9556
碑	-9557
礫	-9558
禁	-9559
离	-9560
私	-9561
稱	-9562
稲	-9563
積	-9564
章	-9565
笔	-9566
笛	-9567
策	-9568
简	-9569
箭	-9570
節	-9571
篠	-9572
簡	-9573
系	-9574
納	-9575
終	-9576
結	-9577
經	-9578
総	-9579
編	-9580
纯	-9581
绝	-9582
综	-9583
编	-9584
网	-9585
置	-9586
老	-9587
耶	-9588
背	-9589
胡	-9590
腔	-9591
膳	-9592
自	-9593
致	-9594
舟	-9595
航	-9596
色	-9597
艺	-9598
节	-9599
花	-9600
茶	-9601
茸	-9602
荅	-9603
蒙	-9604
蔣	-9605
蕎	-9606
藍	-9607
蝦	-9608
蟹	-9609
蠣	-9610
袁	-9611
装	-9612
補	-9613
见	-9614
訓	-9615
読	-9616
諜	-9617
諭	-9618
議	-9619
记	-9620
谁	-9621
谎	-9622
谷	-9623
財	-9624
賢	-9625
败	-9626
贴	-9627
越	-9628
距	-9629
踩	-9630
車	-9631
軍	-9632
辛	-9633
辺	-9634
达	-9635
这	-9636
迷	-9637
速	-9638
造	-9639
遍	-9640
邊	-9641
郎	-9642
钦	-9643
锋	-9644
锻	-9645
開	-9646
閩	-9647
闯	-9648
间	-9649
阿	-9650
陛	-9651
雄	-9652
雨	-9653
露	-9654
革	-9655
音	-9656
願	-9657
领	-9658
题	-9659
風	-9660
餅	-9661
馆	-9662
鮎	-9663
鯛	-9664
鶻	-9665
麟	-9666
麦	-9667
麻	-9668
黄	-9669
게	-9670
결	-9671
공	-9672
과	-9673
구	-9674
국	-9675
궁	-9676
근	-9677
글	-9678
김	-9679
녀	-9680
농	-9681
단	-9682
된	-9683
두	-9684
딩	-9685
라	-9686
란	-9687
램	-9688
러	-9689
레	-9690
리	-9691
릴	-9692
림	-9693
명	-9694
몰	-9695
몽	-9696
뮈	-9697
민	-9698
박	-9699
밥	-9700
배	-9701
백	-9702
번	-9703
병	-9704
불	-9705
블	-9706
빈	-9707
빌	-9708
빔	-9709
쁜	-9710
삐	-9711
산	-9712
삼	-9713
새	-9714
생	-9715
서	-9716
설	-9717
소	-9718
슈	-9719
습	-9720
신	-9721
실	-9722
쌈	-9723
야	-9724
업	-9725
예	-9726
웃	-9727
육	-9728
을	-9729
임	-9730
좋	-9731
주	-9732
준	-9733
줄	-9734
진	-9735
째	-9736
차	-9737
참	-9738
천	-9739
청	-9740
최	-9741
치	-9742
침	-9743
탄	-9744
터	-9745
텔	-9746
토	-9747
톤	-9748
티	-9749
파	-9750
퍼	-9751
표	-9752
한	-9753
해	-9754
행	-9755
향	-9756
혁	-9757
회	-9758
희	-9759
﨑	-9760
️	-9761
～	-9762
𒀜	-9763
𒂗	-9764
𒄡	-9765
𒄩	-9766
𒄿	-9767
𒊭	-9768
𒋾	-9769
𒌅	-9770
𒍪	-9771
F	-9772
	-9773
¤	-9774
¦	-9775
­	-9776
ď	-9777
ķ	-9778
ļ	-9779
ǹ	-9780
ɯ	-9781
ʹ	-9782
̈	-9783
ъ	-9784
ї	-9785
ґ	-9786
ү	-9787
ӕ	-9788
ֵ	-9789
ג	-9790
ף	-9791
פ	-9792
ئ	-9793
ْ	-9794
ک	-9795
گ	-9796
ܒ	-9797
ܚ	-9798
ܠ	-9799
ܦ	-9800
अ	-9801
ण	-9802
ध	-9803
श	-9804
ह	-9805
ि	-9806
ृ	-9807
ो	-9808
ਬ	-9809
ਸ	-9810
ਹ	-9811
ਾ	-9812
ਿ	-9813
ข	-9814
ค	-9815
ณ	-9816
ภ	-9817
ุ	-9818
แ	-9819
โ	-9820
ใ	-9821
င	-9822
ဒ	-9823
ဘ	-9824
ရ	-9825
ု	-9826
ኛ	-9827
‚	-9828
‡	-9829
₤	-9830
₽	-9831
↔	-9832
∃	-9833
∉	-9834
∘	-9835
∼	-9836
△	-9837
「	-9838
」	-9839
ず	-9840
ゆ	-9841
よ	-9842
ェ	-9843
ガ	-9844
ヤ	-9845
七	-9846
习	-9847
二	-9848
伝	-9849
伟	-9850
伦	-9851
侍	-9852
克	-9853
免	-9854
兴	-9855
兼	-9856
円	-9857
冠	-9858
净	-9859
准	-9860
剣	-9861
办	-9862
勇	-9863
動	-9864
勝	-9865
卓	-9866
卢	-9867
卫	-9868
参	-9869
吒	-9870
周	-9871
哀	-9872
响	-9873
哪	-9874
哭	-9875
固	-9876
國	-9877
基	-9878
堂	-9879
場	-9880
声	-9881
夜	-9882
嬴	-9883
學	-9884
宋	-9885
定	-9886
宴	-9887
寫	-9888
寬	-9889
専	-9890
嵐	-9891
工	-9892
康	-9893
强	-9894
忽	-9895
性	-9896
恒	-9897
您	-9898
慶	-9899
憲	-9900
應	-9901
扬	-9902
押	-9903
掌	-9904
放	-9905
散	-9906
敬	-9907
斬	-9908
旺	-9909
時	-9910
普	-9911
暉	-9912
枚	-9913
校	-9914
梶	-9915
楽	-9916
橋	-9917
气	-9918
永	-9919
洁	-9920
浪	-9921
消	-9922
潮	-9923
炎	-9924
煉	-9925
牧	-9926
狂	-9927
獄	-9928
界	-9929
瞳	-9930
秃	-9931
競	-9932
篤	-9933
簿	-9934
糖	-9935
素	-9936
線	-9937
继	-9938
罪	-9939
耀	-9940
聖	-9941
腰	-9942
興	-9943
蒽	-9944
蔵	-9945
虞	-9946
號	-9947
衝	-9948
被	-9949
話	-9950
让	-9951
貌	-9952
贺	-9953
足	-9954
送	-9955
透	-9956
鉄	-9957
錢	-9958
钱	-9959
锦	-9960
闪	-9961
雪	-9962
電	-9963
霊	-9964
顏	-9965
颜	-9966
餃	-9967
驻	-9968
高	-9969
鳳	-9970
鸢	-9971
麗	-9972
齊	-9973
견	-9974
관	-9975
까	-9976
너	-9977
달	-9978
드	-9979
랑	-9980
랜	-9981
루	-9982
말	-9983
미	-9984
밀	-9985
쉐	-9986
영	-9987
올	-9988
왠	-9989
일	-9990
쩌	-9991
콤	-9992
𐤄	-9993
𐤎	-9994
𐤐	-9995
